const unsigned char model[] = {

  0x1c, 0x00, 0x00, 0x00, 0x54, 0x46, 0x4c, 0x33, 0x14, 0x00, 0x20, 0x00, 
  0x1c, 0x00, 0x18, 0x00, 0x14, 0x00, 0x10, 0x00, 0x0c, 0x00, 0x00, 0x00, 
  0x08, 0x00, 0x04, 0x00, 0x14, 0x00, 0x00, 0x00, 0x1c, 0x00, 0x00, 0x00, 
  0x98, 0x00, 0x00, 0x00, 0xf0, 0x00, 0x00, 0x00, 0xa0, 0x2c, 0x00, 0x00, 
  0xb0, 0x2c, 0x00, 0x00, 0x64, 0x32, 0x00, 0x00, 0x03, 0x00, 0x00, 0x00, 
  0x01, 0x00, 0x00, 0x00, 0x10, 0x00, 0x00, 0x00, 0x00, 0x00, 0x0a, 0x00, 
  0x10, 0x00, 0x0c, 0x00, 0x08, 0x00, 0x04, 0x00, 0x0a, 0x00, 0x00, 0x00, 
  0x0c, 0x00, 0x00, 0x00, 0x1c, 0x00, 0x00, 0x00, 0x3c, 0x00, 0x00, 0x00, 
  0x0f, 0x00, 0x00, 0x00, 0x73, 0x65, 0x72, 0x76, 0x69, 0x6e, 0x67, 0x5f, 
  0x64, 0x65, 0x66, 0x61, 0x75, 0x6c, 0x74, 0x00, 0x01, 0x00, 0x00, 0x00, 
  0x04, 0x00, 0x00, 0x00, 0x90, 0xff, 0xff, 0xff, 0x0a, 0x00, 0x00, 0x00, 
  0x04, 0x00, 0x00, 0x00, 0x08, 0x00, 0x00, 0x00, 0x6f, 0x75, 0x74, 0x70, 
  0x75, 0x74, 0x5f, 0x30, 0x00, 0x00, 0x00, 0x00, 0x01, 0x00, 0x00, 0x00, 
  0x04, 0x00, 0x00, 0x00, 0x46, 0xd3, 0xff, 0xff, 0x04, 0x00, 0x00, 0x00, 
  0x0c, 0x00, 0x00, 0x00, 0x6b, 0x65, 0x72, 0x61, 0x73, 0x5f, 0x74, 0x65, 
  0x6e, 0x73, 0x6f, 0x72, 0x00, 0x00, 0x00, 0x00, 0x02, 0x00, 0x00, 0x00, 
  0x34, 0x00, 0x00, 0x00, 0x04, 0x00, 0x00, 0x00, 0xdc, 0xff, 0xff, 0xff, 
  0x0d, 0x00, 0x00, 0x00, 0x04, 0x00, 0x00, 0x00, 0x13, 0x00, 0x00, 0x00, 
  0x43, 0x4f, 0x4e, 0x56, 0x45, 0x52, 0x53, 0x49, 0x4f, 0x4e, 0x5f, 0x4d, 
  0x45, 0x54, 0x41, 0x44, 0x41, 0x54, 0x41, 0x00, 0x08, 0x00, 0x0c, 0x00, 
  0x08, 0x00, 0x04, 0x00, 0x08, 0x00, 0x00, 0x00, 0x0c, 0x00, 0x00, 0x00, 
  0x04, 0x00, 0x00, 0x00, 0x13, 0x00, 0x00, 0x00, 0x6d, 0x69, 0x6e, 0x5f, 
  0x72, 0x75, 0x6e, 0x74, 0x69, 0x6d, 0x65, 0x5f, 0x76, 0x65, 0x72, 0x73, 
  0x69, 0x6f, 0x6e, 0x00, 0x0e, 0x00, 0x00, 0x00, 0xac, 0x2b, 0x00, 0x00, 
  0xa4, 0x2b, 0x00, 0x00, 0x94, 0x29, 0x00, 0x00, 0x84, 0x09, 0x00, 0x00, 
  0x64, 0x09, 0x00, 0x00, 0xd4, 0x08, 0x00, 0x00, 0xc4, 0x07, 0x00, 0x00, 
  0xb4, 0x00, 0x00, 0x00, 0xac, 0x00, 0x00, 0x00, 0xa4, 0x00, 0x00, 0x00, 
  0x9c, 0x00, 0x00, 0x00, 0x94, 0x00, 0x00, 0x00, 0x74, 0x00, 0x00, 0x00, 
  0x04, 0x00, 0x00, 0x00, 0xfa, 0xd3, 0xff, 0xff, 0x04, 0x00, 0x00, 0x00, 
  0x60, 0x00, 0x00, 0x00, 0x10, 0x00, 0x00, 0x00, 0x00, 0x00, 0x00, 0x00, 
  0x08, 0x00, 0x0e, 0x00, 0x08, 0x00, 0x04, 0x00, 0x08, 0x00, 0x00, 0x00, 
  0x10, 0x00, 0x00, 0x00, 0x24, 0x00, 0x00, 0x00, 0x00, 0x00, 0x06, 0x00, 
  0x08, 0x00, 0x04, 0x00, 0x06, 0x00, 0x00, 0x00, 0x04, 0x00, 0x00, 0x00, 
  0x00, 0x00, 0x00, 0x00, 0x0c, 0x00, 0x18, 0x00, 0x14, 0x00, 0x10, 0x00, 
  0x0c, 0x00, 0x04, 0x00, 0x0c, 0x00, 0x00, 0x00, 0xa5, 0xdb, 0xb5, 0x19, 
  0x05, 0xa3, 0x78, 0x60, 0x02, 0x00, 0x00, 0x00, 0x02, 0x00, 0x00, 0x00, 
  0x04, 0x00, 0x00, 0x00, 0x06, 0x00, 0x00, 0x00, 0x32, 0x2e, 0x31, 0x39, 
  0x2e, 0x30, 0x00, 0x00, 0x66, 0xd4, 0xff, 0xff, 0x04, 0x00, 0x00, 0x00, 
  0x10, 0x00, 0x00, 0x00, 0x31, 0x2e, 0x35, 0x2e, 0x30, 0x00, 0x00, 0x00, 
  0x00, 0x00, 0x00, 0x00, 0x00, 0x00, 0x00, 0x00, 0x7c, 0xcf, 0xff, 0xff, 
  0x80, 0xcf, 0xff, 0xff, 0x84, 0xcf, 0xff, 0xff, 0x88, 0xcf, 0xff, 0xff, 
  0x92, 0xd4, 0xff, 0xff, 0x04, 0x00, 0x00, 0x00, 0x00, 0x07, 0x00, 0x00, 
  0xee, 0xe6, 0x6d, 0x3e, 0x9b, 0xec, 0x81, 0x3d, 0xfd, 0xde, 0x2d, 0x3e, 
  0x92, 0x9b, 0xf6, 0x3d, 0xb6, 0x52, 0xe1, 0xbd, 0xda, 0x49, 0x18, 0xbe, 
  0xf2, 0x65, 0x4f, 0xbe, 0x7f, 0x4a, 0x22, 0xbe, 0x0b, 0xb1, 0xe8, 0x3d, 
  0x7f, 0xf4, 0xa7, 0x3e, 0x93, 0x8d, 0x85, 0xbe, 0xc5, 0x65, 0x8c, 0x3e, 
  0xc8, 0xfc, 0x38, 0x3e, 0xc6, 0x7f, 0x61, 0xbe, 0x38, 0xa7, 0x03, 0x3e, 
  0xf6, 0x53, 0xa3, 0x3e, 0x42, 0xcd, 0xb3, 0xbc, 0x07, 0xb7, 0x32, 0x3c, 
  0x88, 0x60, 0x06, 0xbe, 0x0f, 0x62, 0xf1, 0x3c, 0x4a, 0xa3, 0x41, 0xbe, 
  0x8d, 0x7d, 0x67, 0xbe, 0x8b, 0xc3, 0x32, 0xbe, 0x1c, 0xc0, 0xaa, 0xbe, 
  0x9d, 0xd0, 0x02, 0xbe, 0x32, 0xee, 0x72, 0xbd, 0x1a, 0xeb, 0xc3, 0xbd, 
  0xfc, 0xc8, 0x2c, 0xbd, 0x73, 0x76, 0xbd, 0xbc, 0x72, 0xe7, 0x27, 0x3c, 
  0x53, 0xbc, 0x2e, 0x3e, 0x64, 0x1e, 0x78, 0xbd, 0x34, 0x40, 0x57, 0xbd, 
  0x67, 0xf4, 0xf8, 0x3d, 0x56, 0xa6, 0x50, 0xbe, 0xed, 0xf8, 0x13, 0xbe, 
  0xef, 0xd4, 0x35, 0xbd, 0x15, 0xb5, 0xd1, 0x3d, 0xff, 0xe5, 0xa4, 0xbe, 
  0xba, 0x6b, 0x90, 0xbd, 0x70, 0x10, 0x78, 0x3e, 0x92, 0x23, 0x94, 0xbd, 
  0x8c, 0x29, 0xc2, 0xbd, 0xec, 0x8e, 0xb3, 0x3d, 0x2a, 0x64, 0x56, 0xbd, 
  0x71, 0x05, 0x5f, 0xbe, 0x00, 0x0a, 0xe9, 0x3d, 0x3f, 0x7c, 0x2b, 0xbe, 
  0xd1, 0x57, 0x83, 0x3e, 0x08, 0x53, 0x93, 0xbe, 0x91, 0x76, 0x02, 0x3e, 
  0x01, 0x60, 0x87, 0x3e, 0xc9, 0xe7, 0x91, 0xbe, 0x44, 0xde, 0xc4, 0x3d, 
  0x00, 0x7c, 0x89, 0xbe, 0xc0, 0x4a, 0x3f, 0xbd, 0x3b, 0x52, 0x7a, 0x3e, 
  0x64, 0xc2, 0x7a, 0xbe, 0xbb, 0x01, 0x8d, 0x3e, 0xc2, 0x61, 0x70, 0x3a, 
  0x6b, 0x50, 0xf8, 0x3d, 0x71, 0x32, 0x23, 0x3e, 0xaa, 0x75, 0x86, 0xbe, 
  0xe3, 0x83, 0xa8, 0x3d, 0xa2, 0xa1, 0x0f, 0x3e, 0x0f, 0x87, 0x27, 0x3e, 
  0x06, 0xa3, 0x86, 0x3e, 0x06, 0xb3, 0x92, 0xbe, 0xd9, 0xa2, 0xf0, 0xbd, 
  0x80, 0x54, 0xae, 0x3b, 0xf3, 0x5a, 0xcf, 0x3d, 0xed, 0xf6, 0x79, 0xbe, 
  0xc6, 0x15, 0x1c, 0xbe, 0x9c, 0x6e, 0x26, 0xbe, 0x46, 0x21, 0x8c, 0x3e, 
  0x44, 0xc9, 0x03, 0x3e, 0x10, 0x37, 0x47, 0x3e, 0xdd, 0xc3, 0xac, 0xbd, 
  0xbb, 0xd2, 0xaf, 0xbd, 0x59, 0xb2, 0xab, 0xbd, 0x2f, 0x03, 0x2c, 0xbe, 
  0x00, 0x87, 0x25, 0xbe, 0x59, 0xb0, 0xb1, 0xbe, 0xe8, 0xa5, 0x0c, 0x3e, 
  0x55, 0xb6, 0x1a, 0x3e, 0x56, 0xdf, 0x5c, 0xbd, 0xfe, 0x2b, 0x74, 0x3e, 
  0x23, 0xd5, 0x11, 0xbe, 0x6a, 0x23, 0xbe, 0xbc, 0x93, 0xc1, 0x09, 0xbe, 
  0x12, 0xc6, 0x16, 0x3e, 0xb6, 0x07, 0x72, 0xbe, 0xd9, 0x7b, 0x34, 0x3e, 
  0x47, 0xb1, 0x7f, 0x3d, 0x76, 0x5f, 0xc9, 0xbc, 0x80, 0x39, 0xa8, 0xbd, 
  0xb8, 0x0c, 0x17, 0x3c, 0xb2, 0x57, 0x31, 0x3e, 0xe8, 0x55, 0x0a, 0x3e, 
  0x23, 0x71, 0x22, 0xbe, 0x60, 0xd8, 0x45, 0xbc, 0xbe, 0x6c, 0xd9, 0x3d, 
  0x1a, 0xaf, 0x16, 0x3e, 0x8c, 0x5d, 0xec, 0x3d, 0xe2, 0x0b, 0x52, 0x3e, 
  0x2a, 0x58, 0x2e, 0x3e, 0x83, 0x30, 0x19, 0x3e, 0x62, 0x76, 0x22, 0xbe, 
  0x4a, 0x57, 0x76, 0x3e, 0x04, 0x85, 0x43, 0x3e, 0xf0, 0xf3, 0x72, 0xbe, 
  0xa0, 0x2a, 0xf4, 0x3d, 0xf9, 0x20, 0x93, 0xbe, 0x7b, 0xe3, 0xb4, 0xbd, 
  0x67, 0x83, 0x6b, 0xbe, 0x6c, 0x2e, 0xd0, 0xbc, 0x4b, 0x23, 0x6f, 0x3e, 
  0x32, 0x43, 0x94, 0x3e, 0x90, 0x6a, 0x37, 0xbe, 0x50, 0x89, 0x25, 0x3e, 
  0x28, 0x2c, 0xf9, 0xbd, 0xaf, 0x09, 0x69, 0x3e, 0x3f, 0x80, 0x30, 0x3e, 
  0xc5, 0xfb, 0x11, 0xbe, 0xe1, 0xe2, 0x0f, 0x3e, 0xc0, 0x16, 0xfa, 0xbb, 
  0x83, 0x02, 0x88, 0x3d, 0xa6, 0xc3, 0xfc, 0xbd, 0x38, 0xb8, 0xb9, 0x3d, 
  0x9a, 0x9e, 0x91, 0xbd, 0x3f, 0x3e, 0x82, 0x3d, 0xd8, 0x99, 0x1f, 0x3e, 
  0x80, 0xf5, 0x5d, 0x3b, 0x1b, 0xdd, 0x29, 0x3e, 0x2b, 0xf7, 0x6e, 0x3d, 
  0xa1, 0x5a, 0x1d, 0xbe, 0xf3, 0x47, 0x99, 0x3d, 0x3c, 0xeb, 0x8e, 0xbe, 
  0xd5, 0xe4, 0x09, 0x3e, 0x00, 0xcc, 0x33, 0x3a, 0x8f, 0xb0, 0xe9, 0xbd, 
  0x73, 0x3a, 0x8b, 0xbd, 0x54, 0x97, 0x2d, 0xbe, 0x6f, 0x2f, 0xb2, 0x3e, 
  0x8c, 0x8d, 0x17, 0xbc, 0xea, 0xd1, 0x4d, 0x3e, 0x50, 0x38, 0x2f, 0xbd, 
  0x3c, 0x4e, 0x28, 0xbe, 0x4b, 0xc0, 0x52, 0x3e, 0x31, 0x2c, 0xeb, 0xbc, 
  0x6e, 0x9b, 0x41, 0x3e, 0xa9, 0xb8, 0x66, 0xbe, 0xa7, 0xa7, 0x83, 0x3e, 
  0x22, 0x69, 0x77, 0x3e, 0x20, 0x69, 0x38, 0xbe, 0x57, 0xf9, 0x93, 0x3e, 
  0x4b, 0x1d, 0x4b, 0x3e, 0xbf, 0x46, 0x4e, 0x3e, 0xe7, 0x06, 0x4c, 0x3c, 
  0x3a, 0x8e, 0x74, 0xbc, 0x3c, 0x5c, 0x89, 0x3d, 0x92, 0x92, 0x96, 0xbe, 
  0x3f, 0x0d, 0x39, 0x3e, 0xc4, 0x93, 0xcf, 0x3d, 0x4d, 0x7e, 0x1b, 0x3d, 
  0xa7, 0xe0, 0x90, 0x3e, 0xda, 0x1f, 0xa8, 0x3e, 0x32, 0xa6, 0x36, 0x3e, 
  0xfa, 0x39, 0x45, 0xbe, 0xc8, 0xf4, 0x07, 0x3e, 0xae, 0xd3, 0x98, 0xbe, 
  0x9a, 0x99, 0x89, 0xbd, 0xc7, 0x15, 0x6a, 0x3c, 0x51, 0x2a, 0x8c, 0x3e, 
  0x26, 0x8c, 0x3a, 0x3e, 0x8f, 0x9b, 0xdc, 0x3d, 0xe6, 0xfb, 0x50, 0xbe, 
  0xff, 0xde, 0xec, 0xb9, 0x11, 0x4a, 0x41, 0xbc, 0x6a, 0x4d, 0xac, 0x3c, 
  0x19, 0x96, 0xc6, 0x3d, 0x5e, 0x7b, 0x59, 0x3e, 0x13, 0xa3, 0x54, 0x3e, 
  0x42, 0x71, 0xbb, 0x3d, 0xee, 0xa5, 0xbe, 0xbc, 0x56, 0x71, 0xa1, 0xba, 
  0x75, 0x82, 0x6f, 0xbe, 0xfa, 0xd7, 0xa3, 0xbe, 0x7e, 0x58, 0x8b, 0xbd, 
  0x91, 0x3a, 0x45, 0x3d, 0x08, 0x6b, 0x67, 0xbe, 0x85, 0x80, 0x2c, 0x3c, 
  0xd2, 0xbc, 0x9d, 0xbe, 0x12, 0xdc, 0xba, 0x3d, 0x8e, 0xae, 0x5a, 0xbe, 
  0x36, 0x6b, 0x39, 0x3e, 0x8c, 0x68, 0x30, 0xbe, 0x59, 0xbf, 0x59, 0x3e, 
  0xa9, 0xf1, 0x7e, 0xbe, 0x6a, 0x94, 0x8f, 0xbe, 0x2a, 0x91, 0x0a, 0x3c, 
  0x14, 0x5c, 0x49, 0xbe, 0xf6, 0x13, 0x3e, 0xbe, 0x74, 0x67, 0x39, 0xbe, 
  0x64, 0xd8, 0x50, 0x3e, 0xa3, 0x54, 0xc1, 0x3d, 0xf5, 0x84, 0xe2, 0x3d, 
  0xe9, 0x24, 0x4c, 0xbe, 0xfd, 0xab, 0x6a, 0x3e, 0x68, 0xa9, 0x0e, 0x3d, 
  0x82, 0x8a, 0xba, 0xbe, 0x25, 0x7e, 0x18, 0x3e, 0xe6, 0x47, 0xb5, 0xbe, 
  0x47, 0x22, 0x0e, 0x3e, 0x54, 0x66, 0xcb, 0x3d, 0xc0, 0x06, 0x7c, 0x3e, 
  0x16, 0x2a, 0x26, 0x3e, 0xba, 0xc9, 0x88, 0xbe, 0xe6, 0x9c, 0x62, 0xbe, 
  0xad, 0xca, 0x29, 0x3e, 0x53, 0x69, 0x35, 0xbe, 0x37, 0xc7, 0x71, 0xbe, 
  0xb2, 0xb3, 0xd2, 0x3c, 0xe9, 0x11, 0x90, 0xbe, 0x88, 0xe1, 0x58, 0x3d, 
  0x0c, 0xd8, 0x47, 0x3e, 0x6b, 0x1d, 0x2b, 0xbd, 0xe7, 0xae, 0x21, 0xbe, 
  0xe4, 0x4f, 0xa2, 0xbd, 0xd2, 0x7c, 0xf3, 0x3d, 0x60, 0x13, 0xd9, 0xbd, 
  0x21, 0xc5, 0x2c, 0xbe, 0x58, 0x11, 0x8c, 0xbe, 0x96, 0x7e, 0x55, 0x3e, 
  0xba, 0x93, 0xaa, 0xbd, 0xe7, 0x01, 0x4a, 0x3d, 0x52, 0x60, 0x32, 0x3e, 
  0xc6, 0x07, 0x2e, 0x3e, 0xb4, 0xb6, 0xc9, 0xbd, 0x8e, 0xac, 0xa3, 0x3e, 
  0x74, 0x62, 0x68, 0x3d, 0x66, 0x13, 0x90, 0xbe, 0x79, 0x26, 0xaa, 0xbe, 
  0xa5, 0x07, 0x0d, 0xbd, 0xdc, 0xf8, 0x4e, 0xbe, 0x60, 0x48, 0xc2, 0xbe, 
  0x0f, 0x19, 0x01, 0xbe, 0x50, 0xec, 0x8f, 0xbe, 0x93, 0xa2, 0xaf, 0xbd, 
  0x73, 0xa0, 0x9b, 0xbe, 0x57, 0xd6, 0x6c, 0x3e, 0xc4, 0xba, 0xcc, 0xbd, 
  0x71, 0x24, 0x97, 0xbe, 0xc8, 0xf7, 0x1a, 0x3e, 0xeb, 0xae, 0x42, 0x3d, 
  0x3e, 0xfe, 0xe3, 0x3d, 0x50, 0x89, 0x9b, 0xbe, 0x16, 0x8e, 0xa8, 0xbe, 
  0x2a, 0x07, 0x5e, 0x3e, 0x65, 0x32, 0x81, 0x3e, 0x64, 0xc8, 0x6b, 0xbe, 
  0xf4, 0x06, 0x5b, 0x3e, 0x94, 0x70, 0x73, 0xbe, 0x69, 0x9d, 0x9e, 0x3d, 
  0x7f, 0xd1, 0x82, 0xbe, 0x4b, 0xb6, 0x8b, 0x3e, 0x06, 0xd9, 0x80, 0xbe, 
  0x15, 0xa1, 0xb9, 0x3d, 0x6b, 0xd9, 0xb7, 0x3d, 0x55, 0x31, 0x8c, 0x3b, 
  0x3c, 0x77, 0x5f, 0x3e, 0xcb, 0x9e, 0xa1, 0xbe, 0xf4, 0xcc, 0xa1, 0x3d, 
  0xd2, 0xcc, 0x3a, 0xbd, 0x6a, 0xab, 0xad, 0x3e, 0xae, 0xf8, 0x61, 0x3d, 
  0xfd, 0x65, 0x05, 0xbe, 0x5b, 0x74, 0x91, 0xbe, 0x78, 0xa6, 0x60, 0x3e, 
  0xf0, 0x6e, 0xc3, 0x3c, 0x0e, 0x62, 0xaa, 0x3c, 0x99, 0xe0, 0x31, 0x3e, 
  0xd6, 0x5d, 0x24, 0x3e, 0xe8, 0xfe, 0x60, 0xbe, 0x86, 0x23, 0xfb, 0xbd, 
  0x6d, 0xab, 0x92, 0x3e, 0x3e, 0x46, 0x5a, 0x3e, 0x87, 0xb4, 0x87, 0x3e, 
  0x7c, 0xf5, 0x9a, 0xbe, 0x83, 0x9c, 0xea, 0xbc, 0x72, 0x33, 0x78, 0x3e, 
  0x9d, 0x87, 0x63, 0xbe, 0xe8, 0x64, 0x8f, 0x3d, 0xa0, 0x4e, 0x9e, 0xbc, 
  0x10, 0xf8, 0x5b, 0xbd, 0x4c, 0x6f, 0x92, 0x3e, 0x3e, 0xfd, 0x71, 0xbe, 
  0xf2, 0xef, 0x06, 0x3e, 0x2d, 0x52, 0x10, 0xbe, 0xe2, 0x75, 0x90, 0x3e, 
  0x45, 0x33, 0x85, 0x3e, 0x7f, 0x20, 0xe0, 0x3d, 0x98, 0x05, 0xce, 0x3c, 
  0x48, 0x07, 0x60, 0xbd, 0x9c, 0x46, 0x0a, 0x3e, 0x6c, 0xda, 0x90, 0xbe, 
  0x6c, 0x6f, 0xc3, 0xbd, 0xd2, 0x48, 0x81, 0xbe, 0xbb, 0x2b, 0x0e, 0x3e, 
  0x28, 0xa3, 0xad, 0x3e, 0xbf, 0x31, 0xcd, 0x3d, 0x80, 0x05, 0x6d, 0x3c, 
  0x27, 0x82, 0x84, 0xbe, 0x44, 0x83, 0x82, 0x3d, 0x92, 0xc2, 0x39, 0xbe, 
  0x5e, 0x8b, 0x13, 0x3e, 0x8e, 0xa2, 0xae, 0xbd, 0x64, 0x05, 0x68, 0x3e, 
  0x4b, 0x57, 0x22, 0xbe, 0x1b, 0x43, 0x8a, 0x3d, 0x5e, 0xaa, 0x43, 0x3e, 
  0x7c, 0xc5, 0xb5, 0xbd, 0x6b, 0xf3, 0x11, 0x3e, 0x1a, 0x76, 0xab, 0x3c, 
  0xdc, 0xec, 0x8b, 0xbe, 0x77, 0xd9, 0x2e, 0x3e, 0xb5, 0x0b, 0x95, 0xbe, 
  0x00, 0x62, 0xe5, 0x3d, 0x20, 0xc7, 0x20, 0xbd, 0x64, 0x60, 0x5d, 0xbd, 
  0x9f, 0x6d, 0x1f, 0x3e, 0x21, 0xfc, 0x25, 0xbe, 0x9b, 0x09, 0x8c, 0x3e, 
  0xb0, 0xca, 0x85, 0xbd, 0xdd, 0x2a, 0x76, 0x3c, 0x54, 0x4d, 0xab, 0x3d, 
  0x82, 0x06, 0x91, 0xbe, 0x0b, 0x85, 0xd9, 0x3d, 0x4c, 0x5e, 0xf6, 0x3a, 
  0x84, 0x55, 0xf1, 0xbc, 0xdd, 0x0c, 0xd5, 0xbd, 0xef, 0x99, 0x25, 0xbe, 
  0x37, 0x13, 0x55, 0xbe, 0x11, 0x6f, 0xbd, 0xbd, 0xe6, 0x17, 0xa1, 0xbd, 
  0xc5, 0x20, 0x74, 0x3d, 0x73, 0xcf, 0x20, 0xbc, 0xb6, 0x83, 0x69, 0xbe, 
  0xb0, 0x13, 0x7c, 0xbd, 0x26, 0x16, 0x2a, 0xbe, 0x15, 0x1c, 0x90, 0x3e, 
  0xc2, 0xdd, 0xbd, 0x3d, 0xb2, 0xc4, 0x22, 0xbd, 0x89, 0xc4, 0xb8, 0x3b, 
  0x1e, 0xf8, 0x77, 0x3e, 0x38, 0x68, 0x5e, 0xbe, 0xf8, 0x7d, 0x15, 0xbd, 
  0xdf, 0xbd, 0x60, 0xbd, 0x19, 0x77, 0x23, 0xbc, 0x2b, 0x94, 0x4c, 0xbe, 
  0x86, 0x60, 0x1f, 0x3e, 0x00, 0xb3, 0xbb, 0xbd, 0x03, 0x53, 0x92, 0xbe, 
  0x40, 0xca, 0xff, 0xbb, 0x68, 0x05, 0x10, 0x3e, 0x70, 0xc6, 0xc2, 0x3d, 
  0xef, 0x05, 0x17, 0x3e, 0x16, 0xee, 0x05, 0xbe, 0xd8, 0x9a, 0x9c, 0xbd, 
  0xd3, 0x90, 0x95, 0x3d, 0x78, 0x55, 0xaa, 0xbd, 0x14, 0xf4, 0xb5, 0x3b, 
  0xdb, 0xb6, 0xfc, 0x3d, 0xd4, 0x2e, 0x5e, 0x3d, 0xe0, 0x72, 0x3e, 0xbe, 
  0x0a, 0x20, 0x68, 0x3e, 0x13, 0x97, 0x6b, 0x3e, 0x1c, 0x37, 0x32, 0xbd, 
  0xf1, 0x00, 0x93, 0xbe, 0x0b, 0x07, 0x33, 0x3e, 0x02, 0x75, 0x52, 0xbe, 
  0x2d, 0x05, 0x75, 0x3e, 0x77, 0xbf, 0x88, 0xbe, 0xf2, 0x31, 0x97, 0x3e, 
  0x1a, 0xde, 0x7d, 0x3e, 0xfb, 0xfc, 0x5f, 0xbd, 0x5d, 0x8a, 0x00, 0xbe, 
  0x15, 0x9f, 0x60, 0x3e, 0x29, 0x58, 0x86, 0xbe, 0x33, 0xea, 0x33, 0x3d, 
  0x75, 0x9c, 0xb6, 0x3d, 0x2c, 0xaa, 0x8a, 0xbe, 0xa8, 0x50, 0xa9, 0x3d, 
  0x1e, 0xef, 0xf5, 0x3c, 0x10, 0x12, 0xd1, 0xbd, 0xe4, 0xad, 0x92, 0xbe, 
  0x2d, 0xec, 0x00, 0x3e, 0x0f, 0xf6, 0x93, 0x3e, 0x40, 0x76, 0x98, 0xbc, 
  0x53, 0xfd, 0x4f, 0x3e, 0x0e, 0x0e, 0x1e, 0xbd, 0x41, 0x53, 0x22, 0x3e, 
  0x9f, 0xcb, 0x74, 0x3e, 0x65, 0x8f, 0x39, 0xbe, 0xa8, 0xd1, 0x15, 0x3e, 
  0x7c, 0x4c, 0x3d, 0x3e, 0x0a, 0xb3, 0x9c, 0x3e, 0x27, 0xfa, 0x64, 0xbe, 
  0x05, 0x8b, 0x2e, 0xbe, 0x2c, 0x74, 0x2b, 0xbe, 0x53, 0x56, 0x98, 0x3e, 
  0xd4, 0x92, 0x4e, 0xbd, 0x0a, 0x39, 0x34, 0xbe, 0x38, 0x36, 0xfe, 0xbd, 
  0x1e, 0x6b, 0x7e, 0xbe, 0xf8, 0x44, 0x8b, 0x3d, 0x8a, 0xee, 0x71, 0xbe, 
  0x86, 0x01, 0x21, 0xbd, 0x51, 0x21, 0x98, 0x3e, 0xfb, 0xbd, 0x89, 0x3e, 
  0xec, 0xfb, 0x63, 0xbd, 0x0e, 0x72, 0xb0, 0x3e, 0x74, 0xac, 0x60, 0xbd, 
  0xe0, 0xbc, 0x7e, 0x3e, 0xe9, 0x40, 0x90, 0x3e, 0x32, 0x6b, 0xce, 0x3d, 
  0x76, 0x72, 0x3b, 0x3e, 0xa3, 0xea, 0x0f, 0xbe, 0x04, 0xad, 0x30, 0x3e, 
  0x68, 0x47, 0x80, 0xbe, 0x8c, 0xbf, 0xab, 0xbd, 0xf1, 0x14, 0x56, 0x3d, 
  0x34, 0x18, 0x75, 0xbe, 0x78, 0x99, 0x8c, 0x3d, 0xc1, 0x0f, 0x8e, 0x3e, 
  0xd3, 0x84, 0x16, 0x3e, 0x6d, 0x71, 0x16, 0xbe, 0xdc, 0xc8, 0x9f, 0x3d, 
  0x65, 0x56, 0x4f, 0xbe, 0x45, 0x56, 0x7f, 0xbd, 0x12, 0x8c, 0x66, 0xbe, 
  0x20, 0xfa, 0x6f, 0xbe, 0x15, 0x8c, 0x63, 0x3d, 0xc7, 0xa7, 0x5e, 0x3e, 
  0x59, 0x0c, 0xbc, 0x3b, 0x4e, 0xe8, 0x0e, 0x3e, 0x48, 0x1f, 0x71, 0x3e, 
  0x0a, 0x22, 0x7c, 0xbe, 0x9e, 0xdb, 0xff, 0xff, 0x04, 0x00, 0x00, 0x00, 
  0x00, 0x01, 0x00, 0x00, 0x3c, 0x1c, 0x4d, 0xbc, 0x58, 0x14, 0xa7, 0x3d, 
  0xf9, 0xd9, 0x85, 0x3d, 0xed, 0x10, 0x2b, 0x3d, 0x4a, 0x82, 0xb0, 0xbd, 
  0x40, 0x28, 0x33, 0x3d, 0xca, 0x5d, 0xa7, 0xbd, 0x5f, 0x95, 0x30, 0x3d, 
  0x70, 0x31, 0x06, 0x3c, 0xf0, 0x40, 0x79, 0x3d, 0x71, 0xae, 0xca, 0xb9, 
  0x55, 0x00, 0x75, 0x3d, 0xdd, 0xec, 0xa1, 0x3c, 0x88, 0xe9, 0x91, 0xbd, 
  0xd6, 0x9f, 0xeb, 0xbc, 0xe5, 0xc1, 0x3c, 0xbd, 0x78, 0xb2, 0xdd, 0x3d, 
  0x46, 0x1c, 0x0e, 0xbd, 0x88, 0x40, 0x91, 0xbb, 0x8b, 0x7c, 0xe1, 0x3d, 
  0x21, 0xe6, 0xe1, 0x3c, 0x0c, 0x23, 0x60, 0x3a, 0x0a, 0x90, 0x3b, 0x3a, 
  0x79, 0x48, 0xa0, 0x3d, 0x28, 0xb7, 0x87, 0x3d, 0xc9, 0xb9, 0x46, 0xbb, 
  0x48, 0xd7, 0x51, 0x3d, 0xa2, 0x1b, 0x09, 0x3d, 0xa9, 0x4f, 0x3f, 0x3c, 
  0x6b, 0xc3, 0xba, 0x3d, 0x8d, 0x05, 0x6d, 0x3c, 0x5f, 0xcb, 0x27, 0xbd, 
  0x83, 0x64, 0x03, 0x3c, 0x9f, 0x09, 0xab, 0x3c, 0xb6, 0x61, 0x50, 0x3d, 
  0xd3, 0xd5, 0x67, 0x3d, 0x4c, 0x25, 0xc9, 0x3c, 0xe3, 0x00, 0xb3, 0x3d, 
  0x36, 0x0d, 0xbb, 0x3d, 0x64, 0xf0, 0x85, 0x3d, 0x34, 0x6d, 0x9e, 0x3d, 
  0x34, 0x84, 0xa9, 0x3c, 0x43, 0x36, 0xa6, 0xbb, 0x66, 0xac, 0xc4, 0x3c, 
  0xc2, 0x09, 0xae, 0x3d, 0xea, 0xfc, 0xfc, 0xbc, 0xe6, 0x0d, 0x0d, 0x3c, 
  0xfd, 0x22, 0x5b, 0xbd, 0x2d, 0x3b, 0x24, 0x3d, 0xd7, 0xe5, 0x91, 0xbd, 
  0x6e, 0x0c, 0x2d, 0x3d, 0xc5, 0x8a, 0x04, 0x3d, 0x1b, 0xea, 0x8e, 0xbc, 
  0x9c, 0x2e, 0x1f, 0x3d, 0xfc, 0xb7, 0x79, 0x3d, 0x46, 0xb3, 0x20, 0x3d, 
  0x5b, 0x64, 0x4e, 0x3d, 0x37, 0x14, 0x21, 0xbd, 0x68, 0x85, 0x2a, 0xbb, 
  0x84, 0x30, 0x9a, 0x3d, 0x23, 0xbe, 0x84, 0x3d, 0xb8, 0xed, 0xc9, 0xba, 
  0x29, 0xdc, 0xac, 0xbc, 0x90, 0xd9, 0x6d, 0xbb, 0xaa, 0xdc, 0xff, 0xff, 
  0x04, 0x00, 0x00, 0x00, 0x80, 0x00, 0x00, 0x00, 0x90, 0xf0, 0x9c, 0x3d, 
  0x71, 0x04, 0x99, 0x3d, 0x03, 0x02, 0x82, 0x3b, 0xae, 0x41, 0xc4, 0x3d, 
  0x7a, 0x13, 0x11, 0xbd, 0x79, 0xda, 0x2a, 0xbd, 0xf5, 0xd7, 0x72, 0xbd, 
  0x32, 0xf6, 0x69, 0x3d, 0x6d, 0x60, 0x42, 0xbd, 0xd4, 0x41, 0x6e, 0x3c, 
  0x75, 0x75, 0x18, 0xbc, 0x67, 0xa3, 0xee, 0xbc, 0xe9, 0xcd, 0xd5, 0x3d, 
  0xf8, 0x35, 0xdc, 0xbc, 0x09, 0x4a, 0xd2, 0x3c, 0xb5, 0x46, 0x0d, 0x3d, 
  0x4c, 0x0c, 0x6a, 0xbd, 0xfd, 0xba, 0x9b, 0x3a, 0xe8, 0xfe, 0xfc, 0xbc, 
  0x50, 0xb2, 0x4f, 0xbd, 0xe3, 0x26, 0xaa, 0x3d, 0xd3, 0x5a, 0xf5, 0x3d, 
  0x8a, 0xde, 0x57, 0xbd, 0x64, 0xac, 0x00, 0x3d, 0x1b, 0xb9, 0xbd, 0x3d, 
  0xe0, 0xc3, 0x96, 0xbc, 0x15, 0x4f, 0xe8, 0x3d, 0xf5, 0x15, 0x05, 0xbd, 
  0x4b, 0xd4, 0x74, 0xbc, 0x61, 0x84, 0x4a, 0xbd, 0x64, 0x6f, 0x10, 0x3e, 
  0xb6, 0xe9, 0xe0, 0x3d, 0x36, 0xdd, 0xff, 0xff, 0x04, 0x00, 0x00, 0x00, 
  0x10, 0x00, 0x00, 0x00, 0xbc, 0x9f, 0xd8, 0x3b, 0xa2, 0x6a, 0x91, 0x3d, 
  0x16, 0xfc, 0x8a, 0xbd, 0x2e, 0xa7, 0xf3, 0xbd, 0x52, 0xdd, 0xff, 0xff, 
  0x04, 0x00, 0x00, 0x00, 0x00, 0x20, 0x00, 0x00, 0xaf, 0x2c, 0x23, 0xbe, 
  0x96, 0xc9, 0xe5, 0xbd, 0x4c, 0x0d, 0x16, 0xbe, 0x3a, 0xb2, 0x07, 0x3e, 
  0xbb, 0x8c, 0xa4, 0xbd, 0x88, 0x67, 0xfd, 0xbc, 0xd3, 0x96, 0xd1, 0xbd, 
  0x94, 0x00, 0xad, 0xbc, 0x66, 0xc0, 0x2c, 0xbe, 0xac, 0x1c, 0x30, 0xbd, 
  0x0a, 0x20, 0xfd, 0xbc, 0x25, 0x31, 0x44, 0x3c, 0x14, 0xbe, 0x60, 0xbe, 
  0x40, 0xf7, 0x5f, 0x3e, 0xc7, 0xc1, 0x4e, 0x3e, 0xfe, 0x46, 0x6c, 0xbd, 
  0x9c, 0x1f, 0xb1, 0x3e, 0x42, 0x5f, 0x5d, 0x3e, 0xc1, 0xc3, 0x47, 0x3e, 
  0x82, 0x1c, 0xc5, 0xbc, 0xa2, 0x52, 0xdd, 0x3d, 0xab, 0x0a, 0x17, 0x3e, 
  0xb6, 0x55, 0x3e, 0x3e, 0x05, 0xe5, 0x9c, 0x3e, 0x22, 0xf6, 0x14, 0x3d, 
  0x67, 0xd4, 0xd3, 0x3d, 0x92, 0x69, 0x0a, 0x3e, 0xfd, 0x0d, 0x16, 0x3d, 
  0x32, 0xf7, 0x4f, 0x3d, 0xfa, 0x06, 0xf8, 0x3d, 0x01, 0x3c, 0x84, 0x3c, 
  0xa4, 0xc7, 0x86, 0x3e, 0x49, 0xb1, 0x43, 0xbe, 0xf7, 0x73, 0x59, 0xbd, 
  0x45, 0x2f, 0xb1, 0xbd, 0x68, 0x61, 0x9e, 0x3e, 0x75, 0x90, 0x0d, 0xbe, 
  0x0d, 0x3c, 0x8f, 0x3e, 0xc0, 0x2c, 0x13, 0x3d, 0xfd, 0x36, 0x2d, 0xbe, 
  0xef, 0x78, 0xd3, 0xbd, 0xe6, 0x77, 0x21, 0xbe, 0xb1, 0x9c, 0x07, 0xbd, 
  0x26, 0xf8, 0xe6, 0xbd, 0x4c, 0xa1, 0x73, 0x3d, 0x1d, 0x17, 0xe4, 0xbd, 
  0xc1, 0x01, 0x85, 0x3e, 0x32, 0x87, 0x36, 0x3e, 0x5d, 0x92, 0xbc, 0x3d, 
  0x2b, 0xfc, 0x68, 0x3e, 0x1a, 0x1a, 0x82, 0x3e, 0xda, 0xf2, 0x46, 0x3d, 
  0x29, 0x57, 0x1f, 0x3e, 0xf5, 0x90, 0xf9, 0xbd, 0x90, 0x7a, 0x38, 0x3e, 
  0xed, 0x7b, 0x23, 0x3e, 0xc6, 0xfe, 0xb8, 0xbd, 0xbe, 0xd3, 0x61, 0xbd, 
  0x34, 0xad, 0x84, 0xbc, 0x8a, 0xfe, 0x93, 0x3e, 0xb0, 0x09, 0xc5, 0xbd, 
  0xda, 0x4b, 0xbb, 0xbd, 0x6a, 0x4a, 0xe5, 0x3d, 0x19, 0x40, 0x34, 0x3e, 
  0x95, 0x5b, 0x12, 0xbd, 0x90, 0x18, 0xe3, 0xbd, 0x34, 0xbb, 0x21, 0x3d, 
  0xa4, 0xce, 0x30, 0x3e, 0xa6, 0x25, 0xf2, 0x3c, 0x07, 0x2f, 0x30, 0x3e, 
  0x89, 0xf7, 0x4d, 0xbd, 0x6e, 0x74, 0x09, 0x3e, 0xc9, 0x55, 0x9a, 0x3d, 
  0x3e, 0x7b, 0xc2, 0x3d, 0x67, 0x6e, 0x6a, 0xbe, 0xfe, 0x6f, 0x3a, 0xbe, 
  0xf8, 0xf7, 0x8b, 0x3e, 0xf0, 0x30, 0x29, 0x3c, 0x25, 0xac, 0x81, 0x3c, 
  0x8c, 0xb1, 0xf5, 0x3d, 0x1d, 0x68, 0x8c, 0xbd, 0x98, 0xaf, 0x21, 0xbe, 
  0x1a, 0x72, 0x23, 0x3e, 0xa5, 0x64, 0xa9, 0x3c, 0x27, 0xc6, 0xa0, 0x3b, 
  0xf6, 0xa3, 0xb9, 0xbd, 0xe2, 0xc7, 0x20, 0x3e, 0x8e, 0x12, 0x25, 0x3e, 
  0xdc, 0xbb, 0x20, 0x3c, 0x66, 0xd7, 0x56, 0xbe, 0xdb, 0x75, 0x41, 0x3e, 
  0xb2, 0x31, 0xfa, 0xbc, 0xbe, 0x8f, 0x4b, 0xbd, 0x73, 0xbd, 0x5b, 0x3e, 
  0xa7, 0x57, 0x80, 0x3e, 0xe0, 0xca, 0x50, 0x3d, 0xd1, 0xde, 0x5c, 0x3d, 
  0xd5, 0x8e, 0x16, 0xbe, 0x90, 0x7a, 0xf5, 0x3d, 0xe5, 0x75, 0x27, 0x3e, 
  0x2c, 0x60, 0x9f, 0xbc, 0x1d, 0x7a, 0x8b, 0x3e, 0x13, 0x5c, 0x97, 0xbd, 
  0xfa, 0x8a, 0x2e, 0x3e, 0x8c, 0xc6, 0x79, 0x3e, 0x51, 0x61, 0x0a, 0xbe, 
  0xfc, 0x83, 0x80, 0x3e, 0x7f, 0xd0, 0xfa, 0x3d, 0x49, 0xfe, 0xb0, 0x3d, 
  0x83, 0xbe, 0xb8, 0xbd, 0xdc, 0xca, 0x8e, 0x3d, 0x02, 0x86, 0x0d, 0xbe, 
  0xf8, 0xea, 0x2f, 0xbd, 0x1c, 0xf0, 0x27, 0xbe, 0x9b, 0x18, 0xb3, 0xbb, 
  0xe3, 0x48, 0x06, 0x3e, 0xc6, 0x04, 0x51, 0x3e, 0xa5, 0x6e, 0x44, 0x3e, 
  0x7c, 0x9a, 0x36, 0x3e, 0x15, 0x76, 0x49, 0xbe, 0x12, 0xbf, 0xa0, 0x3e, 
  0x71, 0xf1, 0x8a, 0xbd, 0x13, 0xc7, 0xb0, 0xbd, 0xf3, 0x63, 0xab, 0x3d, 
  0xe6, 0x5d, 0x0d, 0x3d, 0xab, 0xa2, 0xa0, 0xbb, 0x7b, 0xa0, 0x85, 0x3e, 
  0xf6, 0x55, 0x70, 0x3e, 0xc9, 0xdc, 0x70, 0x3e, 0xb3, 0x2a, 0x54, 0xbe, 
  0xd7, 0x22, 0x08, 0x3e, 0x2f, 0xad, 0x3c, 0xbe, 0xcb, 0xfd, 0x5c, 0x3e, 
  0xfe, 0x4b, 0xb2, 0x3d, 0x05, 0x2b, 0x05, 0x3e, 0x0a, 0xc2, 0x08, 0xbe, 
  0xbb, 0x75, 0x1e, 0xbe, 0xaf, 0xf8, 0x70, 0xbd, 0x05, 0x98, 0x36, 0xbe, 
  0x91, 0xdc, 0x43, 0x3e, 0xf9, 0x8d, 0x06, 0x3e, 0x94, 0xf1, 0x05, 0x3e, 
  0x6e, 0x51, 0xf0, 0xbc, 0x83, 0x7d, 0x1d, 0xbd, 0x97, 0xd0, 0x73, 0xbd, 
  0x11, 0x65, 0x43, 0xbe, 0x41, 0x0d, 0x9d, 0x3a, 0xcc, 0x5c, 0x17, 0x3e, 
  0x79, 0xd2, 0xf3, 0x3d, 0x8e, 0xef, 0xaf, 0x3d, 0xc7, 0x50, 0xc9, 0x3d, 
  0x03, 0xbb, 0x11, 0x3e, 0x76, 0x46, 0x13, 0x3d, 0x14, 0x94, 0xb6, 0x3d, 
  0x7b, 0x49, 0xf1, 0xbd, 0x6f, 0xb2, 0x10, 0x3d, 0xc5, 0x6c, 0x9d, 0x3c, 
  0xa7, 0xd4, 0xc2, 0x3d, 0x73, 0x3b, 0xb0, 0xbc, 0x95, 0xdd, 0x16, 0xbe, 
  0x79, 0xfe, 0x09, 0x3e, 0xe5, 0x8b, 0x27, 0xbe, 0xe9, 0x6b, 0x2d, 0xbe, 
  0x92, 0xf5, 0x65, 0xbe, 0xf5, 0x0e, 0x08, 0xbd, 0xbe, 0x39, 0x50, 0x3d, 
  0x57, 0x83, 0x7a, 0xbc, 0x08, 0x9a, 0xb9, 0xbd, 0x9b, 0xb4, 0x20, 0xbe, 
  0x0e, 0xe3, 0x90, 0x3d, 0x36, 0x98, 0x0b, 0xba, 0xd6, 0xaa, 0xe7, 0x3c, 
  0x66, 0x9f, 0x3e, 0xbe, 0x5d, 0x0b, 0xa1, 0x3c, 0xaf, 0xfc, 0x48, 0x3e, 
  0x09, 0x0a, 0x22, 0xbe, 0x09, 0xeb, 0xca, 0x3b, 0x53, 0xdd, 0x31, 0x3d, 
  0x92, 0x1c, 0x6c, 0xbd, 0x16, 0x8d, 0x76, 0x3e, 0x4d, 0x9b, 0x76, 0x3e, 
  0x31, 0xc6, 0x0c, 0xbe, 0x97, 0xc0, 0x88, 0xbe, 0x9d, 0xd5, 0x11, 0xbe, 
  0x3a, 0x91, 0xe4, 0x3d, 0xab, 0xbe, 0xd9, 0xbd, 0xe7, 0x27, 0x88, 0x3e, 
  0x28, 0x02, 0x8c, 0x3d, 0xd4, 0x76, 0x8a, 0xbd, 0x9f, 0x73, 0x4f, 0xbe, 
  0x9c, 0x8f, 0xcf, 0x3b, 0x48, 0x4e, 0x7e, 0xbe, 0x92, 0xd0, 0x60, 0x3e, 
  0x1d, 0x4e, 0x8c, 0x3e, 0x23, 0xd5, 0x6e, 0x3e, 0xaa, 0x06, 0x78, 0x3d, 
  0xb6, 0x2c, 0x29, 0xbe, 0xfa, 0xeb, 0x83, 0x3e, 0xc6, 0xee, 0x04, 0xbe, 
  0x31, 0xd2, 0x95, 0xbd, 0x63, 0xab, 0x0b, 0xbc, 0xa1, 0xac, 0xb2, 0x3c, 
  0xa6, 0xd7, 0x68, 0x3e, 0xa4, 0xcd, 0xf8, 0x3d, 0xbb, 0x71, 0x95, 0x3e, 
  0x0b, 0x67, 0x0a, 0xbe, 0xa8, 0x55, 0x2d, 0x3c, 0x4e, 0xdb, 0x41, 0xbe, 
  0x3f, 0x53, 0xab, 0x3e, 0xa0, 0xcd, 0xea, 0xbd, 0x73, 0x0b, 0x2e, 0x3e, 
  0xf7, 0x94, 0x74, 0x3e, 0x50, 0xd4, 0x06, 0x3d, 0xfb, 0xc5, 0x97, 0x3e, 
  0xa5, 0x7c, 0x29, 0xbe, 0x97, 0x06, 0x40, 0x3d, 0x3d, 0x17, 0x21, 0x3e, 
  0x9d, 0x68, 0x0d, 0x3e, 0x4f, 0x82, 0x5f, 0x3e, 0x60, 0xb3, 0x41, 0xbc, 
  0x0e, 0xb9, 0x15, 0x3e, 0x49, 0xe8, 0xe2, 0xbd, 0xfe, 0x1d, 0x19, 0x3e, 
  0x6e, 0x73, 0xe4, 0xbd, 0x80, 0x95, 0xb9, 0xbd, 0x50, 0x57, 0xd7, 0x3d, 
  0x33, 0xca, 0x61, 0x3e, 0xb8, 0xb1, 0xb0, 0x3e, 0x53, 0xd4, 0xfe, 0x3d, 
  0xa8, 0xbc, 0x81, 0xbc, 0x15, 0x46, 0x3f, 0x3e, 0x78, 0x72, 0x75, 0x3e, 
  0xa9, 0x57, 0xa7, 0x3b, 0xa1, 0x37, 0x83, 0x3e, 0xf7, 0x2c, 0x1c, 0x3e, 
  0x5b, 0xc5, 0xd9, 0x3c, 0x17, 0x22, 0x94, 0x3e, 0xcc, 0xa4, 0x01, 0xbd, 
  0x1f, 0xa3, 0xe7, 0x3c, 0xdd, 0x9f, 0x91, 0x3e, 0xed, 0xec, 0x2f, 0x3d, 
  0x4b, 0x20, 0xb5, 0xbd, 0x4a, 0xc9, 0x68, 0xbc, 0x87, 0x5f, 0x3e, 0x3d, 
  0xd5, 0x40, 0xc5, 0xbd, 0x32, 0x8a, 0x9d, 0xbd, 0x87, 0x47, 0xa1, 0x3e, 
  0xbb, 0x08, 0x41, 0x3e, 0x7a, 0x09, 0x47, 0x3c, 0x49, 0xe4, 0x82, 0x3e, 
  0xc0, 0x28, 0xd9, 0xbd, 0x17, 0xbf, 0x81, 0x3e, 0xb1, 0xb5, 0x5d, 0x3d, 
  0x32, 0xb4, 0x67, 0x3e, 0x3c, 0x74, 0x2c, 0xbe, 0x3b, 0x60, 0x78, 0x3e, 
  0x6a, 0xeb, 0x86, 0xbe, 0xf4, 0xb2, 0xc1, 0x3b, 0xca, 0x22, 0x47, 0x3e, 
  0xc1, 0x2b, 0x81, 0xbe, 0x5f, 0x5c, 0x1f, 0xbe, 0x2f, 0x7b, 0x89, 0x3d, 
  0x5d, 0xb8, 0xf2, 0x3d, 0xa4, 0xe7, 0x64, 0xbe, 0xb7, 0xb8, 0x41, 0xbe, 
  0xbe, 0x9b, 0xa1, 0x3c, 0xc6, 0x2d, 0x3d, 0xbe, 0x0b, 0xd5, 0x1b, 0xbe, 
  0x0b, 0x8c, 0xff, 0x3d, 0xf7, 0x8c, 0x51, 0xbe, 0x38, 0x27, 0x37, 0xbe, 
  0xea, 0x3a, 0xd8, 0x3d, 0x1b, 0x9c, 0x5c, 0xbd, 0x05, 0x26, 0x84, 0xbd, 
  0x97, 0x68, 0xa7, 0x3d, 0x61, 0x27, 0x8d, 0x3d, 0x2f, 0x5c, 0x37, 0xbe, 
  0x73, 0x2a, 0x81, 0xbe, 0x4b, 0x79, 0xe4, 0x3d, 0x04, 0xc0, 0x2d, 0xbe, 
  0x7b, 0x4d, 0x86, 0x3d, 0x06, 0x6f, 0x52, 0xbe, 0xab, 0x73, 0xaa, 0x3d, 
  0x7c, 0x63, 0xc4, 0x3d, 0x36, 0x68, 0x01, 0x3e, 0xcd, 0x97, 0xc6, 0x3c, 
  0xe9, 0x33, 0x8e, 0xbe, 0x8f, 0xd8, 0x1b, 0x3e, 0x94, 0x6d, 0x56, 0xbd, 
  0x33, 0x50, 0x45, 0xbd, 0x3f, 0xc1, 0x88, 0xbd, 0xf3, 0x84, 0xb6, 0xbd, 
  0x7d, 0xd0, 0x80, 0xbe, 0x9d, 0x9b, 0x09, 0x3e, 0x81, 0xa4, 0xbe, 0xbd, 
  0xd1, 0x76, 0xe8, 0x3d, 0xd4, 0x16, 0xad, 0xba, 0x10, 0x81, 0xb3, 0xbd, 
  0xde, 0x5b, 0xea, 0xbd, 0x4e, 0x43, 0x15, 0x3e, 0xb5, 0x2c, 0x5b, 0x3e, 
  0xbe, 0x21, 0xc1, 0x3b, 0x74, 0x1d, 0x04, 0xbe, 0x71, 0xbf, 0x4d, 0x3e, 
  0xa3, 0x75, 0x49, 0x3e, 0x85, 0xee, 0x31, 0xbe, 0xfc, 0x59, 0xae, 0xbd, 
  0x98, 0x10, 0xc6, 0xbd, 0xda, 0x9a, 0xdf, 0xbd, 0x6b, 0x2c, 0x08, 0x3e, 
  0x83, 0xc4, 0x35, 0x3d, 0x64, 0x78, 0xbd, 0xbd, 0x7a, 0x57, 0x62, 0xbe, 
  0x39, 0xaf, 0x39, 0x3d, 0x9c, 0x99, 0x2f, 0xbc, 0x9e, 0x32, 0xbc, 0xbd, 
  0xfc, 0x42, 0x4a, 0x3e, 0xb3, 0xa5, 0x77, 0xbe, 0x9f, 0x97, 0x9b, 0x3d, 
  0x96, 0x5c, 0xd3, 0xbc, 0x57, 0xe8, 0x9f, 0x3c, 0xe8, 0x48, 0xbb, 0xbd, 
  0xb9, 0xec, 0xd0, 0xbc, 0x4a, 0xe9, 0x47, 0xbe, 0x7f, 0x83, 0x59, 0xbe, 
  0xff, 0x44, 0xb4, 0xbc, 0x18, 0xe9, 0x5a, 0xbd, 0x7f, 0xca, 0xfd, 0xbd, 
  0x1d, 0x90, 0xb5, 0x3d, 0xd3, 0x60, 0x5d, 0xbe, 0x55, 0x46, 0x1c, 0x3a, 
  0xaa, 0xb4, 0x55, 0x3c, 0xe7, 0xf8, 0x4f, 0xbc, 0xd9, 0xd2, 0x29, 0x3d, 
  0x27, 0xd6, 0x6e, 0xbe, 0xd8, 0x9a, 0x64, 0x3a, 0x9d, 0x42, 0x5f, 0xbe, 
  0x6e, 0x16, 0xc0, 0x3d, 0x98, 0xbb, 0xda, 0x3d, 0x9f, 0x1d, 0x71, 0x3d, 
  0x1a, 0x68, 0x80, 0xbe, 0xe3, 0x5f, 0xa6, 0xbb, 0xda, 0xa6, 0xa0, 0xbd, 
  0xa3, 0xe8, 0xb4, 0xbd, 0xf8, 0x4e, 0x89, 0xbe, 0xfb, 0xe9, 0x07, 0x3e, 
  0x78, 0x03, 0x3d, 0xbe, 0x4f, 0xb7, 0x86, 0xbb, 0x4a, 0xbd, 0x82, 0xbe, 
  0x70, 0xe0, 0x3f, 0x3e, 0x90, 0x48, 0x3a, 0x3e, 0x49, 0x86, 0x29, 0x3e, 
  0x32, 0xc8, 0x35, 0x3e, 0xce, 0xce, 0x76, 0xbe, 0x6e, 0xe8, 0x6f, 0xbe, 
  0xd9, 0x3e, 0xe7, 0xbd, 0xbf, 0x8e, 0x7f, 0xbe, 0x6b, 0x32, 0x08, 0xbe, 
  0x78, 0x77, 0x6a, 0xbd, 0x87, 0xdf, 0xb3, 0x3d, 0xdf, 0xc9, 0x67, 0xbd, 
  0x87, 0x4c, 0x26, 0x3e, 0xc7, 0xfc, 0x29, 0x3e, 0x7a, 0x02, 0x50, 0x3d, 
  0xa9, 0x98, 0x9a, 0x3d, 0xc6, 0xf8, 0x31, 0xbe, 0x34, 0xe0, 0xc0, 0xbd, 
  0xe0, 0x12, 0x71, 0x3d, 0x5d, 0xe0, 0xd0, 0xbc, 0x1d, 0x1b, 0x26, 0x3e, 
  0x66, 0x30, 0xa7, 0x3d, 0x6f, 0xac, 0x30, 0xbe, 0x35, 0x90, 0xf0, 0xbd, 
  0xfd, 0xe5, 0xd0, 0xbc, 0xea, 0x6c, 0x6e, 0xbd, 0x8d, 0xb5, 0x4c, 0x3e, 
  0x1d, 0x8d, 0x3a, 0xbc, 0xc1, 0x8c, 0x2d, 0xbc, 0x0d, 0x09, 0x6b, 0xbe, 
  0x14, 0xd3, 0x6d, 0x3a, 0x8a, 0x0e, 0x8c, 0xbc, 0x9c, 0xcc, 0x34, 0xbe, 
  0xfe, 0x8e, 0x2b, 0x3e, 0x2e, 0xd9, 0x2b, 0x3e, 0x15, 0x12, 0x27, 0x3e, 
  0xbb, 0xe0, 0xf0, 0xbd, 0x6e, 0x2f, 0x80, 0x3d, 0xd5, 0xcf, 0x0c, 0x3e, 
  0xf3, 0x09, 0x5a, 0xbd, 0x96, 0xce, 0x56, 0x3d, 0xb2, 0x10, 0x89, 0xbe, 
  0x60, 0x13, 0x46, 0x3d, 0x5a, 0x14, 0x0b, 0xbe, 0xa9, 0x89, 0xfe, 0xbd, 
  0xd2, 0xee, 0xd6, 0xbd, 0xbf, 0xd0, 0x98, 0x3d, 0x47, 0xb9, 0x22, 0x3e, 
  0xa1, 0x1d, 0x20, 0xbe, 0x78, 0xc0, 0xdd, 0xbd, 0xbe, 0x11, 0x25, 0xbd, 
  0xdc, 0xd9, 0x49, 0x3b, 0xfc, 0xd0, 0xe4, 0x3d, 0x4a, 0x6e, 0x55, 0xbe, 
  0x27, 0x54, 0x15, 0x3e, 0x26, 0x7e, 0x43, 0xbe, 0x30, 0xdb, 0x67, 0xbd, 
  0xde, 0x57, 0xa0, 0xbd, 0xc9, 0x40, 0x0b, 0xbd, 0xbb, 0x41, 0x29, 0x3e, 
  0x88, 0x5f, 0x21, 0x3e, 0xa2, 0x87, 0x4d, 0x3d, 0x77, 0xe4, 0xc7, 0x3c, 
  0x33, 0x73, 0x54, 0xbe, 0x7d, 0x4c, 0x02, 0x3e, 0xdc, 0xa8, 0x18, 0x3e, 
  0x62, 0x2b, 0xb0, 0x3d, 0xe5, 0x8a, 0x22, 0xbb, 0x93, 0x52, 0x8e, 0xbd, 
  0xe4, 0x1f, 0x0f, 0xbe, 0x8f, 0x1b, 0x20, 0x3e, 0xf4, 0xd7, 0x7e, 0xbe, 
  0x38, 0xd2, 0x5c, 0xbe, 0x66, 0xa2, 0xe4, 0x3d, 0xcf, 0x46, 0x07, 0x3e, 
  0x82, 0x9d, 0x08, 0xbd, 0x89, 0x65, 0x14, 0x3e, 0x22, 0x3e, 0x8b, 0xbe, 
  0x13, 0xf7, 0x87, 0xbe, 0x71, 0x7c, 0xf7, 0xbc, 0x2a, 0xd1, 0x3d, 0x3e, 
  0x2a, 0xd4, 0xb1, 0x3d, 0xee, 0xd5, 0x4e, 0x3e, 0x42, 0x0b, 0x49, 0xbe, 
  0x2d, 0x44, 0x4f, 0x3e, 0x8e, 0x59, 0x34, 0xbd, 0xa3, 0x22, 0x8c, 0xbd, 
  0x8b, 0xd4, 0x90, 0x3d, 0x39, 0x25, 0x24, 0x3d, 0x18, 0x78, 0xc1, 0x3c, 
  0xb5, 0xd2, 0x22, 0xbd, 0xbe, 0x63, 0x01, 0x3e, 0xd0, 0xb5, 0x53, 0xbe, 
  0x97, 0xac, 0x82, 0xbe, 0xcb, 0xea, 0x88, 0x3d, 0x6d, 0xff, 0x7b, 0xbe, 
  0xde, 0x4c, 0x03, 0xbe, 0x00, 0x0e, 0x22, 0x3e, 0x66, 0x8f, 0x78, 0xbe, 
  0xf8, 0x7e, 0x89, 0xbd, 0x41, 0x2a, 0x5b, 0x3e, 0xb8, 0xd8, 0x46, 0x3e, 
  0xca, 0xe0, 0x22, 0xbd, 0xdb, 0x71, 0xb1, 0xbd, 0x54, 0x2c, 0x4c, 0xbe, 
  0x5e, 0xe3, 0x87, 0x3d, 0x25, 0xaa, 0x98, 0xbd, 0x74, 0x76, 0x3b, 0xbd, 
  0x97, 0x80, 0xa8, 0xbc, 0x38, 0xd3, 0x62, 0xbe, 0x95, 0xb4, 0x5c, 0x3d, 
  0x1a, 0x3d, 0x7b, 0xbe, 0x1d, 0x0f, 0x7a, 0xbe, 0x89, 0x80, 0x4d, 0xbe, 
  0xc4, 0x7d, 0xa2, 0x3d, 0xd3, 0x3b, 0xb4, 0xbb, 0xe4, 0x4c, 0x14, 0xbe, 
  0xe1, 0xb4, 0x8d, 0x3d, 0x58, 0x32, 0x3f, 0x3e, 0x42, 0x02, 0x4d, 0x3e, 
  0x93, 0x1f, 0xc5, 0x3d, 0x98, 0xfc, 0x51, 0x3d, 0xd8, 0x29, 0x47, 0x3e, 
  0x3b, 0x5f, 0x50, 0x3e, 0xef, 0x0c, 0x87, 0xbe, 0xbf, 0x48, 0x08, 0x3e, 
  0x8a, 0x78, 0x59, 0xbe, 0xdb, 0xf0, 0x1c, 0xbe, 0x95, 0x45, 0x1f, 0x3e, 
  0x6a, 0x92, 0x35, 0xbd, 0xf7, 0xa2, 0x8d, 0x3d, 0x99, 0x15, 0x5a, 0x3e, 
  0x92, 0x2e, 0x68, 0xbe, 0xb2, 0x46, 0x6b, 0xbe, 0x42, 0x4d, 0x4d, 0xbb, 
  0xfc, 0x20, 0x5b, 0xbe, 0xe1, 0xf3, 0x3f, 0xbe, 0x52, 0xfb, 0x61, 0xbe, 
  0x97, 0xae, 0xb8, 0x3d, 0x01, 0x2e, 0x59, 0x3e, 0xfc, 0x17, 0x0e, 0x3e, 
  0x48, 0xe3, 0x3b, 0xbe, 0xca, 0xb6, 0x0a, 0xbe, 0x70, 0x99, 0x70, 0x3c, 
  0x49, 0xdb, 0xbf, 0x3d, 0x89, 0xd2, 0xf4, 0xbd, 0xac, 0x76, 0x6d, 0xbd, 
  0x20, 0x2a, 0xec, 0x3b, 0x66, 0x93, 0x61, 0x3e, 0xcc, 0x2f, 0xc7, 0xbc, 
  0x2e, 0xa4, 0x8e, 0x3e, 0x75, 0x2d, 0x83, 0xbc, 0xf4, 0x68, 0x4c, 0xbd, 
  0xc4, 0xf2, 0xc0, 0xbb, 0xe6, 0xdf, 0x1e, 0x3e, 0x66, 0x3e, 0xca, 0x3d, 
  0x9a, 0x77, 0xe4, 0xbc, 0x1d, 0x86, 0x87, 0xbe, 0xac, 0xde, 0x58, 0x3e, 
  0xa9, 0xb5, 0x63, 0x3e, 0x96, 0x2d, 0x67, 0xbe, 0x67, 0xa7, 0xbb, 0xbd, 
  0x3a, 0x7e, 0x64, 0x3e, 0x08, 0x41, 0x84, 0x3b, 0xd5, 0x3e, 0xfe, 0xbd, 
  0x58, 0x6e, 0xc7, 0x3d, 0xc4, 0x4b, 0x53, 0xbd, 0x7e, 0x2a, 0x46, 0x3d, 
  0xe3, 0x83, 0x0a, 0x3e, 0xed, 0x7b, 0xda, 0xbc, 0xa2, 0x5e, 0x0c, 0x3e, 
  0x6c, 0x0d, 0xa3, 0x3d, 0xe7, 0x6b, 0xc0, 0x3a, 0x3f, 0x4d, 0x80, 0xba, 
  0xb3, 0xa0, 0x85, 0x3d, 0xbd, 0xa6, 0xdb, 0x3d, 0xe7, 0xaf, 0x62, 0xbe, 
  0x28, 0xd0, 0xf2, 0x3d, 0x46, 0x6d, 0xad, 0x3d, 0xca, 0xb8, 0x09, 0x3e, 
  0x27, 0x51, 0x59, 0xbe, 0xa1, 0x2a, 0x26, 0x3e, 0x0c, 0xf4, 0x88, 0x3d, 
  0x2a, 0xf5, 0x82, 0xbe, 0xb5, 0x90, 0x4d, 0xbe, 0x28, 0xfd, 0x5e, 0x3e, 
  0x3f, 0xa9, 0x04, 0x3e, 0x65, 0xcb, 0xba, 0x3c, 0x00, 0xf1, 0x83, 0xbe, 
  0xd2, 0x29, 0x5e, 0xbe, 0x10, 0xae, 0x0c, 0xbe, 0x97, 0xac, 0x2f, 0xbe, 
  0xef, 0xb3, 0x2e, 0xbe, 0x99, 0x8c, 0x3a, 0xbe, 0x87, 0xa2, 0xb1, 0x3d, 
  0xe0, 0xcc, 0xe5, 0x3a, 0x31, 0xfe, 0x59, 0xbe, 0x0b, 0x0e, 0x15, 0x3c, 
  0x3a, 0xae, 0x85, 0xbe, 0x64, 0xbd, 0x7e, 0xbe, 0xe9, 0x84, 0xf1, 0x3d, 
  0x6d, 0x67, 0x84, 0xbd, 0xd0, 0xe7, 0x5a, 0x3e, 0x95, 0x8c, 0x4b, 0x3c, 
  0x22, 0x18, 0x18, 0x3e, 0xd7, 0x74, 0x0f, 0x3e, 0xd6, 0xe5, 0x5c, 0x3e, 
  0x12, 0x9d, 0x35, 0xbe, 0x7f, 0x90, 0x52, 0xbd, 0xf5, 0x7b, 0xd5, 0x3d, 
  0x71, 0x4d, 0x7d, 0xbd, 0x83, 0xb1, 0x05, 0x3e, 0x46, 0xd6, 0x65, 0xbe, 
  0x92, 0x0c, 0xe2, 0xbd, 0xf3, 0x02, 0x01, 0x3e, 0xc1, 0xb2, 0x33, 0xbe, 
  0xb4, 0x54, 0x13, 0x3e, 0x19, 0xb8, 0x6e, 0xbe, 0xf7, 0xc0, 0x4c, 0x3e, 
  0xf9, 0x79, 0xee, 0xbc, 0x2f, 0x9a, 0x3c, 0x3d, 0xb2, 0xaf, 0x31, 0xbe, 
  0x9e, 0xa4, 0xb3, 0xbc, 0x31, 0xb4, 0x53, 0xbe, 0x0c, 0xd2, 0x3e, 0xbd, 
  0xfa, 0x32, 0x01, 0x3e, 0xa3, 0x24, 0xfe, 0xbd, 0x00, 0x85, 0x0f, 0xbe, 
  0xec, 0xfa, 0x22, 0xbe, 0x52, 0x6a, 0x80, 0xbe, 0x03, 0x6a, 0x8a, 0x3e, 
  0x95, 0xd9, 0x9c, 0x3d, 0xcb, 0x7a, 0x18, 0xbe, 0x36, 0x3f, 0xde, 0xbc, 
  0x70, 0xbc, 0x4a, 0xbe, 0x64, 0xf1, 0xcd, 0xbd, 0x8b, 0x51, 0x57, 0x3c, 
  0x2c, 0xb2, 0x79, 0x3e, 0x87, 0x4d, 0x11, 0xbe, 0x17, 0x33, 0x8d, 0x3e, 
  0xb7, 0x63, 0x28, 0xbe, 0x3c, 0x62, 0x4e, 0xbe, 0xbe, 0x70, 0x4d, 0x3d, 
  0x9f, 0x36, 0xd8, 0x3d, 0x1d, 0x6d, 0x19, 0xbd, 0x12, 0xf9, 0x78, 0x3e, 
  0x36, 0x3c, 0x64, 0xbe, 0x0c, 0x4b, 0x0c, 0x3c, 0x13, 0x32, 0x47, 0x3e, 
  0x13, 0x1b, 0xb8, 0xbd, 0x36, 0x2b, 0xff, 0xbd, 0x12, 0x50, 0x12, 0xbe, 
  0xae, 0x13, 0x3f, 0xbe, 0xf7, 0x20, 0xc1, 0x3d, 0x62, 0xe1, 0x70, 0xbc, 
  0xdb, 0x02, 0xe4, 0xbd, 0xb8, 0x45, 0x46, 0x3e, 0x46, 0x2e, 0x6a, 0xbe, 
  0x27, 0x84, 0xea, 0xbd, 0x85, 0x2c, 0x5f, 0xbe, 0xd4, 0x8b, 0x52, 0x3e, 
  0xe5, 0xf1, 0xaf, 0x3c, 0x38, 0xce, 0xc8, 0xbd, 0x5e, 0x07, 0x5e, 0xbe, 
  0xa9, 0x41, 0xe6, 0x3d, 0x7f, 0x61, 0x4a, 0x3d, 0xeb, 0x04, 0x84, 0xbc, 
  0xd8, 0x37, 0xe9, 0xbd, 0x3b, 0x3b, 0x3a, 0xbe, 0x91, 0x68, 0x5e, 0xbe, 
  0xde, 0x8c, 0x34, 0xbe, 0x40, 0x4b, 0x1b, 0x3e, 0x03, 0x29, 0x38, 0xbe, 
  0x11, 0x2c, 0x47, 0xbe, 0x80, 0xc4, 0x28, 0xbe, 0xfd, 0x58, 0x7c, 0xbd, 
  0x05, 0x05, 0x28, 0x3d, 0x47, 0xff, 0x37, 0x3e, 0x98, 0x60, 0xd4, 0x3d, 
  0x88, 0x75, 0x3c, 0xbe, 0xa1, 0x44, 0xcd, 0x3d, 0x6a, 0xdc, 0xc1, 0x3a, 
  0x14, 0x27, 0x6a, 0x3e, 0xeb, 0x8c, 0xaf, 0x3d, 0xff, 0xa4, 0x38, 0xbe, 
  0x75, 0xb9, 0x8f, 0x3c, 0x47, 0x54, 0x41, 0x3e, 0x68, 0x86, 0x57, 0x3d, 
  0xd9, 0xa0, 0x1f, 0xbd, 0x19, 0xad, 0x41, 0xbe, 0x6e, 0xcc, 0x5c, 0x3e, 
  0x36, 0x5f, 0x30, 0xbd, 0x17, 0xb1, 0xc3, 0xbd, 0x3f, 0x0f, 0x10, 0x3e, 
  0xd8, 0xba, 0x8c, 0xbd, 0x93, 0x83, 0xaa, 0x3d, 0x1d, 0x11, 0xcd, 0x3d, 
  0x1d, 0x9f, 0x51, 0xbe, 0xa8, 0xca, 0xac, 0xbd, 0x13, 0xc7, 0x7c, 0xbd, 
  0x53, 0x9a, 0x2f, 0x3e, 0x47, 0xf9, 0xe9, 0xbd, 0x18, 0x64, 0x42, 0x3e, 
  0x75, 0x1d, 0x2b, 0x3e, 0x9d, 0x44, 0x19, 0xbe, 0xde, 0x0b, 0x62, 0xbe, 
  0x8b, 0xf1, 0x08, 0x3e, 0x4c, 0xd0, 0x5a, 0x3e, 0x20, 0x7c, 0x36, 0x3e, 
  0xe7, 0xa0, 0x0b, 0x3e, 0x09, 0xe3, 0xd9, 0x3d, 0xce, 0xf8, 0x16, 0x3e, 
  0x41, 0xed, 0xae, 0xbd, 0xaa, 0xb6, 0x3f, 0x3e, 0x20, 0x7b, 0xe6, 0xbd, 
  0x73, 0x1d, 0x4d, 0xbe, 0x12, 0x7a, 0x8d, 0xbd, 0x2a, 0x9a, 0xf9, 0x3c, 
  0xb3, 0xbf, 0x96, 0xba, 0x03, 0x6d, 0x81, 0x3d, 0x7d, 0x03, 0x5c, 0x3e, 
  0x2e, 0xe4, 0x48, 0xbd, 0xe5, 0x96, 0xe1, 0xbd, 0x8a, 0xb2, 0x50, 0xbe, 
  0xfe, 0xbc, 0x23, 0x3e, 0xab, 0x7b, 0xfb, 0xbd, 0xb6, 0xd6, 0x30, 0xbb, 
  0x48, 0x00, 0xed, 0x3d, 0xc5, 0xd5, 0xb9, 0x3d, 0xe9, 0xf8, 0xfe, 0xbd, 
  0x32, 0x41, 0xb6, 0xbd, 0x3d, 0x08, 0x7b, 0x3e, 0x16, 0xfd, 0xba, 0x3d, 
  0x19, 0x71, 0x27, 0xbe, 0xcd, 0x58, 0xa7, 0x3d, 0x95, 0xd4, 0x9b, 0xbd, 
  0xd5, 0x76, 0x94, 0x3d, 0xe2, 0x94, 0x3e, 0x3d, 0x25, 0x8d, 0x39, 0x3d, 
  0x9a, 0x5d, 0xc5, 0x3c, 0x2c, 0x9e, 0xe4, 0xbc, 0x6c, 0xe3, 0xec, 0xbd, 
  0xee, 0x2c, 0x9e, 0xbd, 0x75, 0x2d, 0xc9, 0x3d, 0x1c, 0x23, 0x43, 0x3d, 
  0xc1, 0xe2, 0x33, 0xbe, 0x56, 0x08, 0x24, 0xbe, 0x80, 0xa9, 0x39, 0x3e, 
  0x45, 0xd7, 0x69, 0xbe, 0x19, 0x7a, 0x62, 0xbe, 0x74, 0x40, 0xf4, 0x3d, 
  0x69, 0x1a, 0x76, 0x3e, 0x68, 0xda, 0x93, 0xbe, 0x0b, 0xe2, 0xa0, 0xbc, 
  0x8f, 0x01, 0x60, 0xbc, 0xca, 0xc7, 0x34, 0x3e, 0xf7, 0xda, 0x36, 0xbe, 
  0x43, 0x5f, 0x71, 0x3e, 0x5c, 0x29, 0x4c, 0xbe, 0x05, 0xb7, 0x16, 0x3e, 
  0xc4, 0xd5, 0x3a, 0x3c, 0x9c, 0x91, 0x8a, 0xbe, 0x32, 0x84, 0x04, 0xbe, 
  0x33, 0x9b, 0xf0, 0xbd, 0xf4, 0x57, 0x5d, 0x3d, 0x5b, 0x0a, 0xec, 0x3d, 
  0x5b, 0xf4, 0x0a, 0x3d, 0x12, 0x61, 0x31, 0xbe, 0x7b, 0x82, 0x83, 0xbe, 
  0xe3, 0xe1, 0xb5, 0x3d, 0xca, 0x11, 0x1c, 0x3e, 0xad, 0x5f, 0xde, 0x3c, 
  0x7f, 0x55, 0x8a, 0x3d, 0xb5, 0xed, 0x0b, 0xbe, 0x06, 0xc2, 0x2c, 0xbe, 
  0xfa, 0x5d, 0x84, 0xbd, 0xee, 0xad, 0xd5, 0xbd, 0xc7, 0xa5, 0x19, 0xbe, 
  0x1d, 0x69, 0x23, 0xbe, 0x38, 0x87, 0x01, 0xbe, 0xf7, 0x3e, 0x48, 0x3e, 
  0x2d, 0x80, 0x25, 0x3e, 0x72, 0xa3, 0xec, 0xbd, 0x3c, 0x5a, 0x3d, 0xbe, 
  0xa6, 0xef, 0xa1, 0x3d, 0xcc, 0xeb, 0x10, 0xbe, 0xd1, 0x1f, 0x39, 0x3e, 
  0x2a, 0xe2, 0x2e, 0x3a, 0xbd, 0x4e, 0x4d, 0xbe, 0xc4, 0xae, 0x5b, 0xbe, 
  0x43, 0xfa, 0x00, 0xbe, 0x89, 0xd3, 0xb1, 0xbc, 0x4e, 0xa0, 0x21, 0x3d, 
  0x7c, 0xf4, 0x77, 0xbe, 0xca, 0xa1, 0x3a, 0x3e, 0x17, 0xa9, 0x2f, 0xbe, 
  0xc8, 0x48, 0xb4, 0xbd, 0xdd, 0xbc, 0x54, 0x3d, 0x9b, 0x38, 0x83, 0xbe, 
  0x53, 0x79, 0xda, 0x3c, 0xc0, 0xfa, 0xf1, 0xbd, 0x91, 0xab, 0x5e, 0x3e, 
  0xab, 0x99, 0x61, 0x3d, 0x07, 0x3e, 0xab, 0xbc, 0x52, 0x3b, 0x3b, 0xbe, 
  0xcd, 0x15, 0x91, 0x3d, 0xfc, 0xf7, 0xeb, 0xbd, 0x32, 0x80, 0x3f, 0xbe, 
  0xd1, 0x29, 0xbf, 0x3c, 0x5c, 0x0c, 0xb0, 0xbd, 0x9b, 0x5a, 0xc0, 0x3c, 
  0xdf, 0xdc, 0x6f, 0xbe, 0x84, 0x54, 0xdf, 0x3c, 0x01, 0x05, 0x6a, 0x3d, 
  0x71, 0x4e, 0xa1, 0x3d, 0x49, 0xd1, 0xc4, 0xbd, 0x36, 0x73, 0x68, 0xbe, 
  0xda, 0x46, 0x07, 0xbe, 0xa1, 0x1a, 0x71, 0xbe, 0xeb, 0xe3, 0x16, 0xbe, 
  0x0c, 0x0f, 0x0a, 0xbe, 0x2f, 0xb3, 0x10, 0xbc, 0x91, 0xdd, 0x1f, 0x3e, 
  0x32, 0x5e, 0x3a, 0xbc, 0x19, 0x13, 0x79, 0x3e, 0x8b, 0x6a, 0xe2, 0xbb, 
  0xca, 0x99, 0x6d, 0x3b, 0xb5, 0xdd, 0x0f, 0xbe, 0x7a, 0x80, 0xf0, 0x3d, 
  0x18, 0x65, 0x68, 0xbc, 0x85, 0x87, 0x28, 0xbe, 0x86, 0xa1, 0x24, 0x3d, 
  0x70, 0x57, 0x80, 0x3e, 0x5f, 0x36, 0x1f, 0xbe, 0x41, 0x64, 0x4b, 0x3d, 
  0x95, 0x29, 0xf5, 0xbd, 0x42, 0x7e, 0xb6, 0xbd, 0xa3, 0xa8, 0x12, 0x3e, 
  0x83, 0xe7, 0x00, 0x3e, 0x92, 0xe3, 0xee, 0x3d, 0x03, 0xf2, 0x16, 0xbe, 
  0x9b, 0x8c, 0x97, 0x3e, 0xed, 0x9c, 0xb3, 0xbd, 0xf1, 0xa2, 0xbb, 0x3e, 
  0x76, 0xaa, 0x40, 0x3e, 0x94, 0x56, 0x9f, 0x3c, 0xea, 0x10, 0xa0, 0x3c, 
  0x23, 0x9a, 0xa8, 0xbc, 0xc3, 0x28, 0x8e, 0x3e, 0x62, 0xd0, 0x32, 0x3d, 
  0xc4, 0xfc, 0x3a, 0xbe, 0x10, 0x4b, 0x1e, 0x3d, 0x37, 0x1d, 0x65, 0x3e, 
  0xe4, 0xd8, 0xa6, 0x3e, 0xcf, 0x36, 0xfb, 0x3d, 0x9c, 0x4c, 0x0b, 0xbe, 
  0x85, 0xc0, 0xd3, 0xbc, 0xe0, 0xd8, 0x8c, 0x3e, 0x54, 0xf4, 0x79, 0x3d, 
  0xc3, 0xb5, 0x8f, 0x3e, 0x55, 0x82, 0x52, 0x3e, 0x56, 0xcf, 0xba, 0xbd, 
  0x26, 0xd8, 0xd6, 0xbd, 0x03, 0x86, 0x91, 0x3e, 0xae, 0x77, 0xd2, 0x3d, 
  0xd8, 0x62, 0x8d, 0x3e, 0x03, 0x75, 0x11, 0x3d, 0x93, 0x3b, 0xa4, 0x3d, 
  0x0a, 0xad, 0xa1, 0xbc, 0x0d, 0xb1, 0x9f, 0x3e, 0xc6, 0xc7, 0xb0, 0xbd, 
  0x4d, 0x35, 0x1d, 0xbe, 0x22, 0xd7, 0x9d, 0x3e, 0xb6, 0x1d, 0x26, 0x3e, 
  0x34, 0xbd, 0x30, 0x3c, 0x6e, 0x3c, 0x76, 0x3e, 0x16, 0x32, 0x49, 0xbe, 
  0x0a, 0xe9, 0x16, 0xbe, 0xc5, 0xe7, 0x9e, 0x3d, 0xce, 0x98, 0x95, 0xbc, 
  0x3a, 0x7f, 0x77, 0x3e, 0x68, 0x52, 0x46, 0xbd, 0x3b, 0x27, 0x6a, 0x3e, 
  0x3b, 0x83, 0x8f, 0xbc, 0xa4, 0xa5, 0x6f, 0xbe, 0x4b, 0xda, 0x05, 0x3e, 
  0x05, 0x8a, 0x31, 0xbe, 0x0e, 0x43, 0x25, 0x3e, 0x1a, 0x39, 0x55, 0x3e, 
  0xbf, 0x84, 0x7b, 0xbe, 0x02, 0xa7, 0x86, 0xbe, 0xe2, 0x35, 0x45, 0xbe, 
  0x93, 0xde, 0x53, 0xbe, 0x8b, 0x01, 0x10, 0xbe, 0xc7, 0x76, 0x7f, 0xbe, 
  0x98, 0xdf, 0x11, 0xbe, 0x47, 0xcd, 0x01, 0xbe, 0x9c, 0xe8, 0x2b, 0x3e, 
  0xd9, 0xd8, 0x4f, 0xbd, 0x97, 0x84, 0x6c, 0xbc, 0x90, 0x89, 0x82, 0x3d, 
  0x7a, 0x55, 0x7c, 0xbe, 0x4f, 0xd4, 0x30, 0x3e, 0xe0, 0x0f, 0xe4, 0x3c, 
  0x6c, 0x34, 0x57, 0xbe, 0x0d, 0xef, 0x7b, 0x3e, 0x39, 0xe1, 0x75, 0x3d, 
  0x49, 0xa7, 0xb8, 0xbb, 0x60, 0xcf, 0x8c, 0xbe, 0xe7, 0xc6, 0x7c, 0xbe, 
  0xc3, 0x0e, 0x0f, 0x3d, 0x3b, 0x88, 0x38, 0x3d, 0xad, 0x20, 0xd2, 0xbd, 
  0xd0, 0x65, 0x1b, 0x3e, 0x02, 0x69, 0x65, 0xbe, 0x02, 0xaf, 0x37, 0xbe, 
  0xae, 0x33, 0x5e, 0xbc, 0x47, 0x63, 0xba, 0x3d, 0x08, 0x7c, 0x12, 0xbe, 
  0x5f, 0x60, 0x49, 0x3d, 0x0b, 0xa1, 0x64, 0x3d, 0x65, 0x7f, 0x4e, 0xbe, 
  0xec, 0x5f, 0x6e, 0xbe, 0x89, 0x44, 0x6f, 0xbe, 0xfd, 0x02, 0xa9, 0x3d, 
  0x3a, 0x19, 0x0d, 0xbd, 0xed, 0x60, 0xcc, 0x3d, 0xd2, 0x1c, 0x1d, 0x3e, 
  0xc4, 0x57, 0x9c, 0xbd, 0xc4, 0x7b, 0x1a, 0x3e, 0x5d, 0xb8, 0x2c, 0x3e, 
  0x33, 0xd1, 0x03, 0x3e, 0xae, 0x01, 0xfc, 0x3d, 0x90, 0x5b, 0x6d, 0xbe, 
  0x17, 0xd0, 0x62, 0xbd, 0x8e, 0x9d, 0x47, 0x3e, 0xa1, 0x41, 0x27, 0xbe, 
  0x17, 0x64, 0x32, 0xbd, 0x82, 0x68, 0x87, 0x3d, 0xb0, 0xdc, 0x43, 0x3e, 
  0x51, 0x78, 0x4b, 0x3e, 0x19, 0x20, 0x3b, 0x3d, 0xb0, 0x05, 0x8d, 0xbd, 
  0xa0, 0x73, 0x64, 0xbe, 0x30, 0x14, 0x12, 0xbd, 0xbf, 0x82, 0x98, 0x3d, 
  0xf4, 0xc2, 0x65, 0x3e, 0x52, 0x2e, 0x8a, 0xbd, 0x78, 0xe0, 0x40, 0xbe, 
  0x03, 0xda, 0x80, 0x3e, 0x01, 0x8b, 0x9e, 0x3e, 0x3e, 0xad, 0x1d, 0x3d, 
  0xeb, 0x06, 0x82, 0xbd, 0xae, 0xc4, 0x27, 0x3e, 0x66, 0xb5, 0x81, 0xbd, 
  0x4f, 0x56, 0x51, 0x3d, 0x28, 0x33, 0xff, 0x3d, 0xbd, 0xde, 0x37, 0xbe, 
  0xe9, 0x33, 0xdd, 0x3d, 0x5a, 0x2b, 0x15, 0x3e, 0x21, 0x70, 0xeb, 0xbd, 
  0xc1, 0x81, 0x6f, 0x3e, 0x12, 0x77, 0xbc, 0x3d, 0x82, 0x73, 0xe5, 0xbd, 
  0x27, 0xed, 0x76, 0xbd, 0xb1, 0xfc, 0x3c, 0x3e, 0x0e, 0x91, 0x36, 0x3e, 
  0x71, 0x24, 0x20, 0xbe, 0x3b, 0xf0, 0x2a, 0xbd, 0xa4, 0xf7, 0x1d, 0xbe, 
  0xbf, 0xac, 0xa1, 0x3d, 0xef, 0xd8, 0x32, 0xbe, 0xc6, 0x41, 0xb6, 0x3d, 
  0x1c, 0x39, 0x2b, 0xbc, 0x05, 0x87, 0x09, 0x3e, 0xdd, 0x49, 0xe8, 0x3c, 
  0xff, 0x4c, 0x5f, 0xbe, 0x4f, 0xf5, 0xe4, 0x3d, 0x82, 0xc0, 0xde, 0xbc, 
  0xf9, 0x33, 0xda, 0xbc, 0xa1, 0x68, 0x56, 0x3c, 0x99, 0x2d, 0x01, 0xbe, 
  0x60, 0x7c, 0x43, 0x3e, 0x89, 0xb0, 0x9d, 0x3e, 0xed, 0x6a, 0x5e, 0xba, 
  0xa1, 0x65, 0xc2, 0x3d, 0xea, 0x91, 0x85, 0xbd, 0x04, 0x27, 0x64, 0xbe, 
  0x80, 0xb0, 0x28, 0x3d, 0x9a, 0x8a, 0x3e, 0xbe, 0xc2, 0xf6, 0xbd, 0x3d, 
  0x66, 0xf2, 0xc6, 0xbc, 0x31, 0x8e, 0x28, 0x3e, 0x62, 0x1d, 0x19, 0x3e, 
  0xf7, 0xf0, 0x3f, 0x3e, 0x8a, 0x2f, 0xb8, 0xbb, 0x8e, 0xac, 0x74, 0x3b, 
  0x98, 0xb4, 0x6a, 0xbb, 0xb4, 0xfe, 0x29, 0xbe, 0xf8, 0xcc, 0xfc, 0xbd, 
  0x72, 0xb5, 0x13, 0x3d, 0x0e, 0xb3, 0xea, 0x3d, 0xdd, 0x4a, 0x1d, 0xbe, 
  0xfb, 0xc8, 0x55, 0xbc, 0x74, 0x9c, 0x28, 0x3e, 0x1a, 0x47, 0x1e, 0x3c, 
  0xc9, 0xc6, 0x4f, 0xbe, 0xb4, 0x2c, 0xa6, 0x3d, 0x46, 0x3a, 0x51, 0xbc, 
  0xb0, 0x08, 0x2a, 0x3e, 0xfe, 0x41, 0x38, 0x3e, 0x58, 0x7f, 0x73, 0x3d, 
  0x98, 0xd6, 0x85, 0xbd, 0xfc, 0x03, 0x64, 0x3d, 0x8e, 0xc2, 0x3d, 0x3e, 
  0x35, 0xcc, 0x15, 0x3c, 0x6d, 0xd1, 0x49, 0x3e, 0x89, 0xa2, 0xc7, 0x3d, 
  0xb0, 0x98, 0x3b, 0xbe, 0xe2, 0x7d, 0x47, 0xbe, 0xfd, 0x4f, 0x99, 0x3e, 
  0x19, 0x6e, 0x94, 0xbe, 0x4e, 0xee, 0x4b, 0x3e, 0xf4, 0x97, 0x16, 0xbe, 
  0xcc, 0xa4, 0xf0, 0xbd, 0x1e, 0x55, 0x09, 0xbe, 0x91, 0x98, 0x7f, 0xbd, 
  0x5f, 0xa0, 0x43, 0x3e, 0xf3, 0x87, 0x98, 0x3d, 0xbe, 0x04, 0x4d, 0x3e, 
  0xb0, 0x7d, 0x4e, 0xbd, 0xd7, 0xb8, 0x48, 0xbe, 0xa3, 0xfb, 0x41, 0xbe, 
  0x52, 0x40, 0x45, 0xbe, 0xe9, 0xa9, 0x2f, 0xbe, 0x6f, 0x4a, 0x0e, 0xbe, 
  0x18, 0x1b, 0xd9, 0x3d, 0xab, 0x82, 0x25, 0xbe, 0xf4, 0x1a, 0xd9, 0x3d, 
  0x42, 0x82, 0x95, 0x3d, 0x60, 0x10, 0x0a, 0x3e, 0x4e, 0x4a, 0x8f, 0x3d, 
  0xd2, 0x8d, 0x9d, 0xbd, 0xf1, 0xbc, 0xf0, 0xbd, 0x45, 0x57, 0x08, 0x3e, 
  0x1f, 0xd3, 0x71, 0x3e, 0xd7, 0xf2, 0x00, 0xbe, 0x08, 0x6b, 0xe6, 0xbd, 
  0x21, 0xdc, 0x19, 0xbe, 0xb3, 0x24, 0xcd, 0xbc, 0x2f, 0x41, 0xd7, 0x3d, 
  0x45, 0x38, 0x5b, 0xbe, 0xa2, 0x95, 0x70, 0x3e, 0x06, 0x2a, 0x82, 0xbe, 
  0x08, 0x32, 0x1d, 0x3e, 0xe7, 0x32, 0xc0, 0xbc, 0xf2, 0x26, 0x82, 0x3e, 
  0x4c, 0xee, 0x98, 0x3c, 0x5c, 0x11, 0x36, 0xbe, 0x6d, 0x46, 0x34, 0x3e, 
  0x96, 0x42, 0x24, 0xbe, 0x47, 0xa2, 0x0b, 0xbe, 0x1f, 0xc5, 0x36, 0xbe, 
  0xf7, 0x14, 0x51, 0xbe, 0x29, 0xb6, 0x6a, 0xbd, 0x74, 0x9b, 0x02, 0xbe, 
  0x71, 0xf7, 0x43, 0x3e, 0x0f, 0x50, 0x17, 0x3e, 0x4e, 0x21, 0xc3, 0x3c, 
  0x85, 0x16, 0x6d, 0xbe, 0x72, 0xdb, 0x25, 0x3e, 0x26, 0x14, 0x16, 0x3e, 
  0x69, 0x81, 0x82, 0xbe, 0x4b, 0x3b, 0x45, 0x3e, 0x11, 0xac, 0x7d, 0xbe, 
  0x04, 0x01, 0x75, 0x3e, 0xdd, 0x56, 0x4e, 0xbe, 0x99, 0x7f, 0x5b, 0xbe, 
  0xc4, 0xa9, 0x4f, 0x3e, 0x7a, 0xb8, 0x4d, 0x3e, 0x3d, 0x7e, 0x44, 0x3e, 
  0x64, 0x0c, 0xb9, 0x3d, 0x8c, 0x79, 0x76, 0xbe, 0xaf, 0x90, 0x28, 0xbe, 
  0x8c, 0xde, 0x20, 0x3b, 0x08, 0xb4, 0x41, 0x3e, 0xdc, 0x9b, 0xbb, 0xbb, 
  0xd5, 0x5f, 0xd6, 0xbd, 0x41, 0x86, 0x35, 0xbe, 0x15, 0xbf, 0x5d, 0x3d, 
  0x7f, 0xd4, 0x94, 0x3c, 0x61, 0x6c, 0xd9, 0xbd, 0x0e, 0xb3, 0x75, 0xbe, 
  0x15, 0x00, 0x51, 0xbe, 0xd0, 0x0b, 0xa8, 0xbd, 0x9a, 0x80, 0x9f, 0x3a, 
  0x8d, 0x56, 0x01, 0x3e, 0xd0, 0xd9, 0x0f, 0x3e, 0xcb, 0x24, 0x3b, 0x3e, 
  0xfb, 0xab, 0x83, 0xbd, 0xac, 0x41, 0x37, 0x3e, 0xb6, 0x10, 0x0c, 0xbd, 
  0xe9, 0x1a, 0x60, 0x3e, 0x40, 0x1a, 0x21, 0x3e, 0xe6, 0xc0, 0x30, 0xbe, 
  0x50, 0x39, 0x33, 0x3c, 0x81, 0xce, 0x2d, 0xbe, 0xfc, 0x82, 0x2f, 0xbe, 
  0xe3, 0xc0, 0x57, 0xbe, 0xb9, 0x2f, 0x4e, 0x3d, 0x57, 0xe1, 0x29, 0xbd, 
  0xd0, 0x28, 0x0b, 0x3d, 0x48, 0xdb, 0xb8, 0x3d, 0x5f, 0x6b, 0xa6, 0xbc, 
  0x87, 0x81, 0x49, 0x3c, 0x62, 0x82, 0x6b, 0xbd, 0xd7, 0xcb, 0x31, 0xbe, 
  0xa4, 0x88, 0xd5, 0x3d, 0x2e, 0xf0, 0x4a, 0xbe, 0x14, 0xbb, 0x92, 0xbe, 
  0xf7, 0x05, 0xfc, 0x3d, 0xf9, 0x47, 0x03, 0x3e, 0xa6, 0xf4, 0xd3, 0xbd, 
  0xf8, 0x8e, 0x12, 0x3e, 0xef, 0xbc, 0x2d, 0x3e, 0x25, 0xa8, 0x93, 0x3d, 
  0xf9, 0x47, 0x1e, 0x3e, 0xa2, 0xa8, 0x63, 0x3e, 0xc5, 0xeb, 0x15, 0x3e, 
  0x15, 0x28, 0x4b, 0x3d, 0xf6, 0x61, 0x74, 0xbe, 0x50, 0x6a, 0x86, 0xbe, 
  0xf6, 0xc3, 0x0d, 0xbc, 0xe0, 0xe0, 0x78, 0xbe, 0x95, 0x58, 0x9c, 0xbd, 
  0x57, 0x73, 0x1f, 0x3e, 0x6d, 0x9c, 0x48, 0xbe, 0xaa, 0x65, 0x2d, 0x3e, 
  0x06, 0xb4, 0x3b, 0xbe, 0xe0, 0x8b, 0x85, 0xbe, 0xb7, 0xf6, 0x11, 0x3e, 
  0xc4, 0x81, 0xf5, 0x3d, 0xbc, 0x5b, 0x60, 0x3e, 0x85, 0xba, 0x9b, 0xbd, 
  0x24, 0x8d, 0x3f, 0xbd, 0x81, 0xee, 0x45, 0x3e, 0xcf, 0x9a, 0x94, 0x3e, 
  0x5f, 0xad, 0x86, 0xbb, 0x1a, 0xdc, 0x0f, 0x3e, 0x95, 0xed, 0x37, 0x3d, 
  0x16, 0xa1, 0x0c, 0x3e, 0x3e, 0x2a, 0x1f, 0xbd, 0x93, 0x2d, 0x74, 0x3c, 
  0xbb, 0x13, 0x5f, 0x3e, 0xf8, 0xe2, 0xbe, 0xbd, 0x48, 0x16, 0x47, 0x3c, 
  0xec, 0xf2, 0xb7, 0x3d, 0x5f, 0x06, 0x2a, 0xbe, 0x46, 0xaa, 0x86, 0xbe, 
  0x82, 0x3c, 0x20, 0xbe, 0x84, 0x38, 0xf2, 0xbc, 0xf9, 0x86, 0xb3, 0x3d, 
  0xc5, 0x2e, 0x10, 0x3d, 0xa7, 0xc9, 0x36, 0xbe, 0x60, 0xd5, 0x10, 0xbe, 
  0x5e, 0xd7, 0x66, 0x3e, 0xe2, 0xed, 0x15, 0x3d, 0x2d, 0xf2, 0x3d, 0xbe, 
  0x18, 0xb1, 0xfa, 0xbd, 0x4e, 0xfd, 0x73, 0xbe, 0x66, 0x0b, 0xfe, 0x3d, 
  0xdd, 0x91, 0x24, 0x3e, 0xb9, 0xd6, 0xa0, 0x3d, 0x78, 0xf9, 0xb0, 0xbc, 
  0x8d, 0x20, 0x08, 0x3e, 0x31, 0xda, 0xf5, 0xbd, 0x33, 0x1b, 0x41, 0xbe, 
  0x42, 0x32, 0x84, 0xbd, 0x60, 0x26, 0x40, 0x3e, 0xfd, 0xd1, 0x23, 0x3e, 
  0x6c, 0x7e, 0x02, 0xbe, 0x54, 0x0a, 0x18, 0xbe, 0xa4, 0x61, 0x7b, 0x3d, 
  0x7a, 0x27, 0x87, 0xbe, 0x04, 0x03, 0x2e, 0xbc, 0x5d, 0xaa, 0x19, 0xbe, 
  0x7a, 0x01, 0x39, 0x3e, 0x87, 0x3b, 0x48, 0x3e, 0x5d, 0x52, 0x33, 0x3e, 
  0x67, 0xf2, 0x84, 0x3c, 0x52, 0xb0, 0x5b, 0x3d, 0xd7, 0xc1, 0xc8, 0xbd, 
  0x26, 0xed, 0xe3, 0xbd, 0xff, 0x6d, 0x03, 0x3e, 0x2d, 0xcb, 0x5a, 0xbd, 
  0x75, 0x33, 0x65, 0xbc, 0x47, 0xa3, 0x69, 0xbd, 0x3a, 0x46, 0x70, 0xbe, 
  0xaf, 0x4e, 0x31, 0x3e, 0x59, 0x72, 0x75, 0xbd, 0x64, 0x82, 0x21, 0x3e, 
  0xdb, 0x7a, 0xc8, 0xbd, 0xf3, 0x80, 0x56, 0x3e, 0x77, 0x1a, 0x9d, 0xbd, 
  0x80, 0xaf, 0x09, 0x3e, 0x6c, 0x6e, 0x38, 0x3e, 0x98, 0x02, 0x45, 0x3e, 
  0xde, 0x10, 0x0f, 0xbd, 0x15, 0x9d, 0x14, 0x3e, 0x8b, 0x60, 0x37, 0x3e, 
  0x64, 0x3d, 0x77, 0xbe, 0x71, 0x15, 0xf4, 0x3d, 0x00, 0xa3, 0xb7, 0xbc, 
  0x86, 0x4e, 0x32, 0x3e, 0x0a, 0x4e, 0x6c, 0x3e, 0xeb, 0xbe, 0x45, 0xbe, 
  0xbc, 0xba, 0xde, 0xbd, 0xd8, 0x89, 0xba, 0x3d, 0x54, 0x78, 0x2f, 0x3e, 
  0x75, 0xbb, 0x87, 0xbc, 0xf3, 0x10, 0x21, 0x3e, 0x90, 0x83, 0x5d, 0xbe, 
  0x6c, 0xad, 0xf4, 0xbd, 0x53, 0x76, 0x02, 0x3c, 0xd5, 0xee, 0xb6, 0xbd, 
  0x0f, 0xf9, 0x1a, 0xbd, 0xa6, 0x0e, 0x37, 0xbe, 0xf6, 0xf2, 0x3d, 0xbd, 
  0x94, 0x8e, 0x75, 0xbe, 0x19, 0xf8, 0x30, 0x3e, 0xba, 0xf1, 0x2a, 0x3e, 
  0x39, 0x8f, 0x52, 0xbe, 0x37, 0xb7, 0xb7, 0xbd, 0xb4, 0x12, 0x7b, 0xbe, 
  0x4f, 0xa9, 0x37, 0x3e, 0x67, 0x29, 0xfa, 0xbd, 0x69, 0xef, 0x23, 0xbe, 
  0xeb, 0xf2, 0x5e, 0xbb, 0x93, 0x89, 0x7e, 0xbd, 0xf9, 0xa2, 0x87, 0x3d, 
  0x10, 0x74, 0x6a, 0xbe, 0x76, 0x7a, 0x6d, 0xbd, 0x06, 0x63, 0xdc, 0xbd, 
  0xdd, 0xcd, 0x17, 0x3d, 0xad, 0xeb, 0x58, 0xbe, 0x97, 0x4a, 0x01, 0x3e, 
  0x2a, 0xae, 0x1a, 0xbe, 0x62, 0x9c, 0xa5, 0xbd, 0x1b, 0xb9, 0x19, 0x3e, 
  0xa4, 0x3b, 0x02, 0x3e, 0x03, 0x93, 0x63, 0xbe, 0xc5, 0x0a, 0x9b, 0x3d, 
  0x7a, 0x38, 0x55, 0x3e, 0x66, 0x43, 0xe8, 0xbd, 0xb8, 0xdf, 0x28, 0xbe, 
  0xa2, 0xd1, 0xa4, 0x3d, 0x00, 0x39, 0x44, 0xbe, 0x23, 0x5c, 0xb9, 0xbd, 
  0xe7, 0x90, 0xdd, 0xb9, 0xb6, 0x79, 0x8c, 0xbd, 0x75, 0xfa, 0x2b, 0xbd, 
  0x98, 0x28, 0xb2, 0x3c, 0x73, 0x62, 0x20, 0x3c, 0x25, 0x6b, 0xf3, 0xbd, 
  0x77, 0x02, 0x14, 0xbe, 0xe7, 0x7e, 0xa8, 0xbc, 0xde, 0x0a, 0x0e, 0xbe, 
  0x8e, 0x91, 0x28, 0x3e, 0x6a, 0x72, 0xdc, 0xbc, 0x0e, 0x0b, 0x8c, 0xbe, 
  0xc1, 0xdc, 0x33, 0x3d, 0x41, 0x0a, 0x4d, 0x3e, 0xdc, 0xe4, 0x3b, 0xbe, 
  0x4a, 0x62, 0x45, 0x3e, 0x0c, 0x12, 0xfb, 0x3d, 0x0b, 0xc3, 0x86, 0x3d, 
  0x6a, 0x1e, 0x87, 0xbe, 0x2c, 0x9b, 0x62, 0xbe, 0x42, 0x95, 0x09, 0xbe, 
  0x2c, 0xe5, 0x48, 0xbe, 0x51, 0x71, 0x3c, 0x3e, 0x11, 0xfe, 0x3b, 0x3e, 
  0xdf, 0xfa, 0x3c, 0x3e, 0x57, 0xc5, 0x12, 0x3e, 0xa0, 0x5d, 0x1f, 0x3e, 
  0xdd, 0x6b, 0x34, 0x3d, 0x2b, 0xe7, 0x68, 0xbe, 0x0b, 0x8b, 0xc7, 0x3d, 
  0xdf, 0xec, 0x0f, 0xbe, 0xed, 0xd2, 0xe5, 0xbd, 0x02, 0x41, 0x0f, 0x3e, 
  0x17, 0x54, 0xd8, 0x3d, 0x82, 0xc0, 0x12, 0xbe, 0x9e, 0x71, 0x59, 0x3e, 
  0xf2, 0xec, 0xf6, 0x3d, 0x15, 0x93, 0xa5, 0xbb, 0xb4, 0x4b, 0x4f, 0xbe, 
  0xcb, 0xdc, 0x7f, 0x3d, 0x91, 0x20, 0x68, 0xbe, 0x6f, 0x77, 0x83, 0x3d, 
  0x39, 0x45, 0x89, 0xbd, 0xab, 0x1a, 0x54, 0x3e, 0x6b, 0xc9, 0x28, 0xbe, 
  0x13, 0x0c, 0xe0, 0xbb, 0x04, 0xdb, 0x6a, 0xbe, 0xd7, 0x1e, 0x06, 0xbe, 
  0x8c, 0x40, 0xcc, 0xba, 0xf2, 0x54, 0xe9, 0x3c, 0xb9, 0xca, 0x96, 0xbd, 
  0xea, 0xec, 0x83, 0xbe, 0x84, 0x37, 0x0e, 0xbe, 0x2d, 0xd1, 0xbe, 0x3c, 
  0x69, 0xf5, 0x55, 0x3d, 0xd9, 0x70, 0x31, 0x3e, 0xee, 0x21, 0x40, 0xbe, 
  0x95, 0x14, 0x89, 0xbe, 0x20, 0x7f, 0x43, 0x3e, 0xd1, 0xe5, 0x74, 0xbc, 
  0xc7, 0x4a, 0xba, 0xbd, 0xb7, 0xd6, 0xf9, 0x3d, 0x07, 0x7f, 0x73, 0xbe, 
  0x36, 0x55, 0x5c, 0xbe, 0x5c, 0x85, 0x1e, 0xbe, 0xe2, 0x8a, 0xf0, 0xbd, 
  0x66, 0x18, 0x00, 0x3e, 0xe7, 0x61, 0x15, 0x3b, 0xe6, 0x33, 0x76, 0x3d, 
  0xc6, 0xfe, 0x63, 0x3d, 0x71, 0xe9, 0xc7, 0xbb, 0xcd, 0x61, 0x4f, 0xbe, 
  0x4b, 0x0b, 0x18, 0x3c, 0x67, 0x97, 0x7c, 0xbd, 0x6d, 0xe5, 0xa3, 0x3e, 
  0x75, 0x88, 0x6c, 0xbb, 0x01, 0x94, 0x29, 0x3e, 0x47, 0xaf, 0x14, 0x3e, 
  0x01, 0x6c, 0xdf, 0xbc, 0x49, 0x6a, 0x08, 0xbe, 0xc2, 0x90, 0x1f, 0x3c, 
  0x6d, 0x82, 0x41, 0x3e, 0x72, 0xa7, 0x65, 0x3e, 0x19, 0xfe, 0x4e, 0x3e, 
  0x65, 0x5f, 0x89, 0x3d, 0x13, 0x68, 0xbd, 0x3d, 0xbb, 0x3f, 0x35, 0x3e, 
  0xf5, 0x6a, 0xf9, 0xbd, 0x79, 0xdc, 0x96, 0xbc, 0xd7, 0x49, 0x6f, 0xbc, 
  0x65, 0x1c, 0xa0, 0xbd, 0x81, 0xdc, 0xb3, 0xbd, 0x72, 0x93, 0xee, 0x3d, 
  0x0a, 0x6d, 0x0a, 0xbe, 0xe4, 0x4f, 0xda, 0x3d, 0x9d, 0x3a, 0x8a, 0x3c, 
  0x3e, 0xed, 0x87, 0x3e, 0x50, 0x5b, 0x3a, 0x3e, 0x5c, 0x82, 0xc7, 0xbd, 
  0xea, 0x14, 0x8b, 0x3e, 0x6e, 0xa3, 0x64, 0x3e, 0x4b, 0xc1, 0xb7, 0x3e, 
  0x07, 0x7a, 0x54, 0x3e, 0x9d, 0x9f, 0x1b, 0x3d, 0x1d, 0xfe, 0xaf, 0xbd, 
  0x89, 0xc8, 0x5d, 0x3e, 0x47, 0x5c, 0x83, 0x3e, 0x57, 0x74, 0xe4, 0xbd, 
  0x61, 0xc1, 0x07, 0xbe, 0x42, 0x06, 0x32, 0x3d, 0x4a, 0xc9, 0x5f, 0x3e, 
  0xe7, 0x8a, 0x3a, 0xbd, 0x5b, 0x19, 0x40, 0x3e, 0x13, 0xae, 0xb1, 0x3d, 
  0x0b, 0x94, 0x9b, 0x3d, 0xd6, 0x46, 0xd5, 0x3d, 0xaf, 0x63, 0x45, 0xbe, 
  0x5a, 0xea, 0x8a, 0x3c, 0x40, 0x01, 0x8d, 0xbd, 0x75, 0xa3, 0x58, 0x3e, 
  0xb7, 0xa3, 0xc0, 0x3d, 0xaa, 0x80, 0x15, 0x3e, 0x55, 0x1d, 0x36, 0xbe, 
  0xee, 0x0e, 0x93, 0x3d, 0x77, 0xf9, 0x21, 0x3d, 0xbc, 0x5b, 0x8e, 0x3e, 
  0xb7, 0x9a, 0x64, 0x3b, 0x1f, 0xaa, 0x9d, 0x3e, 0x8e, 0x49, 0xdc, 0x3d, 
  0x66, 0xd9, 0x93, 0xbd, 0x1d, 0xb5, 0xb0, 0x3d, 0x43, 0xba, 0x24, 0xbe, 
  0xb1, 0x00, 0x3a, 0x3e, 0xd0, 0x79, 0x30, 0x3d, 0xf7, 0x1f, 0xcb, 0xba, 
  0xc1, 0x71, 0x9d, 0x3c, 0xc5, 0x4b, 0x36, 0xbe, 0xca, 0x3a, 0x2d, 0xbe, 
  0xb1, 0xe8, 0x5d, 0xbd, 0x9a, 0x82, 0x7d, 0x3e, 0x07, 0x92, 0xa7, 0x3e, 
  0xe3, 0x8c, 0xa8, 0xbd, 0xb1, 0x03, 0x54, 0xbd, 0x72, 0x80, 0x77, 0x3e, 
  0x90, 0x79, 0xb6, 0x3d, 0xf0, 0x3d, 0xf0, 0xbd, 0xd9, 0x19, 0x96, 0xbd, 
  0x33, 0x2a, 0x1b, 0xbe, 0x94, 0xd6, 0x33, 0x3e, 0xf8, 0xbc, 0x6b, 0x3c, 
  0xc6, 0xe4, 0xc5, 0xbd, 0xcb, 0x56, 0x23, 0x3e, 0x8f, 0x9f, 0x16, 0x3e, 
  0x8b, 0x66, 0x93, 0x3e, 0x7e, 0x8d, 0x14, 0x3e, 0x40, 0x36, 0x86, 0x3e, 
  0xc2, 0xe2, 0x4b, 0x3e, 0x11, 0x9a, 0xb6, 0xbd, 0xfb, 0x9f, 0x3d, 0x3b, 
  0x44, 0x29, 0x8f, 0xbd, 0xa8, 0x26, 0x31, 0x3e, 0x31, 0x4c, 0xb0, 0x3d, 
  0xf3, 0xab, 0xbd, 0xbd, 0xb0, 0x13, 0x38, 0x3e, 0x63, 0xf2, 0x4c, 0x3e, 
  0x65, 0x4c, 0x74, 0x3e, 0xa0, 0x33, 0x81, 0x3e, 0x94, 0xd9, 0x0d, 0x3e, 
  0xd3, 0xce, 0x8d, 0x3e, 0x91, 0xda, 0x4c, 0x3e, 0xf7, 0xb6, 0x45, 0x3e, 
  0xf5, 0x13, 0x6a, 0xbd, 0xc4, 0xd8, 0xb4, 0x3e, 0xf4, 0xf4, 0x3a, 0x3c, 
  0x2b, 0x23, 0x38, 0x3e, 0xf4, 0xa9, 0x2a, 0x3e, 0xad, 0x72, 0xa0, 0xbd, 
  0xa6, 0xc7, 0xce, 0x3a, 0x8c, 0xd8, 0x3a, 0xbd, 0x04, 0xae, 0x31, 0x3e, 
  0xd4, 0x13, 0x9d, 0x3e, 0xc5, 0x11, 0x71, 0x3e, 0xde, 0x84, 0xfd, 0xbd, 
  0xbe, 0x75, 0x32, 0x3d, 0x07, 0x85, 0x35, 0xbe, 0xde, 0x4d, 0x78, 0x3e, 
  0x3a, 0x63, 0xd8, 0xbc, 0x1a, 0x7b, 0x88, 0x3e, 0x1b, 0xb7, 0xf9, 0x3d, 
  0xf3, 0x9d, 0x04, 0x3e, 0x91, 0xe3, 0xe1, 0xbd, 0xec, 0x72, 0x99, 0x3e, 
  0x8a, 0xf8, 0x85, 0x3e, 0x08, 0x6c, 0xb5, 0xbd, 0xcf, 0x49, 0x43, 0xbd, 
  0x4b, 0x0d, 0x9d, 0x3d, 0xd2, 0x9f, 0xfe, 0x3d, 0xf9, 0xa4, 0x9d, 0xbd, 
  0x1e, 0x3e, 0x9d, 0x3e, 0x0f, 0x42, 0x23, 0x3e, 0x6e, 0xf2, 0x62, 0x3d, 
  0x3a, 0xd3, 0x12, 0xbe, 0x1d, 0xa7, 0xb5, 0xbd, 0xb9, 0xf1, 0x3a, 0xbe, 
  0x8f, 0xdb, 0x29, 0xbe, 0x5d, 0x19, 0xdf, 0x3d, 0x63, 0x2c, 0x4b, 0x3d, 
  0x00, 0x2e, 0x11, 0x3e, 0x2c, 0x93, 0x26, 0x3e, 0xc1, 0x88, 0x58, 0x3d, 
  0xe7, 0xe5, 0xab, 0x3d, 0x58, 0x62, 0x84, 0xbe, 0x29, 0x75, 0x4b, 0xbd, 
  0x60, 0xfd, 0x28, 0x3e, 0x99, 0x52, 0x08, 0xbe, 0xc3, 0xb8, 0x4f, 0x3e, 
  0x45, 0x78, 0x6e, 0xbe, 0xd0, 0x8f, 0x85, 0xbe, 0x56, 0xf7, 0x46, 0xbe, 
  0x74, 0xa3, 0x1c, 0x3e, 0x63, 0x50, 0xd9, 0x3d, 0x16, 0x08, 0x45, 0xbe, 
  0x02, 0x8f, 0x01, 0x3e, 0x48, 0x60, 0x1d, 0x3c, 0xa7, 0x7b, 0x13, 0xbd, 
  0x47, 0x48, 0x9e, 0x3d, 0x8b, 0x6b, 0x58, 0x3d, 0x17, 0xaa, 0xc3, 0xbd, 
  0x62, 0x20, 0x15, 0x3d, 0x10, 0x7b, 0x3e, 0x3e, 0x19, 0x09, 0x21, 0x3d, 
  0x34, 0xda, 0x89, 0x3b, 0x03, 0x88, 0xb0, 0x3c, 0xef, 0x08, 0x85, 0xbb, 
  0xe2, 0x97, 0xc6, 0x3d, 0x0a, 0x52, 0x56, 0xbd, 0x4d, 0x7b, 0x51, 0xbd, 
  0x33, 0x9a, 0x50, 0xbe, 0x2c, 0xb8, 0x3c, 0xbc, 0xe5, 0x14, 0x05, 0x3d, 
  0xd2, 0x36, 0x25, 0x3c, 0xaa, 0x8c, 0x92, 0x3d, 0x9f, 0xcd, 0x33, 0x3e, 
  0xf1, 0xcf, 0xa4, 0xbd, 0xd2, 0xc2, 0x3d, 0xbe, 0x48, 0xa3, 0x61, 0xbb, 
  0xe9, 0x3c, 0xc4, 0xbd, 0xec, 0xe5, 0x74, 0xbd, 0xd2, 0x65, 0x51, 0xbe, 
  0xa0, 0xeb, 0x3b, 0x3e, 0x4d, 0xc7, 0x48, 0xbe, 0xd1, 0xce, 0x4d, 0x3e, 
  0xd5, 0xf2, 0x2e, 0xbe, 0x9e, 0x1e, 0xae, 0x3d, 0x4e, 0x0d, 0x04, 0x3e, 
  0x54, 0x7c, 0x2f, 0x3e, 0x4e, 0x9f, 0x53, 0xbd, 0xbf, 0x91, 0x24, 0x3e, 
  0x34, 0x71, 0x81, 0xbe, 0x54, 0x3e, 0x6c, 0xbe, 0x07, 0x87, 0xf1, 0xbc, 
  0x10, 0xd4, 0xe8, 0xbd, 0x52, 0x23, 0x22, 0xbc, 0x54, 0x40, 0x45, 0x3c, 
  0x0a, 0x3e, 0x22, 0xbe, 0x61, 0xbf, 0xcf, 0x3c, 0x1a, 0x2c, 0x83, 0x3d, 
  0xe4, 0x81, 0x77, 0x3e, 0xa5, 0xd1, 0x0a, 0xbe, 0x9e, 0xcf, 0x2f, 0x3e, 
  0xc0, 0x08, 0x92, 0x3d, 0x9a, 0xd8, 0xd4, 0x3d, 0xec, 0x83, 0x81, 0xbd, 
  0xe2, 0x02, 0x83, 0x3e, 0x0f, 0xd5, 0x8e, 0x3d, 0xa5, 0x6c, 0x65, 0x3e, 
  0xc4, 0xa9, 0x3f, 0x3e, 0xca, 0xaf, 0x21, 0xbe, 0x80, 0x88, 0x25, 0xbd, 
  0xa1, 0x4c, 0xe9, 0x3b, 0x8d, 0x88, 0x2c, 0xbe, 0x4e, 0x0a, 0x40, 0xbd, 
  0x9d, 0xfa, 0xb9, 0x3d, 0xa3, 0xc2, 0x01, 0xbe, 0x23, 0xbb, 0x4f, 0x3d, 
  0x9f, 0x9a, 0x25, 0x3d, 0x9b, 0xbd, 0xeb, 0xbd, 0x42, 0xc5, 0x08, 0x3e, 
  0xf0, 0x15, 0xb6, 0x3d, 0xc4, 0x2a, 0xaf, 0x3d, 0x96, 0x1c, 0xd9, 0xbd, 
  0xaf, 0xe0, 0x0a, 0x3e, 0x1a, 0xd8, 0x88, 0xbd, 0x58, 0xe4, 0xd2, 0xbc, 
  0x18, 0xc8, 0x02, 0x3e, 0xd4, 0x53, 0x78, 0x3e, 0x09, 0x06, 0x2f, 0xbe, 
  0x41, 0x5a, 0xad, 0xbd, 0x4e, 0xec, 0x25, 0xbe, 0x61, 0x46, 0x2b, 0x3e, 
  0x21, 0x7e, 0x0f, 0xbe, 0x12, 0xef, 0x9a, 0x3d, 0xab, 0xf5, 0x6e, 0x3d, 
  0xab, 0x17, 0xe7, 0xbb, 0x22, 0x61, 0x16, 0xbe, 0xdd, 0x6d, 0x4f, 0x3e, 
  0xbb, 0x96, 0x49, 0x3c, 0x43, 0x55, 0xf3, 0x3c, 0x4a, 0x62, 0x78, 0x3e, 
  0x8c, 0x45, 0x30, 0xbe, 0xab, 0xe6, 0x6e, 0x3d, 0x55, 0x76, 0x3a, 0xbd, 
  0x10, 0x94, 0xe3, 0xbc, 0xf7, 0xe3, 0x01, 0x3e, 0x69, 0x04, 0x3b, 0xbe, 
  0xe6, 0x1f, 0x89, 0x3e, 0xca, 0xac, 0x1a, 0x3e, 0x33, 0xc2, 0x7d, 0x3d, 
  0x31, 0xac, 0x6f, 0x3e, 0x0f, 0x4a, 0x51, 0xba, 0x28, 0x12, 0xbf, 0x3d, 
  0x23, 0x26, 0x7f, 0x3e, 0x35, 0x62, 0xce, 0xbb, 0x93, 0xa4, 0x82, 0x3d, 
  0x1b, 0x40, 0xa2, 0x3d, 0xbd, 0x68, 0x3b, 0x3e, 0x6b, 0x21, 0xce, 0x3c, 
  0x45, 0x22, 0xef, 0x3d, 0x50, 0x15, 0xc2, 0xbd, 0xe7, 0xbb, 0x7b, 0xbc, 
  0x84, 0x25, 0x58, 0x3e, 0x4e, 0x23, 0xa6, 0x3e, 0x55, 0xc2, 0x82, 0xba, 
  0xe6, 0x04, 0x43, 0xbe, 0xc8, 0x08, 0x7f, 0x3e, 0x8d, 0x2c, 0x26, 0xbe, 
  0xb5, 0x58, 0x23, 0x3e, 0x9c, 0xa8, 0x97, 0x3e, 0x5a, 0xb7, 0x5c, 0xbd, 
  0xbb, 0x2c, 0xf7, 0xbd, 0xde, 0xc1, 0x24, 0x3e, 0xf3, 0x69, 0x00, 0x3e, 
  0xdb, 0x4a, 0xf9, 0xbd, 0x79, 0x7b, 0x96, 0x3e, 0xd5, 0x90, 0xc8, 0xbd, 
  0x15, 0x71, 0x83, 0x3e, 0xbf, 0xac, 0xa1, 0x3d, 0x6a, 0xf1, 0x3c, 0xbe, 
  0xa1, 0xfc, 0x79, 0x3e, 0x36, 0x94, 0x7b, 0x3e, 0xb0, 0x0a, 0x7e, 0x3c, 
  0x11, 0x36, 0x84, 0x3d, 0xad, 0x2b, 0x76, 0x3d, 0xcd, 0xa5, 0xaf, 0x3d, 
  0xe0, 0xec, 0x39, 0xbe, 0x69, 0xf6, 0x5a, 0x3d, 0x6d, 0x32, 0x2c, 0xbe, 
  0x74, 0xdb, 0x77, 0x3c, 0x48, 0x1b, 0x9a, 0x3e, 0x77, 0xf5, 0xfa, 0x3d, 
  0x86, 0x16, 0x3b, 0x3e, 0x6f, 0xdb, 0xbd, 0x3c, 0x08, 0x84, 0x8b, 0x3e, 
  0x8a, 0xf8, 0x27, 0x3e, 0xce, 0xbe, 0xeb, 0x3d, 0x2a, 0xba, 0x5c, 0xbc, 
  0x92, 0xcc, 0x91, 0xbd, 0xc0, 0x0f, 0x89, 0x3e, 0xd1, 0x90, 0x89, 0x3e, 
  0xc6, 0x72, 0x99, 0x3e, 0x10, 0x1c, 0x86, 0x3d, 0xf6, 0x72, 0xc3, 0x3d, 
  0x3f, 0xd1, 0x83, 0x3e, 0x6a, 0x3f, 0x96, 0x3e, 0xff, 0x1d, 0x9f, 0x3d, 
  0x46, 0x67, 0xb2, 0xbc, 0x83, 0x11, 0xb1, 0x3d, 0x1d, 0x12, 0xca, 0x3b, 
  0x4f, 0xb8, 0x47, 0x3c, 0x40, 0x2c, 0x0e, 0xbc, 0x76, 0x27, 0x8f, 0xbd, 
  0x96, 0x07, 0x1a, 0xbe, 0x98, 0x36, 0x9c, 0x3e, 0x27, 0xb7, 0x8e, 0x3e, 
  0x9c, 0xe2, 0x6c, 0x3e, 0x02, 0x97, 0x07, 0x3e, 0x9d, 0x3b, 0x39, 0xbe, 
  0xb9, 0x85, 0x16, 0x3e, 0x45, 0x20, 0xd2, 0xbd, 0xe2, 0x59, 0x8d, 0x3e, 
  0x30, 0x93, 0x9f, 0x3c, 0x09, 0xfa, 0xcb, 0xbd, 0x22, 0x89, 0x10, 0xbe, 
  0xbc, 0xdb, 0x0f, 0xbe, 0xe6, 0xf1, 0xfd, 0xbd, 0x7b, 0x42, 0x95, 0xbd, 
  0x1c, 0x74, 0x7a, 0xbe, 0x7e, 0x56, 0xeb, 0x3d, 0x51, 0xd4, 0x27, 0x3e, 
  0x03, 0xb4, 0x21, 0x3e, 0xaf, 0xb7, 0xb9, 0x3d, 0xb9, 0x18, 0x0e, 0xbe, 
  0x37, 0x23, 0x62, 0x3e, 0x81, 0xda, 0x15, 0xbd, 0xa3, 0x5c, 0xcb, 0xbd, 
  0xa6, 0x6f, 0x69, 0xbe, 0x35, 0x94, 0xa0, 0xbc, 0x05, 0x0c, 0xbd, 0x3d, 
  0xa2, 0x84, 0x23, 0xba, 0xf3, 0xb7, 0xe3, 0x3d, 0xa9, 0xa7, 0x79, 0x3d, 
  0x5d, 0xe5, 0xaf, 0x3d, 0xed, 0x92, 0x56, 0x3e, 0x69, 0x4f, 0x73, 0xbd, 
  0x41, 0xfc, 0x0c, 0x3e, 0xa7, 0xf7, 0xd8, 0x3d, 0x5f, 0x18, 0x98, 0xbd, 
  0x20, 0xba, 0x85, 0xbe, 0x97, 0x97, 0x2d, 0x3e, 0xc4, 0xde, 0x0a, 0x3e, 
  0xa2, 0xdb, 0x17, 0xbe, 0xf2, 0xa5, 0xed, 0x3d, 0x70, 0x40, 0xf7, 0x3d, 
  0x57, 0xba, 0x1d, 0x3e, 0x87, 0x37, 0xb7, 0xb8, 0xef, 0xee, 0x1b, 0x3e, 
  0x8d, 0x85, 0x4f, 0xbe, 0xf1, 0x88, 0x51, 0xbe, 0x8c, 0x1c, 0x4c, 0xbe, 
  0xe8, 0xfd, 0x4c, 0xbe, 0xee, 0xd1, 0x12, 0x3e, 0x62, 0x5f, 0x9b, 0x3d, 
  0xa6, 0xbd, 0x65, 0x3e, 0xb1, 0x6d, 0x4d, 0xbe, 0xa7, 0x44, 0x26, 0xbe, 
  0x0e, 0x11, 0x3d, 0xbe, 0x00, 0x3d, 0x0b, 0x3e, 0x9f, 0xe2, 0x82, 0xbe, 
  0x62, 0xaa, 0x2d, 0x3e, 0x79, 0x2c, 0xd6, 0x3d, 0xe5, 0x05, 0x1f, 0xbe, 
  0x52, 0x46, 0x47, 0xbe, 0x01, 0x42, 0x46, 0xbe, 0x65, 0xf8, 0x12, 0x3d, 
  0x86, 0x5d, 0x84, 0xbe, 0xaa, 0x21, 0x0a, 0xbe, 0x3f, 0x44, 0x21, 0xbe, 
  0x11, 0xcd, 0xc2, 0x3d, 0x17, 0xef, 0xc4, 0xbd, 0x55, 0x07, 0xd1, 0x3d, 
  0x8d, 0x14, 0x8b, 0xbd, 0xb7, 0x9b, 0x2c, 0xbe, 0xf3, 0x7f, 0x43, 0x3d, 
  0x88, 0x24, 0x0e, 0x3e, 0xca, 0x34, 0x80, 0x3d, 0x6d, 0x58, 0xe4, 0x3d, 
  0xe7, 0x9c, 0x99, 0xbd, 0x3b, 0xd0, 0x2a, 0xbe, 0x22, 0xd8, 0x0b, 0xbe, 
  0x4d, 0x05, 0x27, 0x3a, 0x6c, 0xdf, 0xb9, 0x3d, 0x63, 0x6b, 0x06, 0xbe, 
  0x2c, 0x71, 0xd4, 0x3c, 0x20, 0x19, 0x2e, 0xbe, 0xee, 0xd8, 0x80, 0xbe, 
  0x1b, 0x1f, 0x29, 0xbc, 0x58, 0xb4, 0x19, 0x3e, 0xc3, 0x07, 0x20, 0x3e, 
  0xcf, 0x18, 0x36, 0xbd, 0x5d, 0xd3, 0x63, 0x3e, 0x75, 0x18, 0x5c, 0x3e, 
  0x39, 0x55, 0x19, 0x3d, 0x8c, 0x35, 0x4d, 0xbe, 0xa8, 0x40, 0x1d, 0xbe, 
  0x1a, 0x7c, 0x80, 0x3e, 0x48, 0x05, 0x45, 0x3e, 0xe6, 0xce, 0xa0, 0x3e, 
  0x7d, 0xd5, 0x8b, 0x3c, 0x67, 0x19, 0x2d, 0xbe, 0x52, 0xb9, 0x59, 0x3b, 
  0x4d, 0x2d, 0x7b, 0x3e, 0xf7, 0x2d, 0x6d, 0x3e, 0x4c, 0xe2, 0xb4, 0x3d, 
  0xae, 0xab, 0xd3, 0x3d, 0xf9, 0x3e, 0x64, 0xbc, 0xab, 0xd2, 0x17, 0xbe, 
  0x04, 0x73, 0x48, 0xbe, 0x5b, 0xc1, 0x25, 0x3e, 0x5b, 0xd5, 0x86, 0xbd, 
  0x70, 0x7b, 0xce, 0x3d, 0x92, 0xd5, 0xaf, 0xbd, 0x5b, 0xc8, 0xd2, 0xbc, 
  0x4d, 0x45, 0xde, 0xbd, 0x77, 0x81, 0x2f, 0x3e, 0xa4, 0xea, 0xed, 0x3d, 
  0xd5, 0x65, 0x3d, 0x3e, 0xc2, 0x53, 0xe5, 0xbd, 0xda, 0x8d, 0x98, 0x3d, 
  0x3e, 0xc6, 0x71, 0x3d, 0xfd, 0xbe, 0x34, 0x3e, 0xff, 0x4c, 0x1b, 0x3d, 
  0x36, 0x63, 0x3a, 0x3d, 0x4c, 0x0e, 0x82, 0x3e, 0xf8, 0x15, 0xaa, 0xbd, 
  0x2b, 0x3a, 0x89, 0xbd, 0xaf, 0x3e, 0x21, 0xbe, 0x57, 0x6c, 0x39, 0xbe, 
  0x03, 0x1e, 0x8f, 0x3e, 0x54, 0xe5, 0x47, 0x3e, 0x89, 0xb0, 0x29, 0x3e, 
  0x8e, 0xe6, 0x05, 0xbd, 0x37, 0xe1, 0x05, 0xbe, 0x70, 0x8e, 0xeb, 0x3c, 
  0x35, 0x50, 0x5a, 0x3e, 0x97, 0xc5, 0x31, 0xbd, 0x97, 0xf1, 0x28, 0xbe, 
  0x41, 0x2a, 0x1b, 0xbd, 0x04, 0x71, 0xac, 0xbd, 0x8b, 0xe0, 0xb2, 0xbd, 
  0x35, 0x02, 0xf5, 0x3d, 0x3b, 0x8d, 0x07, 0x3d, 0x47, 0x14, 0xc5, 0x3d, 
  0x40, 0xf9, 0x32, 0x3c, 0xcc, 0x8e, 0x3d, 0xbe, 0x73, 0x34, 0xb1, 0x3d, 
  0x5a, 0x86, 0x5a, 0xbe, 0x78, 0x8d, 0xcd, 0x3d, 0x55, 0x9f, 0x08, 0x3e, 
  0x89, 0x7f, 0x58, 0x3d, 0x56, 0xfe, 0x7d, 0xbe, 0x35, 0x0f, 0xc2, 0x3d, 
  0x68, 0x11, 0x68, 0xbe, 0x95, 0x20, 0x18, 0xbe, 0x83, 0xfd, 0x94, 0x3d, 
  0x0a, 0x71, 0xd7, 0x3c, 0xd8, 0xda, 0xc4, 0xbd, 0x69, 0xd7, 0x12, 0x3e, 
  0xde, 0x9d, 0x98, 0xbe, 0xd6, 0x07, 0xcd, 0xbd, 0xe0, 0xf1, 0x81, 0xbe, 
  0x9e, 0x68, 0x01, 0x3e, 0xdd, 0xc9, 0x2d, 0xbe, 0xc3, 0x4a, 0x0f, 0xbc, 
  0xb7, 0xd2, 0x43, 0x3e, 0xb5, 0x5b, 0x54, 0xbe, 0x42, 0x39, 0xa0, 0xbd, 
  0xe9, 0x85, 0x3f, 0x3e, 0x4f, 0x84, 0x95, 0xbd, 0x7b, 0xb4, 0x31, 0xbe, 
  0xfe, 0xd3, 0x54, 0x3d, 0x91, 0xc4, 0x0b, 0x3e, 0xdb, 0x9f, 0xb9, 0xbd, 
  0x9b, 0xb8, 0x23, 0x3e, 0x06, 0xe6, 0x95, 0x3d, 0xf7, 0xd7, 0xff, 0xbd, 
  0x02, 0xcd, 0x7b, 0xbe, 0x74, 0x24, 0x2f, 0xbe, 0xd3, 0xf1, 0x16, 0x3e, 
  0x7a, 0x33, 0x0c, 0xbe, 0x1a, 0xf7, 0x58, 0x3e, 0xe1, 0xad, 0x8d, 0xba, 
  0x59, 0x70, 0x53, 0x3e, 0x8e, 0x6f, 0x1d, 0x3d, 0x5a, 0xe6, 0x84, 0xbe, 
  0x77, 0xeb, 0x4b, 0x3e, 0x38, 0x3d, 0x83, 0xbd, 0xf4, 0x5a, 0x72, 0xbe, 
  0x07, 0x49, 0x21, 0x3e, 0xed, 0x8b, 0x21, 0x3e, 0xc9, 0xba, 0x4d, 0xbd, 
  0xb6, 0x21, 0x45, 0xbd, 0x84, 0xa6, 0x0a, 0xbd, 0x81, 0x98, 0xd8, 0x3c, 
  0x35, 0x64, 0x73, 0xbe, 0x2e, 0x88, 0x21, 0x3d, 0xbf, 0xa9, 0xb0, 0xbc, 
  0xb5, 0x8e, 0x1c, 0xbd, 0x25, 0xa8, 0x07, 0x3c, 0xbc, 0x2e, 0x3b, 0x3c, 
  0xdf, 0xbc, 0x59, 0x3d, 0x57, 0xaa, 0xf1, 0x3c, 0x0b, 0xe2, 0x86, 0x3e, 
  0xc6, 0x8a, 0x41, 0xbd, 0xaa, 0xdb, 0x52, 0xbd, 0x0e, 0xeb, 0xea, 0x3d, 
  0xb2, 0x76, 0xe7, 0x3d, 0x93, 0xb1, 0x1d, 0x3c, 0xe9, 0x59, 0x78, 0xbe, 
  0xee, 0x46, 0x00, 0xbe, 0xfb, 0x02, 0x7f, 0x3d, 0x57, 0x07, 0xd2, 0xbd, 
  0x71, 0xbc, 0x30, 0x3d, 0x0a, 0x34, 0x26, 0xbe, 0x9a, 0x18, 0x68, 0x3c, 
  0x6e, 0xdc, 0x0e, 0x3e, 0x81, 0x36, 0x3e, 0xbe, 0xb5, 0x0b, 0x69, 0xbe, 
  0x89, 0x61, 0xd0, 0x3d, 0x5d, 0x42, 0x1e, 0x3e, 0xf6, 0x5c, 0x04, 0x3e, 
  0x64, 0x65, 0x09, 0x3c, 0xed, 0x11, 0xfb, 0x3d, 0x0e, 0x0d, 0x49, 0x3e, 
  0x13, 0x40, 0x0f, 0xbe, 0x7e, 0xae, 0x89, 0xbe, 0x28, 0x1c, 0x7c, 0x3e, 
  0xef, 0x3a, 0x42, 0x3e, 0x63, 0xf1, 0xe0, 0x3d, 0x20, 0xf7, 0x45, 0xbc, 
  0xcb, 0xe3, 0x3f, 0xbe, 0x24, 0xe5, 0xc0, 0x3d, 0x17, 0x21, 0x46, 0x3d, 
  0x20, 0xdf, 0xb5, 0x3d, 0x5e, 0x72, 0xd3, 0x3d, 0x35, 0xcd, 0x50, 0x3e, 
  0x81, 0xd1, 0x31, 0xbe, 0x54, 0xc7, 0x0d, 0xbe, 0x37, 0x23, 0x14, 0x3e, 
  0xa5, 0xc5, 0x90, 0x3c, 0x19, 0xec, 0x80, 0xbe, 0xa8, 0xb4, 0x28, 0x3e, 
  0xa7, 0x3c, 0x1a, 0x3e, 0x8a, 0x18, 0x31, 0x3d, 0xe0, 0x5c, 0x1c, 0xbe, 
  0x3d, 0x39, 0x31, 0xbe, 0x3f, 0x2d, 0xcf, 0x3c, 0xec, 0xab, 0x5d, 0x3e, 
  0xff, 0xdc, 0x2b, 0xbe, 0x1f, 0xf9, 0xc0, 0x3d, 0x04, 0xe6, 0x03, 0xbe, 
  0x5f, 0x56, 0x51, 0xbe, 0x3b, 0x6b, 0x32, 0xbe, 0xc2, 0x31, 0x57, 0x3e, 
  0xc2, 0x67, 0x5f, 0xbe, 0x8d, 0xeb, 0x6a, 0xbe, 0x67, 0xc5, 0xed, 0xbb, 
  0x83, 0xc9, 0x24, 0xbe, 0x72, 0xb0, 0xe1, 0xbd, 0xea, 0xb2, 0x05, 0xbe, 
  0x6f, 0xa6, 0x1d, 0xbd, 0x31, 0x69, 0xb5, 0xbd, 0x25, 0xbf, 0xec, 0x3d, 
  0xa8, 0x97, 0x23, 0xbe, 0x41, 0xd8, 0x69, 0x3e, 0xd2, 0x29, 0xa8, 0x3d, 
  0x97, 0x2e, 0x1b, 0x3e, 0x2e, 0x81, 0x03, 0xbe, 0x92, 0x8c, 0x0e, 0xbe, 
  0x26, 0x39, 0xe1, 0xbd, 0x46, 0x0e, 0x50, 0xbd, 0xa0, 0xaf, 0x1d, 0x3e, 
  0xaf, 0x7d, 0x32, 0xbe, 0xc2, 0xb0, 0x78, 0xbe, 0x0c, 0xd1, 0xec, 0xbc, 
  0x85, 0xd3, 0x18, 0xbe, 0x09, 0xc5, 0x43, 0x3e, 0x10, 0xe7, 0xd4, 0x3d, 
  0xfe, 0x32, 0xea, 0x3d, 0xae, 0x06, 0xb5, 0x3d, 0x22, 0xae, 0xd7, 0xbc, 
  0xb2, 0x69, 0x92, 0xbe, 0x01, 0xd3, 0x08, 0x3e, 0x94, 0x81, 0xc0, 0x3b, 
  0x41, 0x07, 0x3c, 0xbd, 0x3b, 0x20, 0xba, 0xbb, 0x77, 0xf7, 0xc4, 0x3c, 
  0xc5, 0x59, 0x38, 0xbd, 0xf6, 0x86, 0x1b, 0x3e, 0xd9, 0xeb, 0x21, 0x3c, 
  0x9f, 0x37, 0x25, 0x3e, 0x47, 0x05, 0x30, 0x3e, 0x7d, 0xe3, 0x43, 0x3d, 
  0xb7, 0xda, 0x0a, 0x3e, 0x8f, 0xd9, 0x4c, 0x3d, 0x12, 0xb2, 0x4b, 0xbe, 
  0x7e, 0x28, 0x12, 0xbd, 0xa8, 0xfe, 0x3b, 0xbe, 0xea, 0x20, 0x1b, 0x3e, 
  0x13, 0x02, 0x58, 0xbe, 0x10, 0x29, 0x00, 0x3e, 0xd9, 0x26, 0x58, 0xbe, 
  0x42, 0xac, 0x01, 0xbe, 0x9d, 0xf3, 0x3a, 0x3e, 0xfa, 0x41, 0x1e, 0x3c, 
  0x51, 0xf1, 0x41, 0xbe, 0x77, 0x6e, 0x39, 0xbc, 0xdd, 0x85, 0xff, 0xbc, 
  0x6b, 0xa2, 0x5e, 0xbe, 0xc8, 0xb4, 0x7e, 0xbe, 0x86, 0xc8, 0x1c, 0x3e, 
  0xbf, 0x2e, 0x1f, 0xbe, 0x71, 0x23, 0x58, 0x3e, 0x2e, 0x80, 0x7f, 0x3d, 
  0x97, 0xc5, 0x00, 0xbe, 0x7f, 0xbb, 0xae, 0x3c, 0x9f, 0x43, 0x8a, 0xbe, 
  0x93, 0x93, 0x1c, 0x3e, 0x4c, 0x22, 0x80, 0xbd, 0x09, 0x63, 0x59, 0xbe, 
  0x76, 0x27, 0x91, 0x3d, 0x19, 0xc8, 0x88, 0x3c, 0x0a, 0xec, 0xcb, 0x3c, 
  0x9f, 0x9a, 0x83, 0xbd, 0xfe, 0x38, 0x56, 0xbb, 0x0e, 0x3f, 0x48, 0xbe, 
  0xea, 0xad, 0xb6, 0xbd, 0x57, 0xf3, 0x0e, 0x3e, 0xfa, 0x5e, 0xb1, 0xbd, 
  0x2a, 0xbb, 0x88, 0xbe, 0x8d, 0xc7, 0x91, 0xbe, 0x55, 0x13, 0x1a, 0x3e, 
  0x8a, 0x38, 0x38, 0xbe, 0x26, 0x15, 0x7a, 0x3d, 0x10, 0xea, 0xb9, 0x3d, 
  0xd9, 0xa0, 0xce, 0x3d, 0x21, 0xce, 0x22, 0x3e, 0xcb, 0xa3, 0xff, 0x3c, 
  0xb3, 0xc3, 0x06, 0xbe, 0xeb, 0x8c, 0x38, 0x3e, 0x4f, 0xbe, 0x25, 0xbe, 
  0x66, 0x55, 0xa3, 0x3e, 0x45, 0x69, 0xfd, 0x3d, 0x48, 0x6f, 0x03, 0xbb, 
  0x9d, 0xcf, 0x5b, 0x3d, 0xe7, 0x09, 0x8c, 0x3e, 0x3b, 0xb3, 0xd1, 0xbd, 
  0x99, 0x15, 0xbd, 0xbc, 0x9c, 0xa0, 0x1f, 0xbe, 0x09, 0xc2, 0x9b, 0x3d, 
  0x36, 0xd4, 0x50, 0x3d, 0x43, 0x06, 0x97, 0x3e, 0x95, 0x57, 0xdc, 0x3d, 
  0xe6, 0xc0, 0x07, 0x3e, 0x32, 0x24, 0x39, 0x3d, 0x8a, 0x42, 0xd1, 0x3d, 
  0x2c, 0xb3, 0xa9, 0x3d, 0x1e, 0xab, 0x3c, 0x3e, 0x2d, 0x71, 0x8f, 0x3c, 
  0x35, 0xbb, 0x87, 0x3e, 0x7d, 0xb4, 0x80, 0x3e, 0xb4, 0xe0, 0xdf, 0x3d, 
  0xbd, 0x2d, 0xa5, 0x3c, 0x5e, 0xb4, 0x87, 0x3d, 0xdc, 0x07, 0x97, 0x3e, 
  0x44, 0xd4, 0x37, 0xbc, 0x29, 0xc4, 0x64, 0x3e, 0x4b, 0xc8, 0x86, 0xbc, 
  0xf9, 0x32, 0x04, 0xbd, 0xd9, 0x88, 0x09, 0x3e, 0x81, 0x10, 0x93, 0x3e, 
  0x73, 0x8b, 0x81, 0x3c, 0xa4, 0xd5, 0x4d, 0x3e, 0x12, 0xa1, 0x8a, 0x3d, 
  0x2a, 0x36, 0x98, 0x3e, 0xdf, 0xff, 0xa1, 0x3c, 0xe2, 0x55, 0x91, 0xbd, 
  0x0a, 0xcd, 0x08, 0x3e, 0x5f, 0x25, 0x9e, 0xbd, 0x64, 0xba, 0x3a, 0x3e, 
  0x69, 0xd9, 0x46, 0xbd, 0x7b, 0xe5, 0x25, 0xbd, 0xd5, 0x7b, 0x59, 0x3e, 
  0xab, 0x35, 0x32, 0x3e, 0x31, 0xbe, 0x58, 0x3c, 0xc7, 0x29, 0x33, 0x3e, 
  0x1c, 0x51, 0x27, 0xbe, 0x5e, 0x8b, 0x6f, 0x3e, 0x7b, 0xa2, 0xb6, 0x3e, 
  0x4c, 0xff, 0x0d, 0xbe, 0x29, 0xf2, 0x71, 0x3e, 0x3c, 0x65, 0x0a, 0x3e, 
  0x2f, 0x91, 0xf5, 0x3d, 0x80, 0x9c, 0x22, 0x3e, 0x5d, 0xeb, 0xda, 0xbd, 
  0x40, 0x2c, 0xb2, 0x3d, 0xaf, 0x7d, 0x2a, 0x3e, 0xd2, 0xa8, 0x1b, 0xbe, 
  0xdd, 0x5d, 0x29, 0xbe, 0x06, 0x9e, 0x98, 0x3e, 0xb0, 0x12, 0x42, 0xbd, 
  0xc7, 0x5e, 0x17, 0x3e, 0x75, 0x26, 0x9a, 0xbb, 0x81, 0x2e, 0x9a, 0x3e, 
  0x85, 0x64, 0x1e, 0x3d, 0x8f, 0xea, 0x8d, 0x3e, 0x23, 0xf9, 0x3e, 0x3d, 
  0xa7, 0x77, 0x0c, 0xbe, 0xe8, 0x95, 0x91, 0xbd, 0x1f, 0x01, 0x79, 0xbd, 
  0x6c, 0x61, 0x86, 0xbc, 0xdd, 0xe0, 0x90, 0xbb, 0xdc, 0x22, 0x28, 0xbe, 
  0x4c, 0x6c, 0x34, 0x3e, 0xa7, 0x02, 0x8c, 0x3e, 0x59, 0xf3, 0x21, 0xbe, 
  0x81, 0x21, 0x84, 0x3d, 0x11, 0x20, 0x65, 0x3e, 0x79, 0x98, 0x4c, 0x3e, 
  0x2d, 0x06, 0x86, 0x3c, 0xd5, 0xed, 0x63, 0x3e, 0x40, 0x66, 0x75, 0x3e, 
  0xc9, 0xa4, 0x6c, 0x3e, 0x0f, 0xbe, 0x12, 0xbe, 0x4d, 0x29, 0x99, 0x3e, 
  0xc2, 0xd6, 0x69, 0x3e, 0xd5, 0x49, 0x7d, 0x3e, 0x2b, 0x28, 0x8d, 0x3e, 
  0x88, 0xbe, 0x06, 0x3d, 0x54, 0xf6, 0x9f, 0xbc, 0x10, 0xd0, 0x46, 0x3e, 
  0xd6, 0xf5, 0x1a, 0x3e, 0x7f, 0xa7, 0x20, 0x3d, 0x9a, 0x8b, 0x74, 0xbb, 
  0xe5, 0x2f, 0xd1, 0xbc, 0xd2, 0xa7, 0x24, 0x3d, 0xbd, 0xb7, 0xd6, 0x3d, 
  0x5d, 0x2d, 0xc3, 0x3d, 0xfa, 0x4e, 0x2b, 0xbc, 0xa3, 0x3f, 0x00, 0x3d, 
  0xdf, 0x4d, 0xcd, 0xbd, 0xf1, 0xc6, 0x04, 0x3e, 0xf9, 0xda, 0x24, 0xbe, 
  0x86, 0x78, 0x28, 0xbd, 0x3e, 0x97, 0x60, 0x3e, 0xe3, 0xa6, 0x83, 0x3d, 
  0x62, 0x93, 0x02, 0x3e, 0x24, 0x38, 0x82, 0x3d, 0x45, 0xb8, 0x6c, 0x3e, 
  0x80, 0x49, 0x99, 0xbd, 0x81, 0x49, 0xf3, 0xbc, 0x74, 0x2c, 0xda, 0x3d, 
  0xce, 0xe3, 0xc7, 0x3d, 0x4f, 0xf2, 0xa2, 0x3e, 0x43, 0x30, 0x7f, 0x3e, 
  0x2b, 0x4c, 0x4d, 0xbe, 0x38, 0xf5, 0x36, 0x3d, 0xbf, 0x0a, 0x7f, 0x3e, 
  0x8d, 0x09, 0x44, 0x3e, 0x89, 0x12, 0x0c, 0xbd, 0xf7, 0x56, 0x95, 0xbc, 
  0xeb, 0xa3, 0xcb, 0xbd, 0x5e, 0xfd, 0xff, 0xff, 0x04, 0x00, 0x00, 0x00, 
  0x00, 0x02, 0x00, 0x00, 0x46, 0x4c, 0x91, 0x3e, 0x6b, 0x4c, 0x8d, 0xbe, 
  0x6e, 0x37, 0xa8, 0xbe, 0x18, 0x1f, 0xd0, 0x3d, 0x5d, 0x50, 0xab, 0xbe, 
  0xee, 0x67, 0xf8, 0xbd, 0x19, 0x1c, 0x64, 0xbe, 0xfb, 0xdf, 0xd3, 0x3e, 
  0x7e, 0x20, 0x3f, 0x3c, 0xcf, 0x9d, 0x03, 0xbe, 0xe5, 0xfd, 0xa1, 0x3e, 
  0x86, 0xbd, 0xa3, 0xbe, 0x5d, 0x64, 0xbf, 0xbd, 0x92, 0xd3, 0x4a, 0x3e, 
  0xd4, 0xb7, 0x6b, 0xbe, 0x13, 0xac, 0x5f, 0x3e, 0xcf, 0xe7, 0x33, 0xbe, 
  0x10, 0x8d, 0x7b, 0xbe, 0xa4, 0x8d, 0xbb, 0xbe, 0x0b, 0x07, 0xa9, 0xbe, 
  0xf9, 0xc2, 0x78, 0x3e, 0x23, 0x8f, 0xba, 0x3d, 0x38, 0xb4, 0xbc, 0x3d, 
  0xdd, 0xdc, 0x80, 0xbe, 0x50, 0x81, 0xc0, 0x3e, 0xe3, 0xc8, 0x64, 0x3e, 
  0xfe, 0x34, 0x43, 0x3e, 0x27, 0x28, 0x6d, 0x3e, 0x95, 0xe8, 0x88, 0x3d, 
  0x09, 0xd7, 0x10, 0xbd, 0xdc, 0x3b, 0x78, 0x3d, 0xf8, 0xce, 0x87, 0x3e, 
  0x25, 0x73, 0xdc, 0x3e, 0x63, 0x50, 0x53, 0x3d, 0x3e, 0xa3, 0xb8, 0x3e, 
  0xe7, 0xfd, 0x2d, 0x3e, 0xf3, 0xab, 0xa7, 0xbe, 0x82, 0xc1, 0xaa, 0xbe, 
  0xc5, 0x8c, 0x2d, 0xbd, 0x48, 0xc5, 0x1c, 0xbe, 0x7c, 0xcd, 0x82, 0xbe, 
  0x5f, 0x39, 0x93, 0x3e, 0x2b, 0xc0, 0x98, 0xbe, 0xd8, 0xfa, 0x57, 0xbe, 
  0x1f, 0x59, 0x65, 0x3c, 0x88, 0xa0, 0x41, 0xbe, 0xa9, 0x44, 0x81, 0x3e, 
  0x74, 0xdc, 0x47, 0xbb, 0x30, 0xaa, 0x05, 0xbe, 0x8a, 0x0a, 0xdb, 0x3d, 
  0x27, 0x85, 0xd1, 0xbd, 0xcb, 0xf6, 0x06, 0xbe, 0x8e, 0xc1, 0xb1, 0x3e, 
  0xc2, 0xd6, 0x7e, 0x3e, 0x04, 0x60, 0x48, 0x3e, 0xcd, 0x9a, 0xc3, 0x3e, 
  0x68, 0xfe, 0x91, 0x3e, 0x2d, 0xa9, 0x7e, 0xbd, 0xac, 0xc3, 0x0f, 0xb9, 
  0xab, 0x4f, 0x5c, 0xbe, 0x53, 0xeb, 0xb1, 0xbe, 0x78, 0xda, 0xe0, 0xbd, 
  0xa0, 0x11, 0x45, 0x3e, 0xec, 0x0a, 0x8d, 0x3e, 0x38, 0x84, 0xdc, 0xbe, 
  0x16, 0xf5, 0xf8, 0xbe, 0xed, 0x20, 0x9b, 0x3d, 0x5e, 0xba, 0x9c, 0xbe, 
  0xfd, 0x7e, 0xb9, 0x3b, 0xa1, 0x85, 0x9d, 0x3e, 0xb5, 0x48, 0x7d, 0x3e, 
  0x79, 0x70, 0xf0, 0xbe, 0xae, 0x88, 0xad, 0x3e, 0x97, 0x13, 0x98, 0x3d, 
  0xe5, 0x3f, 0x3b, 0x3e, 0x57, 0x94, 0x99, 0xbe, 0x88, 0x4b, 0x04, 0xbf, 
  0x6c, 0x54, 0xea, 0x3d, 0x99, 0x28, 0x6f, 0x3e, 0x64, 0xa9, 0xff, 0xbd, 
  0xc4, 0x91, 0xbf, 0xbe, 0x57, 0xc7, 0x0c, 0xbe, 0x16, 0xe6, 0x83, 0xbd, 
  0x38, 0x91, 0xd3, 0x3d, 0x67, 0x04, 0xf0, 0xbe, 0x7f, 0x59, 0xaf, 0xbc, 
  0x38, 0x52, 0xd4, 0x3d, 0xb8, 0xfd, 0xa0, 0xbe, 0xa0, 0xe6, 0xbb, 0xbe, 
  0xee, 0x4a, 0x82, 0x3e, 0x74, 0x42, 0xab, 0xbe, 0xf9, 0x94, 0x0b, 0x3e, 
  0x22, 0x9d, 0xfa, 0x3c, 0xbc, 0x93, 0x17, 0x3e, 0x50, 0xdc, 0x2c, 0x3e, 
  0x78, 0x4b, 0xaf, 0xbe, 0x2a, 0x9b, 0x26, 0x3e, 0x8d, 0xf8, 0x11, 0xbf, 
  0x8a, 0xfa, 0x53, 0xbd, 0x63, 0x1c, 0xea, 0xbe, 0x25, 0x28, 0xa3, 0xbe, 
  0x83, 0x2d, 0x98, 0x3e, 0x5f, 0x9b, 0x14, 0x3d, 0xc5, 0xd0, 0xbc, 0xbe, 
  0xac, 0x69, 0xf0, 0xbd, 0x6f, 0xb5, 0x41, 0x3e, 0x61, 0x18, 0xc7, 0xbe, 
  0xd6, 0x87, 0xaf, 0x3e, 0x54, 0xd1, 0xce, 0xbe, 0x02, 0x8b, 0xa1, 0xbe, 
  0x21, 0x9c, 0xb6, 0xbe, 0x2d, 0x4f, 0xa7, 0xbe, 0xae, 0x03, 0x48, 0x3e, 
  0x16, 0x8d, 0x33, 0xbb, 0x98, 0x95, 0x62, 0x3d, 0x05, 0x88, 0x6a, 0x3e, 
  0xe6, 0xca, 0x27, 0xbd, 0x85, 0xa7, 0xa6, 0xbe, 0xab, 0xc5, 0xaf, 0x3e, 
  0x49, 0x82, 0x91, 0xbe, 0x10, 0xd4, 0x46, 0xbe, 0xa9, 0x2c, 0x90, 0xbe, 
  0x87, 0x86, 0x97, 0xbe, 0x48, 0x32, 0x86, 0xbe, 0xb2, 0xf4, 0xcf, 0xbe, 
  0x7e, 0x8e, 0x95, 0x3c, 0x98, 0x8f, 0xf7, 0xbe, 0x5c, 0xbf, 0x5b, 0xbe, 
  0x64, 0xfa, 0xff, 0xff, 0x68, 0xfa, 0xff, 0xff, 0x0f, 0x00, 0x00, 0x00, 
  0x4d, 0x4c, 0x49, 0x52, 0x20, 0x43, 0x6f, 0x6e, 0x76, 0x65, 0x72, 0x74, 
  0x65, 0x64, 0x2e, 0x00, 0x01, 0x00, 0x00, 0x00, 0x14, 0x00, 0x00, 0x00, 
  0x00, 0x00, 0x0e, 0x00, 0x18, 0x00, 0x14, 0x00, 0x10, 0x00, 0x0c, 0x00, 
  0x08, 0x00, 0x04, 0x00, 0x0e, 0x00, 0x00, 0x00, 0x14, 0x00, 0x00, 0x00, 
  0x1c, 0x00, 0x00, 0x00, 0x24, 0x01, 0x00, 0x00, 0x28, 0x01, 0x00, 0x00, 
  0x2c, 0x01, 0x00, 0x00, 0x04, 0x00, 0x00, 0x00, 0x6d, 0x61, 0x69, 0x6e, 
  0x00, 0x00, 0x00, 0x00, 0x04, 0x00, 0x00, 0x00, 0xcc, 0x00, 0x00, 0x00, 
  0x84, 0x00, 0x00, 0x00, 0x50, 0x00, 0x00, 0x00, 0x14, 0x00, 0x00, 0x00, 
  0x00, 0x00, 0x0e, 0x00, 0x1a, 0x00, 0x14, 0x00, 0x10, 0x00, 0x0c, 0x00, 
  0x0b, 0x00, 0x04, 0x00, 0x0e, 0x00, 0x00, 0x00, 0x1c, 0x00, 0x00, 0x00, 
  0x00, 0x00, 0x00, 0x09, 0x1c, 0x00, 0x00, 0x00, 0x20, 0x00, 0x00, 0x00, 
  0x01, 0x00, 0x00, 0x00, 0x00, 0x00, 0x06, 0x00, 0x08, 0x00, 0x04, 0x00, 
  0x06, 0x00, 0x00, 0x00, 0x00, 0x00, 0x80, 0x3f, 0x01, 0x00, 0x00, 0x00, 
  0x0a, 0x00, 0x00, 0x00, 0x01, 0x00, 0x00, 0x00, 0x09, 0x00, 0x00, 0x00, 
  0x9a, 0xff, 0xff, 0xff, 0x10, 0x00, 0x00, 0x00, 0x00, 0x00, 0x00, 0x08, 
  0x0c, 0x00, 0x00, 0x00, 0x10, 0x00, 0x00, 0x00, 0x2c, 0xfb, 0xff, 0xff, 
  0x01, 0x00, 0x00, 0x00, 0x09, 0x00, 0x00, 0x00, 0x03, 0x00, 0x00, 0x00, 
  0x08, 0x00, 0x00, 0x00, 0x01, 0x00, 0x00, 0x00, 0x03, 0x00, 0x00, 0x00, 
  0xca, 0xff, 0xff, 0xff, 0x10, 0x00, 0x00, 0x00, 0x00, 0x00, 0x00, 0x08, 
  0x10, 0x00, 0x00, 0x00, 0x14, 0x00, 0x00, 0x00, 0xba, 0xff, 0xff, 0xff, 
  0x00, 0x00, 0x00, 0x01, 0x01, 0x00, 0x00, 0x00, 0x08, 0x00, 0x00, 0x00, 
  0x03, 0x00, 0x00, 0x00, 0x07, 0x00, 0x00, 0x00, 0x02, 0x00, 0x00, 0x00, 
  0x04, 0x00, 0x00, 0x00, 0x00, 0x00, 0x0e, 0x00, 0x16, 0x00, 0x00, 0x00, 
  0x10, 0x00, 0x0c, 0x00, 0x0b, 0x00, 0x04, 0x00, 0x0e, 0x00, 0x00, 0x00, 
  0x18, 0x00, 0x00, 0x00, 0x00, 0x00, 0x00, 0x08, 0x18, 0x00, 0x00, 0x00, 
  0x1c, 0x00, 0x00, 0x00, 0x00, 0x00, 0x06, 0x00, 0x08, 0x00, 0x07, 0x00, 
  0x06, 0x00, 0x00, 0x00, 0x00, 0x00, 0x00, 0x01, 0x01, 0x00, 0x00, 0x00, 
  0x07, 0x00, 0x00, 0x00, 0x03, 0x00, 0x00, 0x00, 0x00, 0x00, 0x00, 0x00, 
  0x06, 0x00, 0x00, 0x00, 0x05, 0x00, 0x00, 0x00, 0x01, 0x00, 0x00, 0x00, 
  0x0a, 0x00, 0x00, 0x00, 0x01, 0x00, 0x00, 0x00, 0x00, 0x00, 0x00, 0x00, 
  0x0b, 0x00, 0x00, 0x00, 0xfc, 0x03, 0x00, 0x00, 0xa4, 0x03, 0x00, 0x00, 
  0x4c, 0x03, 0x00, 0x00, 0x10, 0x03, 0x00, 0x00, 0xb4, 0x02, 0x00, 0x00, 
  0x5c, 0x02, 0x00, 0x00, 0x10, 0x02, 0x00, 0x00, 0x7c, 0x01, 0x00, 0x00, 
  0xe0, 0x00, 0x00, 0x00, 0x60, 0x00, 0x00, 0x00, 0x04, 0x00, 0x00, 0x00, 
  0x46, 0xfc, 0xff, 0xff, 0x00, 0x00, 0x00, 0x01, 0x14, 0x00, 0x00, 0x00, 
  0x1c, 0x00, 0x00, 0x00, 0x1c, 0x00, 0x00, 0x00, 0x0b, 0x00, 0x00, 0x00, 
  0x34, 0x00, 0x00, 0x00, 0x02, 0x00, 0x00, 0x00, 0xff, 0xff, 0xff, 0xff, 
  0x04, 0x00, 0x00, 0x00, 0x30, 0xfc, 0xff, 0xff, 0x1b, 0x00, 0x00, 0x00, 
  0x53, 0x74, 0x61, 0x74, 0x65, 0x66, 0x75, 0x6c, 0x50, 0x61, 0x72, 0x74, 
  0x69, 0x74, 0x69, 0x6f, 0x6e, 0x65, 0x64, 0x43, 0x61, 0x6c, 0x6c, 0x5f, 
  0x31, 0x3a, 0x30, 0x00, 0x02, 0x00, 0x00, 0x00, 0x01, 0x00, 0x00, 0x00, 
  0x04, 0x00, 0x00, 0x00, 0x9e, 0xfc, 0xff, 0xff, 0x00, 0x00, 0x00, 0x01, 
  0x14, 0x00, 0x00, 0x00, 0x1c, 0x00, 0x00, 0x00, 0x1c, 0x00, 0x00, 0x00, 
  0x0a, 0x00, 0x00, 0x00, 0x58, 0x00, 0x00, 0x00, 0x02, 0x00, 0x00, 0x00, 
  0xff, 0xff, 0xff, 0xff, 0x04, 0x00, 0x00, 0x00, 0x88, 0xfc, 0xff, 0xff, 
  0x3c, 0x00, 0x00, 0x00, 0x73, 0x65, 0x71, 0x75, 0x65, 0x6e, 0x74, 0x69, 
  0x61, 0x6c, 0x5f, 0x31, 0x2f, 0x64, 0x65, 0x6e, 0x73, 0x65, 0x5f, 0x32, 
  0x5f, 0x31, 0x2f, 0x4d, 0x61, 0x74, 0x4d, 0x75, 0x6c, 0x3b, 0x73, 0x65, 
  0x71, 0x75, 0x65, 0x6e, 0x74, 0x69, 0x61, 0x6c, 0x5f, 0x31, 0x2f, 0x64, 
  0x65, 0x6e, 0x73, 0x65, 0x5f, 0x32, 0x5f, 0x31, 0x2f, 0x42, 0x69, 0x61, 
  0x73, 0x41, 0x64, 0x64, 0x00, 0x00, 0x00, 0x00, 0x02, 0x00, 0x00, 0x00, 
  0x01, 0x00, 0x00, 0x00, 0x04, 0x00, 0x00, 0x00, 0x1a, 0xfd, 0xff, 0xff, 
  0x00, 0x00, 0x00, 0x01, 0x14, 0x00, 0x00, 0x00, 0x1c, 0x00, 0x00, 0x00, 
  0x1c, 0x00, 0x00, 0x00, 0x09, 0x00, 0x00, 0x00, 0x74, 0x00, 0x00, 0x00, 
  0x02, 0x00, 0x00, 0x00, 0xff, 0xff, 0xff, 0xff, 0x20, 0x00, 0x00, 0x00, 
  0x04, 0xfd, 0xff, 0xff, 0x58, 0x00, 0x00, 0x00, 0x73, 0x65, 0x71, 0x75, 
  0x65, 0x6e, 0x74, 0x69, 0x61, 0x6c, 0x5f, 0x31, 0x2f, 0x64, 0x65, 0x6e, 
  0x73, 0x65, 0x5f, 0x31, 0x5f, 0x32, 0x2f, 0x4d, 0x61, 0x74, 0x4d, 0x75, 
  0x6c, 0x3b, 0x73, 0x65, 0x71, 0x75, 0x65, 0x6e, 0x74, 0x69, 0x61, 0x6c, 
  0x5f, 0x31, 0x2f, 0x64, 0x65, 0x6e, 0x73, 0x65, 0x5f, 0x31, 0x5f, 0x32, 
  0x2f, 0x52, 0x65, 0x6c, 0x75, 0x3b, 0x73, 0x65, 0x71, 0x75, 0x65, 0x6e, 
  0x74, 0x69, 0x61, 0x6c, 0x5f, 0x31, 0x2f, 0x64, 0x65, 0x6e, 0x73, 0x65, 
  0x5f, 0x31, 0x5f, 0x32, 0x2f, 0x42, 0x69, 0x61, 0x73, 0x41, 0x64, 0x64, 
  0x00, 0x00, 0x00, 0x00, 0x02, 0x00, 0x00, 0x00, 0x01, 0x00, 0x00, 0x00, 
  0x20, 0x00, 0x00, 0x00, 0xb2, 0xfd, 0xff, 0xff, 0x00, 0x00, 0x00, 0x01, 
  0x14, 0x00, 0x00, 0x00, 0x1c, 0x00, 0x00, 0x00, 0x1c, 0x00, 0x00, 0x00, 
  0x08, 0x00, 0x00, 0x00, 0x6c, 0x00, 0x00, 0x00, 0x02, 0x00, 0x00, 0x00, 
  0xff, 0xff, 0xff, 0xff, 0x40, 0x00, 0x00, 0x00, 0x9c, 0xfd, 0xff, 0xff, 
  0x52, 0x00, 0x00, 0x00, 0x73, 0x65, 0x71, 0x75, 0x65, 0x6e, 0x74, 0x69, 
  0x61, 0x6c, 0x5f, 0x31, 0x2f, 0x64, 0x65, 0x6e, 0x73, 0x65, 0x5f, 0x31, 
  0x2f, 0x4d, 0x61, 0x74, 0x4d, 0x75, 0x6c, 0x3b, 0x73, 0x65, 0x71, 0x75, 
  0x65, 0x6e, 0x74, 0x69, 0x61, 0x6c, 0x5f, 0x31, 0x2f, 0x64, 0x65, 0x6e, 
  0x73, 0x65, 0x5f, 0x31, 0x2f, 0x52, 0x65, 0x6c, 0x75, 0x3b, 0x73, 0x65, 
  0x71, 0x75, 0x65, 0x6e, 0x74, 0x69, 0x61, 0x6c, 0x5f, 0x31, 0x2f, 0x64, 
  0x65, 0x6e, 0x73, 0x65, 0x5f, 0x31, 0x2f, 0x42, 0x69, 0x61, 0x73, 0x41, 
  0x64, 0x64, 0x00, 0x00, 0x02, 0x00, 0x00, 0x00, 0x01, 0x00, 0x00, 0x00, 
  0x40, 0x00, 0x00, 0x00, 0x96, 0xfe, 0xff, 0xff, 0x00, 0x00, 0x00, 0x01, 
  0x10, 0x00, 0x00, 0x00, 0x10, 0x00, 0x00, 0x00, 0x07, 0x00, 0x00, 0x00, 
  0x28, 0x00, 0x00, 0x00, 0x1c, 0xfe, 0xff, 0xff, 0x1b, 0x00, 0x00, 0x00, 
  0x73, 0x65, 0x71, 0x75, 0x65, 0x6e, 0x74, 0x69, 0x61, 0x6c, 0x5f, 0x31, 
  0x2f, 0x64, 0x65, 0x6e, 0x73, 0x65, 0x5f, 0x31, 0x2f, 0x4d, 0x61, 0x74, 
  0x4d, 0x75, 0x6c, 0x00, 0x02, 0x00, 0x00, 0x00, 0x40, 0x00, 0x00, 0x00, 
  0x07, 0x00, 0x00, 0x00, 0xde, 0xfe, 0xff, 0xff, 0x00, 0x00, 0x00, 0x01, 
  0x10, 0x00, 0x00, 0x00, 0x10, 0x00, 0x00, 0x00, 0x06, 0x00, 0x00, 0x00, 
  0x38, 0x00, 0x00, 0x00, 0x64, 0xfe, 0xff, 0xff, 0x2b, 0x00, 0x00, 0x00, 
  0x73, 0x65, 0x71, 0x75, 0x65, 0x6e, 0x74, 0x69, 0x61, 0x6c, 0x5f, 0x31, 
  0x2f, 0x64, 0x65, 0x6e, 0x73, 0x65, 0x5f, 0x31, 0x2f, 0x42, 0x69, 0x61, 
  0x73, 0x41, 0x64, 0x64, 0x2f, 0x52, 0x65, 0x61, 0x64, 0x56, 0x61, 0x72, 
  0x69, 0x61, 0x62, 0x6c, 0x65, 0x4f, 0x70, 0x00, 0x01, 0x00, 0x00, 0x00, 
  0x40, 0x00, 0x00, 0x00, 0x32, 0xff, 0xff, 0xff, 0x00, 0x00, 0x00, 0x01, 
  0x10, 0x00, 0x00, 0x00, 0x10, 0x00, 0x00, 0x00, 0x05, 0x00, 0x00, 0x00, 
  0x3c, 0x00, 0x00, 0x00, 0xb8, 0xfe, 0xff, 0xff, 0x2d, 0x00, 0x00, 0x00, 
  0x73, 0x65, 0x71, 0x75, 0x65, 0x6e, 0x74, 0x69, 0x61, 0x6c, 0x5f, 0x31, 
  0x2f, 0x64, 0x65, 0x6e, 0x73, 0x65, 0x5f, 0x31, 0x5f, 0x32, 0x2f, 0x42, 
  0x69, 0x61, 0x73, 0x41, 0x64, 0x64, 0x2f, 0x52, 0x65, 0x61, 0x64, 0x56, 
  0x61, 0x72, 0x69, 0x61, 0x62, 0x6c, 0x65, 0x4f, 0x70, 0x00, 0x00, 0x00, 
  0x01, 0x00, 0x00, 0x00, 0x20, 0x00, 0x00, 0x00, 0x8a, 0xff, 0xff, 0xff, 
  0x00, 0x00, 0x00, 0x01, 0x10, 0x00, 0x00, 0x00, 0x10, 0x00, 0x00, 0x00, 
  0x04, 0x00, 0x00, 0x00, 0x1c, 0x00, 0x00, 0x00, 0x10, 0xff, 0xff, 0xff, 
  0x0f, 0x00, 0x00, 0x00, 0x61, 0x72, 0x69, 0x74, 0x68, 0x2e, 0x63, 0x6f, 
  0x6e, 0x73, 0x74, 0x61, 0x6e, 0x74, 0x32, 0x00, 0x01, 0x00, 0x00, 0x00, 
  0x04, 0x00, 0x00, 0x00, 0xc2, 0xff, 0xff, 0xff, 0x00, 0x00, 0x00, 0x01, 
  0x10, 0x00, 0x00, 0x00, 0x10, 0x00, 0x00, 0x00, 0x03, 0x00, 0x00, 0x00, 
  0x1c, 0x00, 0x00, 0x00, 0x48, 0xff, 0xff, 0xff, 0x0f, 0x00, 0x00, 0x00, 
  0x61, 0x72, 0x69, 0x74, 0x68, 0x2e, 0x63, 0x6f, 0x6e, 0x73, 0x74, 0x61, 
  0x6e, 0x74, 0x31, 0x00, 0x02, 0x00, 0x00, 0x00, 0x20, 0x00, 0x00, 0x00, 
  0x40, 0x00, 0x00, 0x00, 0x00, 0x00, 0x16, 0x00, 0x18, 0x00, 0x14, 0x00, 
  0x00, 0x00, 0x10, 0x00, 0x0c, 0x00, 0x08, 0x00, 0x00, 0x00, 0x00, 0x00, 
  0x00, 0x00, 0x07, 0x00, 0x16, 0x00, 0x00, 0x00, 0x00, 0x00, 0x00, 0x01, 
  0x10, 0x00, 0x00, 0x00, 0x10, 0x00, 0x00, 0x00, 0x02, 0x00, 0x00, 0x00, 
  0x1c, 0x00, 0x00, 0x00, 0x9c, 0xff, 0xff, 0xff, 0x0e, 0x00, 0x00, 0x00, 
  0x61, 0x72, 0x69, 0x74, 0x68, 0x2e, 0x63, 0x6f, 0x6e, 0x73, 0x74, 0x61, 
  0x6e, 0x74, 0x00, 0x00, 0x02, 0x00, 0x00, 0x00, 0x04, 0x00, 0x00, 0x00, 
  0x20, 0x00, 0x00, 0x00, 0x00, 0x00, 0x16, 0x00, 0x1c, 0x00, 0x18, 0x00, 
  0x00, 0x00, 0x14, 0x00, 0x10, 0x00, 0x0c, 0x00, 0x00, 0x00, 0x00, 0x00, 
  0x08, 0x00, 0x07, 0x00, 0x16, 0x00, 0x00, 0x00, 0x00, 0x00, 0x00, 0x01, 
  0x14, 0x00, 0x00, 0x00, 0x20, 0x00, 0x00, 0x00, 0x20, 0x00, 0x00, 0x00, 
  0x01, 0x00, 0x00, 0x00, 0x3c, 0x00, 0x00, 0x00, 0x02, 0x00, 0x00, 0x00, 
  0xff, 0xff, 0xff, 0xff, 0x07, 0x00, 0x00, 0x00, 0x04, 0x00, 0x04, 0x00, 
  0x04, 0x00, 0x00, 0x00, 0x1e, 0x00, 0x00, 0x00, 0x73, 0x65, 0x72, 0x76, 
  0x69, 0x6e, 0x67, 0x5f, 0x64, 0x65, 0x66, 0x61, 0x75, 0x6c, 0x74, 0x5f, 
  0x6b, 0x65, 0x72, 0x61, 0x73, 0x5f, 0x74, 0x65, 0x6e, 0x73, 0x6f, 0x72, 
  0x3a, 0x30, 0x00, 0x00, 0x02, 0x00, 0x00, 0x00, 0x01, 0x00, 0x00, 0x00, 
  0x07, 0x00, 0x00, 0x00, 0x02, 0x00, 0x00, 0x00, 0x20, 0x00, 0x00, 0x00, 
  0x04, 0x00, 0x00, 0x00, 0xf4, 0xff, 0xff, 0xff, 0x19, 0x00, 0x00, 0x00, 
  0x00, 0x00, 0x00, 0x19, 0x0c, 0x00, 0x0c, 0x00, 0x0b, 0x00, 0x00, 0x00, 
  0x00, 0x00, 0x04, 0x00, 0x0c, 0x00, 0x00, 0x00, 0x09, 0x00, 0x00, 0x00, 
  0x00, 0x00, 0x00, 0x09, 
};

const unsigned int model_len = 13000;