const unsigned char model[] = {

  0x1c, 0x00, 0x00, 0x00, 0x54, 0x46, 0x4c, 0x33, 0x14, 0x00, 0x20, 0x00, 
  0x1c, 0x00, 0x18, 0x00, 0x14, 0x00, 0x10, 0x00, 0x0c, 0x00, 0x00, 0x00, 
  0x08, 0x00, 0x04, 0x00, 0x14, 0x00, 0x00, 0x00, 0x1c, 0x00, 0x00, 0x00, 
  0x98, 0x00, 0x00, 0x00, 0xf0, 0x00, 0x00, 0x00, 0xa0, 0x2b, 0x00, 0x00, 
  0xb0, 0x2b, 0x00, 0x00, 0x64, 0x31, 0x00, 0x00, 0x03, 0x00, 0x00, 0x00, 
  0x01, 0x00, 0x00, 0x00, 0x10, 0x00, 0x00, 0x00, 0x00, 0x00, 0x0a, 0x00, 
  0x10, 0x00, 0x0c, 0x00, 0x08, 0x00, 0x04, 0x00, 0x0a, 0x00, 0x00, 0x00, 
  0x0c, 0x00, 0x00, 0x00, 0x1c, 0x00, 0x00, 0x00, 0x3c, 0x00, 0x00, 0x00, 
  0x0f, 0x00, 0x00, 0x00, 0x73, 0x65, 0x72, 0x76, 0x69, 0x6e, 0x67, 0x5f, 
  0x64, 0x65, 0x66, 0x61, 0x75, 0x6c, 0x74, 0x00, 0x01, 0x00, 0x00, 0x00, 
  0x04, 0x00, 0x00, 0x00, 0x90, 0xff, 0xff, 0xff, 0x0a, 0x00, 0x00, 0x00, 
  0x04, 0x00, 0x00, 0x00, 0x08, 0x00, 0x00, 0x00, 0x6f, 0x75, 0x74, 0x70, 
  0x75, 0x74, 0x5f, 0x30, 0x00, 0x00, 0x00, 0x00, 0x01, 0x00, 0x00, 0x00, 
  0x04, 0x00, 0x00, 0x00, 0x46, 0xd4, 0xff, 0xff, 0x04, 0x00, 0x00, 0x00, 
  0x0c, 0x00, 0x00, 0x00, 0x6b, 0x65, 0x72, 0x61, 0x73, 0x5f, 0x74, 0x65, 
  0x6e, 0x73, 0x6f, 0x72, 0x00, 0x00, 0x00, 0x00, 0x02, 0x00, 0x00, 0x00, 
  0x34, 0x00, 0x00, 0x00, 0x04, 0x00, 0x00, 0x00, 0xdc, 0xff, 0xff, 0xff, 
  0x0d, 0x00, 0x00, 0x00, 0x04, 0x00, 0x00, 0x00, 0x13, 0x00, 0x00, 0x00, 
  0x43, 0x4f, 0x4e, 0x56, 0x45, 0x52, 0x53, 0x49, 0x4f, 0x4e, 0x5f, 0x4d, 
  0x45, 0x54, 0x41, 0x44, 0x41, 0x54, 0x41, 0x00, 0x08, 0x00, 0x0c, 0x00, 
  0x08, 0x00, 0x04, 0x00, 0x08, 0x00, 0x00, 0x00, 0x0c, 0x00, 0x00, 0x00, 
  0x04, 0x00, 0x00, 0x00, 0x13, 0x00, 0x00, 0x00, 0x6d, 0x69, 0x6e, 0x5f, 
  0x72, 0x75, 0x6e, 0x74, 0x69, 0x6d, 0x65, 0x5f, 0x76, 0x65, 0x72, 0x73, 
  0x69, 0x6f, 0x6e, 0x00, 0x0e, 0x00, 0x00, 0x00, 0xac, 0x2a, 0x00, 0x00, 
  0xa4, 0x2a, 0x00, 0x00, 0x94, 0x28, 0x00, 0x00, 0x84, 0x08, 0x00, 0x00, 
  0x64, 0x08, 0x00, 0x00, 0xd4, 0x07, 0x00, 0x00, 0xc4, 0x06, 0x00, 0x00, 
  0xb4, 0x00, 0x00, 0x00, 0xac, 0x00, 0x00, 0x00, 0xa4, 0x00, 0x00, 0x00, 
  0x9c, 0x00, 0x00, 0x00, 0x94, 0x00, 0x00, 0x00, 0x74, 0x00, 0x00, 0x00, 
  0x04, 0x00, 0x00, 0x00, 0xfa, 0xd4, 0xff, 0xff, 0x04, 0x00, 0x00, 0x00, 
  0x60, 0x00, 0x00, 0x00, 0x10, 0x00, 0x00, 0x00, 0x00, 0x00, 0x00, 0x00, 
  0x08, 0x00, 0x0e, 0x00, 0x08, 0x00, 0x04, 0x00, 0x08, 0x00, 0x00, 0x00, 
  0x10, 0x00, 0x00, 0x00, 0x24, 0x00, 0x00, 0x00, 0x00, 0x00, 0x06, 0x00, 
  0x08, 0x00, 0x04, 0x00, 0x06, 0x00, 0x00, 0x00, 0x04, 0x00, 0x00, 0x00, 
  0x00, 0x00, 0x00, 0x00, 0x0c, 0x00, 0x18, 0x00, 0x14, 0x00, 0x10, 0x00, 
  0x0c, 0x00, 0x04, 0x00, 0x0c, 0x00, 0x00, 0x00, 0x18, 0x3d, 0x4c, 0xe8, 
  0x5d, 0x71, 0x41, 0x6a, 0x02, 0x00, 0x00, 0x00, 0x02, 0x00, 0x00, 0x00, 
  0x04, 0x00, 0x00, 0x00, 0x06, 0x00, 0x00, 0x00, 0x32, 0x2e, 0x31, 0x39, 
  0x2e, 0x30, 0x00, 0x00, 0x66, 0xd5, 0xff, 0xff, 0x04, 0x00, 0x00, 0x00, 
  0x10, 0x00, 0x00, 0x00, 0x31, 0x2e, 0x35, 0x2e, 0x30, 0x00, 0x00, 0x00, 
  0x00, 0x00, 0x00, 0x00, 0x00, 0x00, 0x00, 0x00, 0x7c, 0xd0, 0xff, 0xff, 
  0x80, 0xd0, 0xff, 0xff, 0x84, 0xd0, 0xff, 0xff, 0x88, 0xd0, 0xff, 0xff, 
  0x92, 0xd5, 0xff, 0xff, 0x04, 0x00, 0x00, 0x00, 0x00, 0x06, 0x00, 0x00, 
  0xe3, 0xae, 0xde, 0x3c, 0xab, 0x9e, 0x18, 0x3c, 0xe0, 0xad, 0x1b, 0x3d, 
  0x45, 0xc7, 0x28, 0xbe, 0x35, 0x03, 0x15, 0xbe, 0xa0, 0x44, 0xb0, 0xbd, 
  0xda, 0xc9, 0x98, 0x3d, 0x71, 0xd5, 0x77, 0xbe, 0xbe, 0x1f, 0xa0, 0x3e, 
  0xd4, 0x83, 0x5a, 0xbe, 0x24, 0xbd, 0x1e, 0x3d, 0xf7, 0x79, 0xd2, 0x3c, 
  0xc1, 0x78, 0x15, 0x3e, 0x27, 0xc9, 0xc8, 0xbd, 0x03, 0x68, 0xfb, 0xbd, 
  0xff, 0x00, 0x69, 0xbd, 0x85, 0x95, 0x05, 0x3e, 0x26, 0xe4, 0x07, 0xbe, 
  0x94, 0x95, 0x4c, 0x3e, 0xdc, 0x1c, 0xe3, 0x3c, 0xc5, 0xf2, 0xa4, 0x3d, 
  0xff, 0x0b, 0xd1, 0xbd, 0x0c, 0x7a, 0x4b, 0x3e, 0x03, 0xa0, 0x54, 0x3e, 
  0x9b, 0xfd, 0xaf, 0x3d, 0x71, 0x08, 0xc2, 0xbc, 0x3b, 0x1e, 0x6b, 0x3e, 
  0xcc, 0x97, 0x68, 0xbe, 0x94, 0x88, 0x82, 0xbd, 0x26, 0xb9, 0x82, 0x3e, 
  0xd5, 0x48, 0x09, 0xbd, 0x7a, 0xab, 0x6b, 0x3e, 0x4c, 0x52, 0xb1, 0xbe, 
  0x6c, 0x34, 0x4b, 0x3e, 0xf0, 0xdd, 0x64, 0xbd, 0xd7, 0x19, 0x68, 0xbe, 
  0x72, 0x86, 0xab, 0x3d, 0x95, 0x72, 0x80, 0xbd, 0xaf, 0x19, 0xa5, 0xbe, 
  0xf9, 0x98, 0x2f, 0xbd, 0xff, 0x96, 0x7c, 0xbe, 0x4b, 0x24, 0x9a, 0xbe, 
  0x08, 0xb9, 0x14, 0xbe, 0xe7, 0xc5, 0x7e, 0xbe, 0x43, 0x38, 0xb2, 0xbd, 
  0xe9, 0x6f, 0x29, 0x3e, 0x7c, 0x4a, 0x34, 0xbe, 0x96, 0x58, 0xa7, 0xbe, 
  0xf1, 0x71, 0x16, 0xbe, 0x09, 0x58, 0x09, 0x3d, 0x0c, 0x40, 0xbb, 0x3c, 
  0xe6, 0xc4, 0x33, 0xbe, 0xf4, 0x9f, 0xa4, 0xbc, 0x31, 0x49, 0x03, 0xbe, 
  0x4c, 0xd4, 0xee, 0x3d, 0x73, 0x7e, 0x05, 0x3d, 0x5c, 0x4f, 0x6c, 0x3e, 
  0x72, 0x3e, 0xd5, 0xbd, 0x55, 0xea, 0x3e, 0xbe, 0x6b, 0xf2, 0x12, 0xbe, 
  0x9e, 0xa8, 0x6c, 0x3e, 0x85, 0x5b, 0x2a, 0xbe, 0xa7, 0x27, 0x4b, 0xbd, 
  0x3d, 0x43, 0x42, 0xbe, 0x0e, 0xf2, 0x68, 0x3d, 0x25, 0xd0, 0x93, 0x3e, 
  0x85, 0x1b, 0x40, 0x3c, 0x53, 0xe1, 0xfe, 0xbd, 0x00, 0xbe, 0x5b, 0x3e, 
  0x38, 0x1f, 0x9a, 0x3e, 0x05, 0xe9, 0xea, 0xbd, 0x1b, 0x71, 0x13, 0xbe, 
  0x2f, 0x18, 0x81, 0x3d, 0x7d, 0x02, 0x3d, 0xbe, 0xd3, 0x3b, 0x85, 0xbe, 
  0xb6, 0xf3, 0xb9, 0xbd, 0xec, 0x67, 0xd2, 0x3c, 0x27, 0x01, 0x65, 0x3d, 
  0x91, 0xf1, 0x8d, 0x3e, 0x03, 0x37, 0x66, 0xbe, 0x44, 0xc3, 0x87, 0x3e, 
  0x99, 0xa9, 0xa2, 0xbe, 0x9f, 0xc4, 0xe5, 0x3c, 0x65, 0x5e, 0x6e, 0x3d, 
  0xf7, 0xcf, 0x91, 0xbe, 0x5e, 0xa0, 0xfb, 0xbd, 0x7b, 0x78, 0x7d, 0xbe, 
  0xa4, 0x1d, 0x2d, 0xbe, 0x20, 0x6e, 0x81, 0x3e, 0x18, 0xf3, 0x3d, 0x3e, 
  0x64, 0x7d, 0xc7, 0xbd, 0x97, 0xc0, 0x91, 0x3e, 0x4a, 0x42, 0x3d, 0xbd, 
  0xb5, 0x0f, 0xab, 0x3d, 0x3e, 0xfb, 0x0d, 0x3e, 0x12, 0x10, 0x21, 0x3d, 
  0x6b, 0x3c, 0x64, 0x3d, 0x34, 0x3f, 0x53, 0xbc, 0x97, 0xf1, 0xac, 0x3d, 
  0x02, 0x68, 0xcb, 0xbd, 0xd0, 0xcb, 0x78, 0x3e, 0x49, 0x09, 0x15, 0xbe, 
  0x98, 0xfc, 0x07, 0xbd, 0x58, 0xaf, 0x69, 0xbe, 0x90, 0x48, 0x86, 0x3e, 
  0xe2, 0xae, 0xef, 0x3d, 0x0b, 0xad, 0xb9, 0x3d, 0xec, 0x48, 0x4f, 0x3e, 
  0x86, 0x2c, 0x50, 0x3e, 0x67, 0xf2, 0xcb, 0x3d, 0x3d, 0x37, 0x81, 0x3d, 
  0x3c, 0xa1, 0x65, 0xbe, 0xd5, 0xfd, 0xfc, 0xbd, 0xdb, 0x2b, 0x5e, 0xbd, 
  0xfb, 0x3d, 0x77, 0x3e, 0x8f, 0x5e, 0x01, 0xbe, 0x8b, 0xbf, 0x78, 0xbe, 
  0xb3, 0x7a, 0x72, 0xbe, 0xdb, 0x91, 0x0e, 0x3e, 0x14, 0x3c, 0x84, 0x3d, 
  0x45, 0xcd, 0x17, 0x3e, 0x01, 0x6c, 0x05, 0xbe, 0x74, 0x51, 0x84, 0xbe, 
  0xe8, 0x56, 0x9a, 0xbe, 0x61, 0x91, 0x98, 0xbe, 0x36, 0x38, 0x65, 0xbe, 
  0x64, 0x5e, 0x2b, 0xbd, 0x2b, 0xac, 0xf1, 0xbd, 0x65, 0x5c, 0xe6, 0xbd, 
  0xda, 0x68, 0x32, 0x3e, 0xb6, 0x1a, 0xfd, 0xbd, 0x79, 0xf0, 0xa8, 0xbc, 
  0x10, 0x48, 0x8d, 0x3e, 0x12, 0x47, 0x85, 0x3e, 0x9a, 0x53, 0x65, 0xbd, 
  0x03, 0xb4, 0xf7, 0xbd, 0x1e, 0x83, 0xcb, 0x39, 0x67, 0xab, 0x4b, 0x3e, 
  0xc5, 0xf8, 0x6c, 0xbe, 0xe6, 0xb9, 0x0e, 0x3e, 0x96, 0xe6, 0x6c, 0xbe, 
  0xcc, 0x2c, 0x2b, 0xbe, 0x6a, 0xed, 0x47, 0xbb, 0x71, 0xf7, 0x6b, 0xbe, 
  0xd9, 0xd2, 0xbf, 0xbe, 0x67, 0x1b, 0x85, 0x3e, 0xb2, 0x76, 0xa0, 0xbe, 
  0x21, 0x6d, 0x75, 0xbe, 0xc2, 0xf3, 0x92, 0x3c, 0xa6, 0x52, 0x58, 0xbe, 
  0xa3, 0x7f, 0x25, 0x3e, 0x00, 0x9d, 0x4e, 0x3e, 0xed, 0xf5, 0xae, 0x3d, 
  0x75, 0xc1, 0x2e, 0x3e, 0x5b, 0x99, 0x97, 0x3d, 0x41, 0xb4, 0x0a, 0x3e, 
  0xf2, 0x11, 0x41, 0xbe, 0xda, 0x5d, 0x22, 0xbe, 0x16, 0x4a, 0x28, 0x3d, 
  0x7b, 0xf7, 0x9c, 0xbd, 0xb7, 0x2f, 0x6c, 0x3e, 0xe8, 0xcc, 0x88, 0x3e, 
  0xff, 0x09, 0x73, 0xbe, 0xa1, 0x6c, 0x5c, 0xbd, 0xbd, 0xa6, 0x9c, 0xbe, 
  0x5a, 0x6f, 0x1d, 0x3d, 0x37, 0x67, 0x9e, 0xbd, 0xda, 0xf2, 0xef, 0x3d, 
  0xf2, 0xfd, 0x6f, 0x3e, 0x52, 0x26, 0x36, 0x3e, 0x52, 0x44, 0x8b, 0x3d, 
  0x2c, 0x0c, 0x8a, 0x3d, 0xe7, 0xdc, 0x50, 0xbe, 0x5d, 0x95, 0x4a, 0x3e, 
  0x2b, 0xea, 0x9e, 0xbe, 0xc0, 0x03, 0x79, 0xbd, 0x72, 0x17, 0xa0, 0x3d, 
  0xf5, 0x6d, 0xa4, 0xbe, 0xde, 0xf6, 0x8a, 0xbe, 0x9a, 0xea, 0x11, 0xbe, 
  0x28, 0x0e, 0x10, 0x3d, 0x5d, 0xd1, 0x89, 0xbe, 0x47, 0x4b, 0x97, 0x3d, 
  0x6c, 0x67, 0xb5, 0xbd, 0xff, 0xd3, 0x88, 0x3e, 0x46, 0x1f, 0x0e, 0x3d, 
  0x97, 0x36, 0xb3, 0x3d, 0xac, 0xc6, 0x94, 0x3e, 0x6b, 0xc4, 0x8b, 0x3d, 
  0x1a, 0x1a, 0x8e, 0x3e, 0x1c, 0x32, 0xad, 0xbe, 0x6d, 0x7a, 0xb5, 0x3d, 
  0x8a, 0x6d, 0x87, 0xbe, 0xd2, 0x4c, 0x21, 0x3e, 0x6c, 0xf4, 0x96, 0x3d, 
  0x8c, 0x09, 0x1d, 0x3e, 0x49, 0x14, 0x99, 0xbe, 0xba, 0x82, 0x04, 0xbe, 
  0xb2, 0xc9, 0x18, 0xbe, 0xe5, 0x8d, 0x09, 0x3e, 0xae, 0x52, 0x8f, 0xbe, 
  0xc2, 0x6a, 0x69, 0x3e, 0x0b, 0xe6, 0x2f, 0xbe, 0xb0, 0xc9, 0x33, 0xbe, 
  0x37, 0x08, 0x44, 0x3e, 0xef, 0x85, 0x73, 0xbd, 0x5e, 0x0e, 0xc7, 0xbb, 
  0xd6, 0x27, 0x50, 0xbd, 0x7f, 0x5c, 0x82, 0xbe, 0x18, 0xb7, 0x88, 0xbd, 
  0xd9, 0x4c, 0x46, 0x3e, 0x22, 0x07, 0x5f, 0xbd, 0x7a, 0xa7, 0x93, 0x3c, 
  0xb4, 0x53, 0xc6, 0x3d, 0x80, 0xe4, 0x20, 0x3e, 0x0f, 0x22, 0x23, 0x3e, 
  0x71, 0x59, 0x72, 0xbd, 0x37, 0x77, 0x64, 0xbe, 0x9e, 0x41, 0x8f, 0xbd, 
  0x5d, 0xe5, 0x15, 0x3e, 0x59, 0x72, 0xe2, 0x3c, 0xf9, 0x6c, 0xe5, 0xbd, 
  0x88, 0xed, 0x8d, 0xbe, 0x25, 0x02, 0x44, 0xbe, 0x57, 0x96, 0x67, 0x3e, 
  0x1c, 0xba, 0x6e, 0xbe, 0x3b, 0x3f, 0x8f, 0xbe, 0x7c, 0xe2, 0x82, 0xbe, 
  0xd7, 0xf2, 0x79, 0x3e, 0xf4, 0x8c, 0x8e, 0xbe, 0xb8, 0x07, 0x89, 0xbd, 
  0x1f, 0x0f, 0x98, 0xbd, 0x56, 0x67, 0x79, 0xbe, 0x95, 0x40, 0x21, 0xbe, 
  0xa3, 0x02, 0xe7, 0x3d, 0x6d, 0x61, 0x92, 0x3e, 0x92, 0x60, 0x62, 0x3c, 
  0xc6, 0xdf, 0x3d, 0xbe, 0xb2, 0xa8, 0x00, 0xbc, 0xa4, 0x2e, 0xe9, 0x3c, 
  0xac, 0xaa, 0xd9, 0xbc, 0xea, 0x9c, 0x93, 0x3e, 0xe1, 0xea, 0x0c, 0x3e, 
  0x1f, 0x9e, 0xde, 0xbd, 0xe3, 0xad, 0x5c, 0xbd, 0x8f, 0x96, 0xe4, 0x3d, 
  0xfa, 0xa1, 0x39, 0xbe, 0x0c, 0xf2, 0x2b, 0x3d, 0x43, 0xf2, 0x56, 0xbe, 
  0xbd, 0x64, 0x2b, 0x3e, 0xfa, 0x13, 0x46, 0x3e, 0xcf, 0xb1, 0x70, 0x3e, 
  0xf6, 0x0a, 0x2a, 0x3d, 0xe4, 0xe7, 0xb2, 0x3e, 0xe4, 0xfe, 0x7a, 0xba, 
  0x27, 0xf5, 0xcc, 0xbd, 0x0f, 0xc0, 0x5d, 0xbe, 0x40, 0xd7, 0x66, 0x3c, 
  0x5e, 0x3a, 0xa0, 0xbe, 0x5c, 0xe9, 0x62, 0xbe, 0x49, 0x3c, 0xb3, 0xbe, 
  0x5f, 0x13, 0x33, 0xbe, 0x72, 0xa1, 0x92, 0xbd, 0x90, 0x3f, 0xa6, 0x3d, 
  0x42, 0x68, 0x46, 0x3d, 0x3d, 0x28, 0x3d, 0xbe, 0x36, 0x06, 0x9c, 0x3d, 
  0x5b, 0xdc, 0x44, 0x3e, 0xbf, 0x35, 0xf0, 0x3d, 0x88, 0x9b, 0x56, 0x3e, 
  0xcd, 0x19, 0xa0, 0xbe, 0xc9, 0x60, 0x80, 0xbe, 0xc0, 0x7f, 0x0e, 0x3d, 
  0x49, 0x09, 0x15, 0x3e, 0x37, 0xc2, 0x9e, 0xbe, 0x74, 0x8b, 0x7c, 0x3e, 
  0xf1, 0xc5, 0xbd, 0xbd, 0x03, 0x4c, 0x03, 0x3e, 0xe9, 0xa4, 0x61, 0xbd, 
  0xe4, 0x9b, 0x3c, 0xbe, 0xac, 0xae, 0x89, 0xbd, 0x9d, 0xdc, 0xa0, 0x3e, 
  0x54, 0x93, 0x96, 0xbd, 0x5e, 0x97, 0x21, 0x3e, 0xa3, 0xcb, 0xcc, 0xbd, 
  0x03, 0x60, 0xa3, 0xbe, 0x26, 0x24, 0x3a, 0x3e, 0x48, 0x04, 0x5d, 0xbe, 
  0x85, 0x2e, 0xa7, 0xbe, 0x64, 0xe9, 0x29, 0xbe, 0x80, 0xca, 0x3d, 0x3e, 
  0x69, 0x26, 0x99, 0xbe, 0xb1, 0x22, 0xba, 0xbd, 0xc5, 0xee, 0x32, 0x3e, 
  0xda, 0x94, 0x1e, 0xbe, 0x31, 0x2f, 0xeb, 0xbd, 0x39, 0xcf, 0x21, 0x3e, 
  0xd2, 0xda, 0x31, 0x3d, 0x81, 0x2a, 0x36, 0xbe, 0x47, 0xc6, 0x31, 0x3e, 
  0x6c, 0x17, 0x2b, 0x3e, 0x97, 0x98, 0x27, 0xbd, 0xcf, 0xea, 0x1d, 0x3e, 
  0x39, 0x34, 0x85, 0xbe, 0x80, 0xa2, 0x1b, 0xbe, 0x3d, 0x68, 0x4c, 0xbe, 
  0xd9, 0x2e, 0x5a, 0xbe, 0x0b, 0x4c, 0x8e, 0x3e, 0x5c, 0x45, 0x09, 0x3d, 
  0xe3, 0x6d, 0x47, 0x3e, 0xf0, 0xd0, 0x8f, 0x3d, 0x57, 0x1c, 0x2f, 0xbe, 
  0x80, 0x82, 0x12, 0xbd, 0xae, 0xfb, 0x85, 0x3e, 0xf9, 0x9c, 0x3b, 0xbe, 
  0x25, 0xad, 0x67, 0xbe, 0x89, 0xc6, 0x80, 0x3e, 0xc6, 0x91, 0x1a, 0xbd, 
  0xd7, 0x21, 0x80, 0x3e, 0x50, 0x47, 0x02, 0xbe, 0x72, 0xd2, 0x97, 0xbe, 
  0xc7, 0x0c, 0x65, 0xbd, 0x44, 0x00, 0x9c, 0xbc, 0x53, 0x85, 0x1c, 0x3e, 
  0x86, 0xf6, 0x01, 0xbe, 0x5f, 0x69, 0x7e, 0xbe, 0x23, 0x2b, 0xa3, 0xbd, 
  0xdd, 0x70, 0x83, 0x3d, 0x30, 0x0d, 0x3f, 0x3d, 0xe9, 0x58, 0x16, 0x3e, 
  0x10, 0xc6, 0x83, 0xbd, 0x53, 0xbc, 0x90, 0x3e, 0x73, 0xb2, 0x1a, 0xbe, 
  0x7c, 0x2b, 0x39, 0xbe, 0x70, 0xe5, 0x02, 0x3e, 0x84, 0x00, 0x47, 0xbe, 
  0x16, 0xed, 0x69, 0x3e, 0x0d, 0x43, 0x30, 0x3e, 0xf9, 0xfa, 0x52, 0xbe, 
  0x68, 0x51, 0xbf, 0x3d, 0x3a, 0xe6, 0x5a, 0xbe, 0x1f, 0x4b, 0x0f, 0x3e, 
  0x5c, 0xcd, 0x48, 0x3e, 0xe0, 0x68, 0x4b, 0xbe, 0x41, 0x24, 0x66, 0x3e, 
  0x0f, 0xb4, 0x4a, 0x3e, 0xb3, 0x18, 0xfd, 0x3d, 0x50, 0xf5, 0x70, 0xbe, 
  0x7e, 0x36, 0x93, 0x3e, 0xd8, 0x3c, 0xe6, 0xbd, 0xf0, 0xde, 0x02, 0x3e, 
  0xb3, 0xa7, 0x7e, 0xbd, 0x1e, 0xd0, 0x5e, 0xbe, 0x74, 0x7a, 0x5d, 0xbe, 
  0x26, 0x9d, 0xc0, 0xbd, 0x7a, 0x42, 0x84, 0x3e, 0x33, 0x2b, 0xfe, 0xbc, 
  0x89, 0x97, 0x8d, 0xbe, 0xcf, 0x73, 0x28, 0x3e, 0x22, 0xc7, 0xc0, 0xbd, 
  0x74, 0xe7, 0xae, 0xbb, 0x0a, 0x8f, 0x0f, 0x3e, 0x29, 0x0c, 0xe3, 0xbc, 
  0x70, 0x85, 0x8e, 0x3e, 0x9d, 0xa4, 0xd8, 0xbd, 0x2c, 0x93, 0xac, 0x3c, 
  0xd7, 0xd8, 0x9f, 0xbe, 0xf7, 0xca, 0xa9, 0x3e, 0xda, 0x83, 0x0f, 0xbe, 
  0x88, 0x36, 0xcf, 0x3d, 0xe3, 0x13, 0x4f, 0xbe, 0xd7, 0xe9, 0x44, 0x3e, 
  0xa8, 0x09, 0xd2, 0xbd, 0xf3, 0xa4, 0xa6, 0x3e, 0x84, 0x7c, 0x8a, 0x3c, 
  0x8d, 0x55, 0x49, 0x3e, 0xec, 0x43, 0xa5, 0xbe, 0x51, 0x5a, 0x23, 0xbd, 
  0xa5, 0x24, 0x89, 0xbd, 0xb3, 0xde, 0x96, 0xbd, 0x9e, 0xd8, 0x93, 0xbb, 
  0x5e, 0x54, 0x5b, 0x3e, 0x3a, 0x73, 0x7b, 0x3e, 0xee, 0x35, 0xd5, 0x3c, 
  0x9e, 0xdb, 0xff, 0xff, 0x04, 0x00, 0x00, 0x00, 0x00, 0x01, 0x00, 0x00, 
  0xf0, 0x93, 0xe8, 0xbc, 0xb6, 0xb4, 0x5c, 0x3d, 0xac, 0xda, 0xfa, 0x3c, 
  0x04, 0xa9, 0xad, 0x3d, 0xd4, 0x02, 0xd0, 0x3c, 0x6d, 0xe8, 0x73, 0x3c, 
  0x13, 0x5d, 0x26, 0x3d, 0x29, 0x23, 0x08, 0x3d, 0x78, 0xeb, 0x80, 0xbd, 
  0x13, 0xe0, 0x4c, 0xbd, 0x25, 0x8d, 0x90, 0x3d, 0x60, 0x86, 0x75, 0x3d, 
  0xf7, 0x04, 0xc0, 0xbc, 0x10, 0xcb, 0xe7, 0x3d, 0xc3, 0xd5, 0x26, 0x3d, 
  0x2b, 0x0b, 0x1f, 0x3d, 0xf1, 0xae, 0x8d, 0xbc, 0xe4, 0x2d, 0x4f, 0x3d, 
  0x0e, 0x81, 0xec, 0x3c, 0xa0, 0xa5, 0xef, 0xbc, 0x8f, 0xc5, 0x0b, 0x3d, 
  0x04, 0x32, 0xda, 0x3b, 0x86, 0x60, 0x40, 0x3d, 0x44, 0x4b, 0x0b, 0xbd, 
  0xdc, 0xfa, 0xee, 0x3c, 0x20, 0xd4, 0xbe, 0xbd, 0xc5, 0x3f, 0x32, 0x3c, 
  0xe9, 0x71, 0xc9, 0x3b, 0xb2, 0xea, 0x6a, 0x3c, 0x02, 0x54, 0x54, 0x3d, 
  0xef, 0x03, 0x58, 0xbc, 0x65, 0xf7, 0xd3, 0x3d, 0x9c, 0x2f, 0x3e, 0x3d, 
  0x49, 0x01, 0x76, 0x3d, 0x8b, 0xa1, 0x05, 0x3a, 0x3f, 0xd7, 0x90, 0xbc, 
  0x13, 0x74, 0x5d, 0xbc, 0x63, 0x81, 0x9f, 0x3d, 0xe0, 0x1a, 0x62, 0xbd, 
  0x09, 0xff, 0x48, 0x3d, 0x25, 0x3c, 0x99, 0x3d, 0x75, 0x52, 0xf4, 0xbc, 
  0xa1, 0x9f, 0xa6, 0x3d, 0xd8, 0xff, 0x86, 0x3d, 0x1f, 0x8a, 0x67, 0x3c, 
  0xf9, 0x83, 0x1a, 0x3d, 0x2a, 0xf3, 0x0f, 0x3e, 0xa0, 0x25, 0x03, 0xbc, 
  0x3b, 0xfc, 0xf3, 0x3c, 0x3d, 0xc4, 0x60, 0x3d, 0x02, 0x6a, 0xec, 0x3c, 
  0xf3, 0xb8, 0x00, 0x3c, 0x6e, 0x08, 0x16, 0x3d, 0x50, 0x24, 0xff, 0xbc, 
  0x47, 0xbc, 0xcf, 0xbc, 0x19, 0x38, 0x86, 0xbb, 0xc0, 0x8d, 0x10, 0x3d, 
  0xeb, 0x09, 0x22, 0xbc, 0x05, 0x78, 0x0e, 0xbd, 0x1b, 0x62, 0x50, 0x3d, 
  0xdc, 0x20, 0x58, 0x3d, 0xaf, 0xa7, 0xd4, 0x3c, 0x28, 0x61, 0xd6, 0x3d, 
  0x67, 0x76, 0x6c, 0x3d, 0xaa, 0xdc, 0xff, 0xff, 0x04, 0x00, 0x00, 0x00, 
  0x80, 0x00, 0x00, 0x00, 0x4d, 0xfc, 0x9e, 0x3d, 0xc4, 0xa7, 0x4f, 0xbd, 
  0x06, 0x0e, 0xa9, 0xbc, 0x21, 0xbc, 0xf9, 0x3d, 0x5f, 0x41, 0x43, 0xbd, 
  0x6c, 0xcb, 0x78, 0xbd, 0x36, 0xfe, 0xf5, 0xbc, 0x03, 0xa4, 0x38, 0x3d, 
  0xfe, 0x11, 0x3a, 0xbd, 0x7e, 0x97, 0x27, 0x3e, 0x06, 0x1a, 0x6e, 0x3d, 
  0x5f, 0xdb, 0xa2, 0x3d, 0x33, 0x22, 0xdc, 0x3d, 0xf3, 0xdb, 0x5a, 0x3d, 
  0xbe, 0x32, 0xf2, 0xbc, 0xef, 0xd3, 0x1f, 0xbd, 0x25, 0x65, 0x91, 0x3d, 
  0xae, 0x44, 0x64, 0xbd, 0x8a, 0x3b, 0x88, 0x3d, 0x14, 0x48, 0x61, 0x3d, 
  0x87, 0x5f, 0x4a, 0x3d, 0x56, 0x88, 0xc2, 0xbc, 0xbf, 0xcb, 0xd1, 0x3d, 
  0x78, 0xe6, 0x23, 0x3e, 0xbf, 0xc6, 0x5e, 0xbc, 0xfd, 0x8b, 0x2c, 0xbd, 
  0x75, 0xdc, 0x02, 0x3c, 0x4b, 0x77, 0x59, 0x3d, 0x9a, 0x4c, 0x04, 0x3d, 
  0x99, 0xef, 0x2b, 0xbd, 0xb0, 0xf6, 0x14, 0xbd, 0x81, 0xa6, 0x01, 0x3d, 
  0x36, 0xdd, 0xff, 0xff, 0x04, 0x00, 0x00, 0x00, 0x10, 0x00, 0x00, 0x00, 
  0x14, 0x72, 0x72, 0x3d, 0x6c, 0xc9, 0x9c, 0x3d, 0x4e, 0x18, 0xc3, 0xbd, 
  0xbf, 0x92, 0x0b, 0xbe, 0x52, 0xdd, 0xff, 0xff, 0x04, 0x00, 0x00, 0x00, 
  0x00, 0x20, 0x00, 0x00, 0x9e, 0xf4, 0x02, 0xbc, 0xc1, 0x93, 0x34, 0x3e, 
  0x36, 0xc7, 0x2d, 0x3d, 0xe0, 0xf5, 0x74, 0xbe, 0x85, 0xd1, 0x72, 0xbe, 
  0xa6, 0x76, 0x96, 0x3b, 0xcb, 0x51, 0x09, 0x3c, 0xab, 0x82, 0x3e, 0x3d, 
  0xc5, 0x66, 0x45, 0xbe, 0x51, 0xea, 0xf1, 0xbd, 0xc5, 0x36, 0x6a, 0xbe, 
  0x44, 0x7b, 0x24, 0x3d, 0xe6, 0x9d, 0x00, 0xbe, 0x1b, 0x84, 0x7d, 0x3e, 
  0x7a, 0xeb, 0x81, 0xbe, 0x4b, 0x12, 0xf8, 0xbd, 0x93, 0x70, 0xac, 0x3d, 
  0x12, 0x82, 0x8f, 0x3d, 0x6e, 0xd4, 0x0b, 0x3d, 0x2d, 0x67, 0xce, 0xbd, 
  0x8c, 0x61, 0x36, 0x3c, 0x11, 0x80, 0xf4, 0x3c, 0xc6, 0xc2, 0x76, 0x3d, 
  0x7f, 0x23, 0x2e, 0x3b, 0xde, 0xed, 0x6c, 0x3d, 0xb9, 0x4d, 0x3e, 0x3e, 
  0xf6, 0x8e, 0xcc, 0x3d, 0xc7, 0x9a, 0x79, 0xbe, 0x09, 0x60, 0x4f, 0x3e, 
  0x40, 0x9e, 0xd8, 0x3d, 0x4f, 0x10, 0x78, 0xbe, 0x3c, 0x0e, 0xf6, 0x3d, 
  0x09, 0xe7, 0x5e, 0x3e, 0x0a, 0xe6, 0xaf, 0x3d, 0xe8, 0x44, 0x1b, 0x3e, 
  0x66, 0xc8, 0x2a, 0xbc, 0x6d, 0x74, 0x96, 0xbd, 0x26, 0x27, 0x07, 0x3e, 
  0x3e, 0x27, 0x51, 0x3e, 0x00, 0x36, 0x95, 0xbd, 0x4b, 0x79, 0x6d, 0x3d, 
  0xe3, 0xa4, 0x11, 0xbe, 0x8d, 0x11, 0x02, 0x3e, 0x75, 0x51, 0x41, 0x3e, 
  0xaa, 0x61, 0xaf, 0xbd, 0x63, 0x23, 0x94, 0x3e, 0xaa, 0xc6, 0x61, 0x3d, 
  0x72, 0x11, 0x46, 0x3d, 0x2c, 0xc1, 0x1f, 0xbe, 0xe4, 0x86, 0x88, 0xbd, 
  0xc4, 0x5a, 0x76, 0x3e, 0xd7, 0xa7, 0x05, 0xbe, 0xc7, 0x54, 0xae, 0xbd, 
  0xe7, 0x22, 0x29, 0xbe, 0x25, 0xbd, 0xbb, 0x3a, 0x07, 0xcb, 0x7a, 0x3e, 
  0xf2, 0xbb, 0xc1, 0x3d, 0xdd, 0x98, 0x3d, 0x3d, 0xda, 0x72, 0x2d, 0xbe, 
  0x2b, 0xa9, 0x1a, 0x3e, 0xd9, 0x4a, 0xb8, 0xbd, 0xf5, 0x44, 0x4d, 0xbd, 
  0x2c, 0x7c, 0x91, 0x3d, 0x07, 0x73, 0xaa, 0x3d, 0x8c, 0x71, 0x2d, 0x3e, 
  0xa6, 0xb2, 0x54, 0xbe, 0x0b, 0xfb, 0x1c, 0x3e, 0xae, 0xbf, 0x02, 0xbe, 
  0xe5, 0xe0, 0xc9, 0x3d, 0x32, 0x1e, 0xce, 0xbd, 0x6e, 0x78, 0x64, 0x3c, 
  0x43, 0xe5, 0x7a, 0xbe, 0x80, 0x88, 0xcf, 0xbd, 0xb1, 0x45, 0x41, 0x3d, 
  0x57, 0xeb, 0x39, 0x3e, 0x27, 0x2d, 0x8f, 0xbd, 0x57, 0xb2, 0x8a, 0xbe, 
  0x45, 0x8d, 0xe2, 0xbd, 0x7d, 0xfe, 0x55, 0x3e, 0x79, 0x30, 0xe9, 0xbd, 
  0x2c, 0x74, 0x29, 0x3e, 0xa1, 0xaf, 0x42, 0xbe, 0x87, 0xbc, 0x16, 0xbe, 
  0xa3, 0x43, 0xf8, 0x3d, 0xbc, 0x6f, 0xd1, 0x3d, 0xb0, 0xdd, 0x3a, 0x3e, 
  0x7f, 0x3d, 0x95, 0xbd, 0xec, 0x26, 0x8b, 0x3c, 0xc6, 0xd0, 0xe3, 0x3c, 
  0xa7, 0x9e, 0x0b, 0x3e, 0x22, 0x1c, 0x02, 0xbe, 0xca, 0x24, 0x57, 0x3d, 
  0x6a, 0x2e, 0x22, 0x3e, 0xa2, 0x03, 0x3b, 0x3e, 0x1c, 0x29, 0x3f, 0xbe, 
  0xc4, 0xbb, 0xf6, 0xbc, 0xcf, 0x6c, 0x1a, 0xbe, 0xea, 0xf5, 0x0f, 0x3d, 
  0x45, 0xdd, 0x40, 0xbe, 0x49, 0x65, 0x44, 0x3e, 0x00, 0x20, 0xdb, 0x3d, 
  0xd3, 0xe7, 0x41, 0xbe, 0x00, 0xe6, 0x34, 0x3e, 0x18, 0x5c, 0x2b, 0x3d, 
  0xc6, 0xf7, 0x85, 0xbe, 0xd9, 0xb2, 0x11, 0x3d, 0xd5, 0x84, 0xbd, 0x3d, 
  0xd7, 0x6b, 0x44, 0xbc, 0x44, 0x68, 0x30, 0x3e, 0xdd, 0xee, 0x27, 0x3d, 
  0x59, 0x1b, 0xb6, 0xbd, 0xe9, 0x37, 0x2e, 0xbe, 0x1a, 0x51, 0xc5, 0xbd, 
  0xbf, 0x0c, 0x53, 0xbe, 0x25, 0xf2, 0xe4, 0xbd, 0xe6, 0x60, 0x80, 0xbe, 
  0x92, 0x02, 0x76, 0xbc, 0x72, 0xcc, 0x1d, 0x3e, 0x2f, 0x7b, 0x15, 0xbe, 
  0x07, 0x0e, 0x01, 0xbc, 0x5d, 0xe0, 0xb6, 0xbd, 0xda, 0xcd, 0x98, 0x3d, 
  0x22, 0x97, 0x72, 0xbe, 0x9b, 0xee, 0xe0, 0xbd, 0x20, 0xd7, 0x83, 0xbe, 
  0xa8, 0xbe, 0x33, 0x3e, 0x69, 0x73, 0x12, 0xbe, 0xe8, 0xc6, 0xe0, 0x3d, 
  0xba, 0x6e, 0x7a, 0xbe, 0xf5, 0xab, 0x30, 0x3d, 0xdb, 0x01, 0xc2, 0xbd, 
  0x05, 0x5a, 0x2c, 0xbd, 0xa0, 0x2d, 0x5c, 0xbe, 0x15, 0x18, 0x5e, 0xbe, 
  0xa8, 0x06, 0x72, 0xbe, 0x4f, 0xbd, 0x76, 0xbe, 0x53, 0x1f, 0x5f, 0x3e, 
  0x37, 0x26, 0x3f, 0xbb, 0x19, 0x7f, 0x16, 0x3d, 0xea, 0x40, 0x2d, 0x3e, 
  0x24, 0xc1, 0x61, 0xbc, 0xa9, 0xf7, 0x9d, 0x3d, 0x67, 0xd0, 0xc9, 0xbd, 
  0x7a, 0xd7, 0x8a, 0xbe, 0x15, 0x1b, 0x3e, 0xbe, 0xcc, 0x1b, 0x0b, 0xbe, 
  0xec, 0x6b, 0x35, 0xbe, 0x95, 0x8d, 0x83, 0xbe, 0x4e, 0xb7, 0x88, 0x3d, 
  0x7f, 0x70, 0x80, 0x3e, 0x04, 0x20, 0xe4, 0xbd, 0xaf, 0xdc, 0x35, 0x3e, 
  0x0d, 0xf0, 0x0f, 0x3e, 0x12, 0x54, 0xa4, 0xbc, 0x94, 0x9b, 0x52, 0x3e, 
  0x28, 0x20, 0x6d, 0xbd, 0x97, 0x31, 0xf3, 0xbd, 0x12, 0x30, 0xa9, 0x3d, 
  0x8c, 0x35, 0x1b, 0x3e, 0x7e, 0x72, 0x53, 0x3e, 0x98, 0xab, 0x1d, 0xbe, 
  0xab, 0x27, 0x1a, 0xbe, 0xc8, 0x12, 0x04, 0x3e, 0x4d, 0x72, 0xfa, 0xbd, 
  0x65, 0x3f, 0xd5, 0xbd, 0x0b, 0xa7, 0x6b, 0xbe, 0x93, 0x08, 0x68, 0xbe, 
  0x7c, 0x68, 0x60, 0xbd, 0x55, 0x38, 0x36, 0xbe, 0x21, 0x7e, 0x3b, 0x3e, 
  0x8a, 0x6d, 0x56, 0xbe, 0x74, 0xc7, 0xad, 0xbd, 0x47, 0x97, 0x49, 0x3a, 
  0xe6, 0xb8, 0x9f, 0xbd, 0x7d, 0x48, 0x2a, 0x3e, 0xa9, 0xf4, 0x90, 0xbe, 
  0x7b, 0x63, 0x49, 0xbe, 0xf1, 0x25, 0x1e, 0xbd, 0xad, 0xcb, 0x1d, 0x3e, 
  0xd8, 0xd1, 0x87, 0xbd, 0x97, 0x11, 0x6a, 0xbe, 0xdb, 0x74, 0x00, 0x3e, 
  0x08, 0x3a, 0x94, 0x3b, 0x7a, 0xb6, 0x20, 0xbe, 0xc6, 0x36, 0x74, 0x3e, 
  0x3e, 0x23, 0xd4, 0x3d, 0x31, 0xb4, 0x05, 0xbc, 0x05, 0xbd, 0x81, 0xbd, 
  0x09, 0x33, 0x37, 0x3e, 0x5e, 0x01, 0x85, 0xbd, 0x71, 0x39, 0x57, 0xbe, 
  0x6a, 0xb3, 0x60, 0xbe, 0xd3, 0x00, 0x89, 0xbc, 0xee, 0xac, 0x83, 0x3e, 
  0x41, 0x8e, 0x15, 0x3e, 0x57, 0x4b, 0xae, 0x3e, 0x89, 0x45, 0xdc, 0xbd, 
  0x2e, 0x3a, 0xac, 0x3e, 0x04, 0x52, 0x10, 0x3c, 0xf8, 0x70, 0x21, 0x3e, 
  0x04, 0x51, 0x13, 0x3e, 0xa7, 0x2e, 0x65, 0x3e, 0x5d, 0x6a, 0x32, 0x3c, 
  0xd9, 0xd2, 0x0f, 0x3d, 0x16, 0x5b, 0xe3, 0x3d, 0xa2, 0x36, 0x55, 0x3e, 
  0x68, 0xb7, 0xc0, 0x3d, 0x2d, 0x4a, 0xbb, 0x3e, 0xd6, 0x32, 0x14, 0xbe, 
  0xd7, 0x5d, 0x2d, 0x3d, 0xd4, 0x3a, 0x73, 0x3b, 0xcb, 0x92, 0xcb, 0xbc, 
  0x72, 0xf6, 0xd5, 0x3c, 0xcd, 0xaa, 0xb5, 0x3d, 0x3a, 0xff, 0x44, 0x3d, 
  0x3a, 0x33, 0x85, 0x3e, 0xe5, 0x90, 0x29, 0x3d, 0xb8, 0xfc, 0x6c, 0x3d, 
  0xba, 0x0b, 0x65, 0xbd, 0xd6, 0xa7, 0xcd, 0x3d, 0x6f, 0x3c, 0xb6, 0xbd, 
  0x98, 0x82, 0xaa, 0x3e, 0x5a, 0x94, 0x81, 0x3d, 0xbe, 0x67, 0x12, 0x3e, 
  0x0b, 0xd6, 0x88, 0x3d, 0x14, 0x15, 0xdd, 0xbd, 0xcf, 0xa7, 0xeb, 0x3d, 
  0xae, 0xfc, 0x23, 0xbd, 0x33, 0x77, 0x4d, 0x3e, 0x9b, 0xa3, 0x83, 0x3e, 
  0xa4, 0xe7, 0xab, 0xbd, 0xc2, 0x08, 0x59, 0x3e, 0x37, 0xc0, 0x93, 0x3d, 
  0xea, 0xc0, 0xdd, 0xbd, 0x0e, 0x1e, 0x42, 0xbd, 0xb6, 0x3f, 0xca, 0x3d, 
  0x7f, 0x87, 0x8c, 0x3e, 0xe4, 0x8d, 0x3e, 0x3e, 0x5d, 0xe4, 0xfa, 0x3d, 
  0x45, 0xfa, 0xaa, 0x3d, 0x3f, 0x42, 0xad, 0x3e, 0x74, 0xa1, 0x2b, 0xbe, 
  0x42, 0xf1, 0x0c, 0x3e, 0x91, 0x9f, 0x89, 0x3e, 0xd6, 0x75, 0x40, 0xbc, 
  0xc0, 0x4d, 0x8e, 0x3e, 0x34, 0xab, 0x45, 0xbe, 0xeb, 0x09, 0x5f, 0x3d, 
  0xb7, 0x4b, 0x9e, 0xbd, 0xd5, 0xb3, 0x09, 0x3d, 0x06, 0xc6, 0x49, 0xbe, 
  0xae, 0x1e, 0xce, 0x3e, 0x1f, 0xd6, 0x8c, 0x3e, 0x15, 0x60, 0xcc, 0x3d, 
  0x3f, 0x62, 0xca, 0x3d, 0x56, 0xea, 0x8b, 0x3e, 0xe3, 0x6f, 0x73, 0xbe, 
  0x50, 0x44, 0x26, 0xbe, 0x45, 0x45, 0x42, 0xbe, 0x66, 0x43, 0x16, 0x3e, 
  0x5f, 0xa4, 0x46, 0xbc, 0xa7, 0xff, 0x19, 0xbd, 0xef, 0x1a, 0x6d, 0xbc, 
  0x13, 0x0e, 0x66, 0x3e, 0x81, 0xfb, 0x01, 0x3e, 0x10, 0x26, 0x4e, 0x3e, 
  0x84, 0x23, 0x91, 0xbd, 0x86, 0xa1, 0x3b, 0x3e, 0xdf, 0xf6, 0x87, 0x3d, 
  0xab, 0x40, 0xa9, 0x3d, 0x7d, 0x24, 0x42, 0xbe, 0x73, 0xce, 0x1d, 0x3e, 
  0x73, 0x5d, 0xa3, 0xbd, 0xd9, 0x4f, 0x78, 0xbe, 0xa5, 0x84, 0x3c, 0xbd, 
  0xa7, 0x21, 0x2c, 0x3e, 0x40, 0x0c, 0xb3, 0xbd, 0xb3, 0x5d, 0x7e, 0x3d, 
  0xe6, 0x99, 0xdd, 0x3d, 0x48, 0xbf, 0x4d, 0x3e, 0x6a, 0xe9, 0x1a, 0xbe, 
  0x92, 0xbb, 0x81, 0xbe, 0x29, 0xdb, 0x07, 0x3e, 0x72, 0xbd, 0x67, 0x3e, 
  0x93, 0x4c, 0x92, 0x3d, 0x9b, 0x7d, 0x08, 0xbe, 0x08, 0x20, 0xda, 0x3d, 
  0x8f, 0xfb, 0x98, 0x3d, 0x31, 0x21, 0x1d, 0x3e, 0xe4, 0x78, 0x1a, 0x3c, 
  0x66, 0x26, 0x35, 0xbe, 0xe8, 0x98, 0xfd, 0x3d, 0x86, 0xf9, 0x30, 0xbe, 
  0xd7, 0xf5, 0xec, 0x3c, 0x4e, 0x8c, 0x3e, 0x3e, 0x9e, 0x7c, 0x97, 0xbc, 
  0xbc, 0xa6, 0xec, 0xbd, 0x20, 0xbc, 0x72, 0xbe, 0x8b, 0x79, 0x48, 0xbc, 
  0x18, 0x4d, 0x74, 0xbe, 0xd5, 0xf4, 0x0a, 0xbe, 0x07, 0x9a, 0x6f, 0xbe, 
  0x90, 0x0c, 0x25, 0xbe, 0xaa, 0xc7, 0x17, 0xbe, 0xdd, 0x3a, 0x36, 0x3e, 
  0x7e, 0x50, 0x2b, 0xbd, 0x3a, 0x44, 0xe5, 0x3d, 0xc7, 0x85, 0x3a, 0x3e, 
  0x67, 0x7a, 0x72, 0x3d, 0xd9, 0xb4, 0x76, 0x3e, 0x70, 0xfb, 0x55, 0xbd, 
  0xa5, 0x16, 0x09, 0x3e, 0xe4, 0xc5, 0x81, 0x3e, 0x1f, 0x3f, 0x8c, 0x3d, 
  0xbe, 0x17, 0x34, 0x3e, 0x7b, 0xd0, 0xe4, 0x3c, 0x29, 0xb1, 0x08, 0x3e, 
  0x65, 0x15, 0x7c, 0xbe, 0x47, 0x22, 0x37, 0xbe, 0x90, 0xfd, 0x13, 0xbe, 
  0xd8, 0x0f, 0xb2, 0xbd, 0xcf, 0x0b, 0x27, 0xbe, 0x9e, 0x7c, 0x45, 0xbe, 
  0x6e, 0xbf, 0xf0, 0x3d, 0xee, 0x2e, 0xf8, 0xbc, 0x93, 0x66, 0x7e, 0xbd, 
  0x98, 0x3d, 0x13, 0x3e, 0x3d, 0x21, 0xfd, 0x3d, 0x3b, 0x03, 0x8c, 0x3d, 
  0x42, 0x51, 0x13, 0xbd, 0x04, 0x51, 0x64, 0xbe, 0x69, 0xd0, 0xda, 0xbc, 
  0x4b, 0x3f, 0x50, 0xbd, 0x37, 0xe7, 0x11, 0x3e, 0xf1, 0xda, 0xfe, 0x3d, 
  0x3f, 0xb6, 0x18, 0xbd, 0x62, 0xcd, 0xad, 0xba, 0xad, 0xda, 0x15, 0xbe, 
  0x83, 0x43, 0x18, 0x3e, 0xf7, 0xff, 0x4f, 0x3e, 0x96, 0x22, 0x74, 0xbd, 
  0xa1, 0x34, 0xa5, 0xbd, 0xa4, 0xad, 0x6d, 0x3d, 0x1f, 0x90, 0x02, 0xbe, 
  0x88, 0x34, 0x8b, 0xbe, 0x9e, 0x79, 0xb4, 0xbd, 0x22, 0x30, 0x4b, 0x3d, 
  0x45, 0x81, 0x26, 0x3e, 0x06, 0xbf, 0x23, 0x3c, 0x8f, 0x7a, 0x23, 0xbc, 
  0xd3, 0x1c, 0xfd, 0x3d, 0x4c, 0x35, 0x7e, 0xbe, 0xaf, 0x0f, 0x32, 0xbe, 
  0x57, 0xec, 0xd5, 0x3d, 0xe2, 0x0f, 0x44, 0x3e, 0x3f, 0x7a, 0x3e, 0x3d, 
  0x5b, 0xb0, 0xc1, 0xbd, 0x9c, 0xe8, 0xa8, 0xbd, 0xbb, 0x38, 0x57, 0x3e, 
  0x50, 0x9d, 0x19, 0x3e, 0x94, 0x32, 0x50, 0xbd, 0x95, 0xd4, 0x60, 0x3e, 
  0x88, 0xde, 0x10, 0x3e, 0xe7, 0xe6, 0x21, 0x3e, 0x01, 0x5c, 0xab, 0x3d, 
  0x40, 0x6f, 0x67, 0x3e, 0x3c, 0xd1, 0x00, 0x3e, 0xf4, 0xdb, 0x30, 0xbe, 
  0x1b, 0xb5, 0x6e, 0xbe, 0x17, 0x45, 0x8f, 0xbe, 0x2c, 0x50, 0x1d, 0x3e, 
  0xda, 0x93, 0xb0, 0x3c, 0xf4, 0x27, 0x90, 0xbd, 0x2f, 0x0f, 0xc8, 0x3c, 
  0xb7, 0xf8, 0x39, 0x3e, 0x2c, 0x1d, 0xb1, 0x3c, 0xb8, 0xa4, 0x35, 0x3e, 
  0x69, 0xce, 0x23, 0x3d, 0xa8, 0xfd, 0x5d, 0xbe, 0x15, 0x7c, 0x26, 0x3e, 
  0x72, 0x21, 0x41, 0xbe, 0xd0, 0x38, 0x67, 0xbe, 0x2d, 0x4a, 0x2a, 0xbe, 
  0x63, 0xf8, 0x6c, 0xbe, 0xfa, 0x68, 0xaa, 0xbc, 0x01, 0xd9, 0x64, 0xbc, 
  0xec, 0xa3, 0x63, 0x3e, 0x0d, 0xcb, 0x6c, 0x3d, 0xc7, 0x57, 0x48, 0xbd, 
  0x9d, 0x32, 0x46, 0xbe, 0xda, 0x14, 0xe2, 0x3c, 0xef, 0xf1, 0x2c, 0xbe, 
  0xe2, 0xf2, 0xdf, 0xbc, 0x2f, 0x53, 0x22, 0x3e, 0x75, 0xd1, 0x1b, 0xbe, 
  0xaa, 0x5c, 0x81, 0xbe, 0xc4, 0x7a, 0x84, 0xbe, 0x57, 0xd7, 0x01, 0x3d, 
  0x77, 0x33, 0x65, 0xbe, 0xde, 0xb9, 0x6c, 0x3d, 0x75, 0x80, 0xe1, 0x3c, 
  0x81, 0x1e, 0x0e, 0x3e, 0xaf, 0x2a, 0x7d, 0xbe, 0x2f, 0xbc, 0xd0, 0xbd, 
  0x67, 0x73, 0x18, 0xbe, 0x3c, 0xdc, 0xcf, 0x3b, 0xdb, 0x4b, 0x8c, 0x3d, 
  0x66, 0xa1, 0x0c, 0x3a, 0x1e, 0x0a, 0x02, 0x3d, 0xd4, 0xff, 0x7f, 0xbe, 
  0xb0, 0xb9, 0x9a, 0xbd, 0x67, 0xcf, 0x06, 0xbe, 0x3e, 0x02, 0xca, 0xbd, 
  0xb6, 0x7a, 0x3b, 0xbd, 0x31, 0xf0, 0xd5, 0xbd, 0x6d, 0x1f, 0x31, 0xbe, 
  0xcc, 0x95, 0x25, 0x3e, 0x17, 0xb7, 0x83, 0x3d, 0x7e, 0x56, 0xfe, 0xbc, 
  0xaf, 0xb7, 0x4d, 0x3e, 0x13, 0x12, 0xdc, 0x3c, 0xf2, 0x7d, 0x8a, 0xbc, 
  0xed, 0xc3, 0xef, 0x3b, 0xa6, 0x89, 0x1e, 0xbe, 0x4d, 0x06, 0x7d, 0xbd, 
  0x35, 0x96, 0x35, 0xbe, 0x47, 0xdd, 0x52, 0xbe, 0x9e, 0x5c, 0x52, 0x3e, 
  0xd1, 0x84, 0x69, 0xbe, 0xce, 0x23, 0x7d, 0xbe, 0x93, 0x11, 0x51, 0xbe, 
  0xa0, 0xa4, 0x40, 0xbe, 0xe6, 0xa1, 0x81, 0xbd, 0xae, 0x71, 0xbf, 0xbd, 
  0xf9, 0x56, 0x1b, 0xbe, 0xe5, 0x10, 0x0e, 0x3c, 0x3c, 0x52, 0x9e, 0x3c, 
  0x1d, 0x1f, 0x98, 0x3d, 0xfd, 0x3c, 0x81, 0xbc, 0xdd, 0x5d, 0x39, 0x3d, 
  0x8e, 0x04, 0xdc, 0xbc, 0x27, 0x57, 0xd3, 0x3d, 0xc1, 0x9e, 0x41, 0x3e, 
  0xae, 0x6d, 0x77, 0xbd, 0xa2, 0x79, 0x19, 0xbe, 0x44, 0x16, 0xc0, 0x3c, 
  0x9e, 0xae, 0x84, 0xbd, 0xe2, 0x1b, 0x2f, 0xbc, 0x18, 0xa8, 0x30, 0x3d, 
  0x65, 0x83, 0xa6, 0x3d, 0xb9, 0xc1, 0x5b, 0x3e, 0x12, 0x24, 0xc5, 0x3d, 
  0x0c, 0xce, 0x63, 0x3e, 0x21, 0x93, 0x00, 0x3d, 0xee, 0x9e, 0x54, 0x3e, 
  0x8d, 0x20, 0x4e, 0x3d, 0xc0, 0xa4, 0x1d, 0xbe, 0x34, 0x4a, 0xae, 0xbd, 
  0xe8, 0x6b, 0xea, 0xbd, 0x26, 0xe0, 0xcb, 0xbc, 0x68, 0xde, 0x15, 0xbe, 
  0xe2, 0x76, 0xa7, 0x3d, 0x9f, 0x3e, 0x86, 0x3d, 0xf7, 0xf9, 0x83, 0x3e, 
  0xc9, 0xe6, 0x76, 0x3e, 0x94, 0xbc, 0x14, 0x3d, 0x54, 0x84, 0x61, 0xbe, 
  0x98, 0x0e, 0x2b, 0xbe, 0x4c, 0x2a, 0x7e, 0x3d, 0x6c, 0x73, 0x59, 0xbd, 
  0x41, 0x7d, 0xf6, 0x3d, 0x47, 0x49, 0x62, 0x3e, 0x7a, 0x3f, 0xcc, 0xbd, 
  0x4c, 0x98, 0x63, 0xbd, 0xba, 0x9f, 0x65, 0x3e, 0xb0, 0xdf, 0xef, 0xbd, 
  0x18, 0x76, 0x67, 0x3e, 0x78, 0x58, 0x27, 0xbc, 0xf1, 0x11, 0x06, 0xbd, 
  0xd2, 0xda, 0xfc, 0xbd, 0xd6, 0xa3, 0x30, 0x3e, 0x4a, 0x10, 0x1a, 0xbe, 
  0xbe, 0xae, 0xde, 0x3c, 0xc0, 0x35, 0x4e, 0xbd, 0xe1, 0x3a, 0xb6, 0xbc, 
  0xcb, 0x0a, 0x04, 0x3e, 0xc8, 0x2a, 0x0c, 0x3e, 0x96, 0x63, 0x2b, 0xbe, 
  0xd3, 0xb3, 0x28, 0x3e, 0x9b, 0x3b, 0x41, 0xbc, 0x32, 0x3d, 0x5b, 0x3e, 
  0xc1, 0xea, 0xf1, 0x3d, 0x15, 0x71, 0x1b, 0x3e, 0x27, 0x7f, 0x9f, 0x3d, 
  0xb8, 0x72, 0x31, 0x3e, 0x83, 0x1b, 0x4b, 0x3d, 0x8b, 0x1f, 0x4e, 0x3d, 
  0xd6, 0xdd, 0x74, 0xbc, 0x9d, 0xd2, 0x5c, 0x3e, 0xcd, 0x61, 0x25, 0xbd, 
  0xec, 0x24, 0x6b, 0x3d, 0x18, 0x20, 0x8b, 0x3d, 0xfe, 0x04, 0xda, 0x3d, 
  0x51, 0x36, 0xfb, 0xbc, 0xb9, 0x76, 0x13, 0xbe, 0x66, 0xa0, 0xe9, 0xbd, 
  0x3a, 0x0c, 0x00, 0xbe, 0xd3, 0xec, 0xa1, 0xbd, 0xc4, 0xc7, 0x8a, 0x3c, 
  0x49, 0xbb, 0xb6, 0x3d, 0x98, 0x75, 0x34, 0x3e, 0x36, 0x52, 0xcb, 0x3c, 
  0x32, 0xdb, 0x3d, 0x3e, 0x09, 0xdd, 0x10, 0xbc, 0xa1, 0xe3, 0x21, 0xbe, 
  0xb4, 0xa8, 0x72, 0xbd, 0x78, 0xd8, 0x98, 0xbb, 0xee, 0xe3, 0x0e, 0x3d, 
  0x4a, 0xb4, 0xfd, 0xbd, 0x88, 0xac, 0xfe, 0xbd, 0x0b, 0x28, 0x12, 0x3e, 
  0x5f, 0x5f, 0x3f, 0xbe, 0x29, 0x49, 0x28, 0x3e, 0xc9, 0x8a, 0x7d, 0xbe, 
  0xcf, 0xf3, 0xe5, 0x3d, 0x08, 0xfc, 0xb6, 0xbb, 0x29, 0x7d, 0x4a, 0xbd, 
  0xea, 0x81, 0x73, 0xbe, 0x70, 0x9b, 0x66, 0x3d, 0x6c, 0xe3, 0x4b, 0x3e, 
  0x90, 0x4b, 0x55, 0x3e, 0x5b, 0xaa, 0x87, 0xbe, 0xaa, 0x41, 0x34, 0x3e, 
  0xc1, 0xbe, 0x00, 0x3d, 0x40, 0x85, 0x0a, 0xbe, 0x38, 0x2c, 0x91, 0xbd, 
  0x6c, 0x63, 0xac, 0x3b, 0xe0, 0x09, 0xca, 0x3c, 0xc5, 0xfa, 0x60, 0xbe, 
  0xd0, 0xe2, 0x2c, 0x3b, 0x64, 0x5d, 0x66, 0xbe, 0x6e, 0x72, 0x1d, 0xbd, 
  0x80, 0x44, 0x44, 0xbe, 0xba, 0xfd, 0x27, 0x3e, 0x02, 0xcb, 0x76, 0xbe, 
  0x7b, 0xb2, 0x16, 0x3e, 0x24, 0xc7, 0x8f, 0x3c, 0xad, 0xac, 0xcf, 0xbd, 
  0xc6, 0x9b, 0x98, 0xbc, 0x37, 0x9c, 0x2d, 0x3e, 0x4c, 0xec, 0x59, 0xbc, 
  0xca, 0xed, 0x8c, 0xbd, 0xba, 0x39, 0x39, 0xbe, 0xd2, 0x27, 0xe4, 0x3d, 
  0xd7, 0xa9, 0x27, 0x3d, 0x46, 0x4c, 0xdc, 0xbd, 0xe5, 0xb6, 0xa8, 0xbc, 
  0xea, 0x53, 0xb3, 0xbd, 0x83, 0xd9, 0xc2, 0x3c, 0xc3, 0x6a, 0xcb, 0xbd, 
  0x97, 0x2e, 0x03, 0xbe, 0x4b, 0xeb, 0x2b, 0xbe, 0x66, 0xba, 0xea, 0xbd, 
  0xda, 0x5a, 0x59, 0xbe, 0x29, 0xe0, 0x16, 0x3e, 0x5c, 0x4f, 0xcf, 0xbd, 
  0x7b, 0xdd, 0x34, 0xbe, 0x4c, 0x8b, 0x11, 0xbe, 0x59, 0xcf, 0xd7, 0x3d, 
  0x48, 0x04, 0xd1, 0x3d, 0xcc, 0x76, 0xd4, 0xbd, 0x87, 0x35, 0xf0, 0x3c, 
  0x80, 0xff, 0x79, 0xbe, 0xe5, 0x12, 0x0d, 0xbe, 0xb6, 0xc5, 0x32, 0xbe, 
  0xb3, 0xec, 0x23, 0x3e, 0x92, 0x5d, 0xdb, 0xbd, 0x7c, 0x11, 0xc5, 0xbb, 
  0xad, 0x95, 0x11, 0x3e, 0x66, 0x56, 0x71, 0x3e, 0x80, 0x1a, 0x41, 0x3c, 
  0xcf, 0xb9, 0x85, 0x3d, 0xe7, 0x66, 0x0d, 0x3e, 0x70, 0xba, 0x74, 0x3d, 
  0xad, 0x65, 0x22, 0xbe, 0xee, 0xb4, 0x0d, 0xbe, 0x4f, 0xa0, 0x3b, 0xbe, 
  0x3e, 0xa1, 0x74, 0x3d, 0x41, 0x3a, 0x54, 0x3d, 0x40, 0x88, 0xe3, 0x3d, 
  0x35, 0x75, 0xc6, 0x3c, 0x47, 0x9a, 0x9a, 0x3c, 0xff, 0x65, 0xe6, 0x3b, 
  0xf6, 0x41, 0x92, 0xbd, 0xb0, 0x1b, 0x58, 0x3e, 0x76, 0xef, 0x3d, 0xbe, 
  0xaa, 0x5d, 0x8e, 0x3e, 0xf6, 0x38, 0x52, 0x3e, 0xd4, 0xcc, 0x27, 0x3e, 
  0x5c, 0x40, 0xbb, 0x3c, 0x93, 0xc7, 0x22, 0x3e, 0xc2, 0x5b, 0x45, 0xbe, 
  0x3f, 0x59, 0x49, 0x3e, 0x5d, 0x0d, 0x35, 0x3d, 0x07, 0x5b, 0xac, 0xbd, 
  0x27, 0x1a, 0x4d, 0x3e, 0xaa, 0x38, 0x65, 0xbc, 0xe7, 0x66, 0x14, 0x3e, 
  0x95, 0xf7, 0x68, 0x3e, 0xe9, 0x00, 0xfb, 0x3d, 0x19, 0xe1, 0x37, 0xbe, 
  0x2f, 0x6d, 0x3c, 0x3e, 0x33, 0x74, 0x43, 0x3e, 0x92, 0x67, 0xdd, 0xbd, 
  0x74, 0x86, 0xaf, 0xbd, 0x7d, 0x23, 0xff, 0x3d, 0x78, 0x75, 0xac, 0x3e, 
  0x6e, 0xcb, 0x0b, 0xbc, 0x0b, 0x2b, 0xfd, 0x3d, 0x87, 0x58, 0x19, 0x3e, 
  0xb4, 0x4e, 0x64, 0x3e, 0x5a, 0x6f, 0xf0, 0xbd, 0xfe, 0x1f, 0x33, 0x3d, 
  0x2b, 0xf7, 0x04, 0xbd, 0x65, 0x5d, 0xe9, 0xba, 0x15, 0xc6, 0x0f, 0xbe, 
  0x28, 0x21, 0xee, 0x3d, 0xa3, 0xe3, 0x38, 0x3e, 0x79, 0xdb, 0xac, 0xbd, 
  0x1a, 0x11, 0xe2, 0x3d, 0x78, 0xf1, 0x6c, 0xbd, 0x9c, 0x60, 0x46, 0x3e, 
  0x49, 0x75, 0x48, 0x3e, 0xf4, 0x3d, 0x3c, 0x3e, 0xd6, 0x3a, 0xba, 0xbd, 
  0x5c, 0x4f, 0x1a, 0x3d, 0x12, 0x0b, 0x35, 0xbd, 0x4c, 0x3d, 0xd0, 0x3d, 
  0xcf, 0xfb, 0x9f, 0x3e, 0x0a, 0x27, 0x44, 0xbc, 0x90, 0xcc, 0x1b, 0x3e, 
  0x68, 0xa1, 0xbe, 0xbc, 0xd5, 0xf9, 0x6e, 0x3e, 0x68, 0xc5, 0x1e, 0xbe, 
  0xed, 0x40, 0x93, 0x3d, 0xd7, 0xcb, 0xd9, 0xbd, 0xe5, 0x0f, 0xa6, 0x3d, 
  0x9b, 0xd2, 0xc3, 0xbd, 0x74, 0x8e, 0x69, 0x3e, 0x83, 0x07, 0x70, 0xbd, 
  0x91, 0x43, 0xd8, 0xbd, 0x6e, 0x60, 0xd2, 0x3c, 0x56, 0x50, 0x30, 0x3e, 
  0xd5, 0x4d, 0x29, 0x3e, 0x14, 0xb9, 0x13, 0xbe, 0xd8, 0x76, 0xdd, 0x3d, 
  0xbe, 0x73, 0x4e, 0x3e, 0x7a, 0xdf, 0x05, 0x3d, 0x3c, 0x35, 0x41, 0xbd, 
  0x0e, 0x6b, 0x5a, 0xbe, 0x1c, 0x11, 0xb6, 0x3b, 0x15, 0x94, 0x07, 0xbe, 
  0x4a, 0x15, 0xe8, 0x3d, 0x79, 0xc5, 0x00, 0x3e, 0xec, 0x15, 0x00, 0x3d, 
  0x12, 0x36, 0xfe, 0x3d, 0xc8, 0x35, 0x31, 0xbe, 0xf3, 0xcd, 0x9e, 0x3e, 
  0x27, 0xb8, 0x6b, 0x3e, 0xbe, 0xb3, 0x05, 0x3e, 0x64, 0x7a, 0xe4, 0x3d, 
  0xdb, 0xd9, 0xb2, 0xbd, 0xf2, 0x99, 0x89, 0x3e, 0x24, 0x35, 0x2e, 0xbe, 
  0x05, 0x79, 0x50, 0xbc, 0x31, 0x7d, 0xfb, 0xbd, 0x96, 0x08, 0x5c, 0xbe, 
  0x8d, 0x0c, 0xed, 0xbc, 0x1f, 0x51, 0xa6, 0x3d, 0xe5, 0xca, 0xd0, 0x3d, 
  0xae, 0x78, 0x61, 0x3e, 0x22, 0xca, 0x8a, 0x3c, 0x72, 0xab, 0xc5, 0xbc, 
  0x79, 0xe0, 0xd5, 0x3c, 0x38, 0x92, 0x92, 0x3d, 0x54, 0x00, 0xdb, 0xbd, 
  0x8c, 0xbb, 0xa4, 0x3c, 0x8c, 0xfa, 0x5d, 0xbe, 0x20, 0x06, 0x2d, 0xbe, 
  0x13, 0x38, 0x8d, 0x3e, 0x40, 0xa6, 0x23, 0x3e, 0xd5, 0x8b, 0xfc, 0x3d, 
  0xab, 0xe4, 0xe1, 0x3d, 0x90, 0x73, 0xd1, 0x3d, 0xa3, 0x21, 0x3f, 0x3e, 
  0x79, 0xc4, 0x95, 0x3d, 0x26, 0x5b, 0x6f, 0x3e, 0x0a, 0x68, 0x5b, 0xbc, 
  0x22, 0x73, 0x87, 0xbd, 0xd3, 0x4a, 0xaf, 0xbd, 0xa5, 0x94, 0x00, 0xbe, 
  0x37, 0x3d, 0x51, 0x3d, 0x09, 0x09, 0x31, 0x3e, 0xe8, 0x25, 0xeb, 0x3d, 
  0x0c, 0x34, 0xd4, 0x3d, 0x42, 0x8c, 0x63, 0xbe, 0x03, 0x65, 0x31, 0x3e, 
  0x0e, 0x95, 0x15, 0x3e, 0x92, 0x9a, 0x3d, 0x3c, 0x34, 0x08, 0xf5, 0xbd, 
  0xec, 0x39, 0x82, 0x3e, 0x77, 0x9d, 0xcd, 0xbd, 0xab, 0x12, 0xab, 0x3d, 
  0x55, 0xbf, 0x35, 0x3d, 0x0f, 0xc9, 0x04, 0xbe, 0xe5, 0x38, 0x85, 0xba, 
  0xca, 0xee, 0xf3, 0x3d, 0xf8, 0xdd, 0x24, 0x3e, 0x6e, 0xef, 0x95, 0x3c, 
  0x66, 0xe8, 0xe2, 0x3d, 0x2e, 0x46, 0x29, 0xbd, 0x53, 0xf9, 0x26, 0xbd, 
  0xe7, 0x6f, 0x70, 0x3d, 0xfc, 0xc1, 0xd9, 0xbc, 0xfc, 0xa7, 0x7c, 0x3e, 
  0xd3, 0x12, 0xf0, 0xbc, 0xaf, 0xaa, 0xbe, 0xbd, 0x3a, 0x98, 0x41, 0xbd, 
  0x1a, 0x0b, 0x1c, 0x3e, 0x23, 0xeb, 0x7f, 0xbe, 0x1c, 0xb9, 0x3d, 0x3e, 
  0xde, 0x13, 0xb7, 0xbc, 0x32, 0x3d, 0x86, 0xbd, 0xd0, 0x2b, 0x60, 0x3d, 
  0xe1, 0x6d, 0x94, 0x3d, 0xa1, 0xe1, 0x53, 0x3e, 0x27, 0x17, 0x0a, 0x3e, 
  0xcf, 0x2f, 0x6b, 0xbd, 0xc3, 0x15, 0x0a, 0x3e, 0x0d, 0x45, 0xcb, 0x3d, 
  0x36, 0xff, 0x4f, 0xbe, 0xa7, 0x9a, 0x0e, 0x3e, 0xb5, 0xe2, 0x2f, 0xbc, 
  0xee, 0xf8, 0xb7, 0xbd, 0xdc, 0xf3, 0x02, 0x3d, 0x1a, 0xbf, 0x1e, 0xbe, 
  0xbb, 0x9f, 0x86, 0x3e, 0xa1, 0x73, 0xe8, 0xbd, 0x79, 0xd7, 0xa9, 0xbd, 
  0x46, 0xc5, 0xe0, 0x3d, 0xa7, 0xf4, 0x8b, 0x3b, 0xcb, 0xd6, 0xf1, 0xbd, 
  0x32, 0x37, 0x2e, 0xbe, 0xc7, 0x34, 0x78, 0x3e, 0x08, 0x72, 0x64, 0x3e, 
  0xa5, 0xcd, 0xf9, 0x3d, 0x2c, 0x1c, 0x0f, 0x3d, 0xef, 0x3f, 0x93, 0x3d, 
  0x85, 0x70, 0xe0, 0xbd, 0x82, 0xf7, 0x22, 0x3e, 0x75, 0x5b, 0x1a, 0xbd, 
  0x4c, 0xa4, 0xc2, 0xbd, 0xea, 0x1d, 0x74, 0x3e, 0xcc, 0x8f, 0x84, 0x3e, 
  0xc7, 0x43, 0x6e, 0x3e, 0xf2, 0xe1, 0x8a, 0xbc, 0xbd, 0xb1, 0x84, 0x3d, 
  0x67, 0xa8, 0x22, 0xbd, 0x99, 0x67, 0x76, 0xbd, 0x0b, 0x62, 0xae, 0x3d, 
  0x3c, 0xb1, 0x6c, 0x3e, 0x47, 0x41, 0xa2, 0xbd, 0xd7, 0x3b, 0xa3, 0x3e, 
  0x7f, 0x8a, 0x41, 0xbe, 0x8a, 0x4f, 0x73, 0x3e, 0x11, 0x0f, 0x78, 0xbd, 
  0x4c, 0x58, 0x87, 0xbc, 0x86, 0x29, 0xc9, 0xbd, 0x5b, 0x35, 0x83, 0x3c, 
  0x94, 0xc8, 0x15, 0x3e, 0x2f, 0xf7, 0x0d, 0xbd, 0xd9, 0xe0, 0x89, 0x3e, 
  0x4e, 0x88, 0x4f, 0x3e, 0x2c, 0x79, 0x8a, 0x3e, 0x13, 0x2c, 0x03, 0x3e, 
  0xe6, 0x0d, 0x57, 0x3e, 0x12, 0x97, 0x8e, 0xbd, 0x20, 0x2d, 0x92, 0x3d, 
  0xb6, 0x51, 0x2c, 0xbe, 0x57, 0xa0, 0xca, 0x3d, 0xaf, 0xe6, 0x00, 0x3d, 
  0xec, 0x8c, 0x95, 0x3e, 0xa8, 0x85, 0xb7, 0xbd, 0x61, 0xe1, 0x8d, 0x3c, 
  0x31, 0x52, 0x8b, 0x3d, 0x33, 0x0f, 0x0c, 0xbd, 0x84, 0x06, 0x9e, 0xbd, 
  0x69, 0xd4, 0x82, 0xbd, 0xd8, 0x23, 0xe2, 0xbc, 0x92, 0x55, 0x03, 0x3e, 
  0x49, 0x2f, 0x45, 0x3e, 0xb9, 0x60, 0x96, 0x3e, 0x56, 0xa2, 0x18, 0xbc, 
  0x65, 0xbc, 0x80, 0x3e, 0xad, 0x51, 0x2f, 0x3d, 0x2f, 0x56, 0xcd, 0xbc, 
  0x0a, 0x8b, 0x2a, 0xbe, 0x01, 0xe7, 0x03, 0x3d, 0x7a, 0xa1, 0x58, 0x3d, 
  0x9c, 0x2a, 0x42, 0x3e, 0x31, 0x56, 0xcc, 0x3d, 0x12, 0x26, 0x6a, 0x3e, 
  0x35, 0x9a, 0xd7, 0xbd, 0x03, 0xda, 0xe4, 0xbd, 0xe2, 0x04, 0x62, 0x3e, 
  0xc7, 0x21, 0x04, 0xbe, 0xeb, 0xfb, 0x05, 0x3c, 0x4c, 0x2a, 0x5a, 0x3e, 
  0x7f, 0x9d, 0x3a, 0xbe, 0xab, 0x03, 0xf5, 0xbd, 0xf3, 0x2f, 0x49, 0xbd, 
  0x3d, 0xf9, 0x6b, 0x3e, 0xb5, 0x20, 0xbb, 0x3b, 0x92, 0x87, 0xc5, 0x3b, 
  0xb2, 0xa3, 0x50, 0x3e, 0x0d, 0x98, 0x30, 0x3e, 0x25, 0x0a, 0x53, 0x3e, 
  0x4b, 0x5d, 0x8b, 0xbd, 0x92, 0x4b, 0x90, 0xbd, 0xd7, 0x0b, 0x99, 0x3e, 
  0x46, 0x51, 0x51, 0x3d, 0x8e, 0x75, 0x63, 0x3e, 0x58, 0x48, 0x0d, 0x3d, 
  0xaf, 0x19, 0xf9, 0x3c, 0x5d, 0x5e, 0x32, 0xbd, 0x86, 0x2e, 0x2c, 0x3d, 
  0x64, 0x3a, 0xa0, 0xbd, 0x3f, 0x69, 0x5c, 0x3e, 0xa2, 0xdd, 0xc2, 0x3d, 
  0xb4, 0xbb, 0x16, 0xbd, 0xd0, 0x74, 0x54, 0x3d, 0x99, 0x42, 0x86, 0xbd, 
  0x39, 0x7b, 0x1a, 0x3e, 0x9e, 0x6e, 0xa4, 0xbd, 0xbe, 0x38, 0x40, 0x3e, 
  0x48, 0xdd, 0xb2, 0xbb, 0xbd, 0xd7, 0x5e, 0x3d, 0xfe, 0x45, 0x09, 0xbe, 
  0x63, 0xa2, 0xa8, 0xbd, 0x17, 0xcf, 0x6d, 0xbd, 0x47, 0x1c, 0x15, 0x3e, 
  0xb0, 0xcf, 0xd9, 0xbc, 0x83, 0x37, 0x81, 0x3e, 0xad, 0x74, 0x80, 0x3d, 
  0x34, 0xea, 0xb0, 0x3d, 0x5e, 0xb2, 0x9a, 0x3d, 0x1a, 0x0a, 0xb7, 0x3d, 
  0x1b, 0x1b, 0x11, 0x3e, 0x9c, 0xb7, 0x05, 0xbe, 0xe6, 0xa7, 0xf5, 0x3d, 
  0xae, 0x26, 0x82, 0x3d, 0x59, 0x3d, 0x98, 0x3e, 0x5e, 0x5a, 0x7d, 0x3e, 
  0x11, 0x36, 0x38, 0x3e, 0x47, 0xd4, 0x81, 0x3e, 0x26, 0x74, 0x66, 0x3e, 
  0x0f, 0x1d, 0xf5, 0xbd, 0xdc, 0x53, 0x26, 0xbe, 0x0c, 0x5b, 0xf5, 0xbd, 
  0x45, 0x09, 0x50, 0xbc, 0x6a, 0x7c, 0x80, 0x3e, 0x15, 0x62, 0x86, 0x3e, 
  0x57, 0x11, 0x66, 0x3d, 0x41, 0x4a, 0x97, 0xbd, 0x6f, 0x39, 0x40, 0x3e, 
  0xd4, 0xdb, 0x88, 0x3e, 0x47, 0x50, 0x14, 0x3d, 0x07, 0x16, 0x04, 0x3d, 
  0x6a, 0xdd, 0x88, 0x3e, 0x18, 0xf6, 0x52, 0xbd, 0x63, 0x35, 0x3b, 0xbe, 
  0x14, 0xad, 0xfb, 0xbd, 0x06, 0xbe, 0xbb, 0xbd, 0x27, 0x87, 0x2f, 0x3e, 
  0xde, 0xd6, 0x66, 0x3e, 0xad, 0x1f, 0xf6, 0x3d, 0xab, 0x70, 0x63, 0xbd, 
  0x5b, 0x58, 0x04, 0xbe, 0xf9, 0xbf, 0x93, 0x3d, 0xed, 0xdf, 0x89, 0xbe, 
  0xc9, 0x1a, 0xaa, 0x3a, 0x2b, 0xc6, 0x85, 0x3d, 0xed, 0x31, 0x08, 0xbe, 
  0xc6, 0x6b, 0xa9, 0xbd, 0x6c, 0x55, 0xe7, 0x3d, 0x8c, 0x2a, 0x3e, 0x3e, 
  0x2d, 0x3e, 0xd6, 0x3d, 0x7d, 0x85, 0x27, 0x3e, 0x8f, 0x67, 0x32, 0xbd, 
  0xd6, 0x98, 0x86, 0xbe, 0x26, 0x31, 0x08, 0xbe, 0x57, 0x55, 0xad, 0x3d, 
  0xa7, 0x9d, 0x11, 0xbc, 0x14, 0x18, 0x8d, 0xbe, 0x95, 0x42, 0x26, 0xbd, 
  0x9d, 0xd3, 0x35, 0x3e, 0x4d, 0x50, 0xfe, 0x3d, 0x51, 0xab, 0xf8, 0x3d, 
  0xd2, 0xb0, 0x82, 0xbe, 0x72, 0xdc, 0x40, 0xbe, 0x03, 0x18, 0xe2, 0x3d, 
  0x94, 0x35, 0x59, 0xbe, 0x72, 0xdb, 0xc6, 0xbc, 0x71, 0x1c, 0x70, 0x3e, 
  0xac, 0xae, 0xff, 0xbd, 0x61, 0x38, 0xdd, 0x3c, 0x43, 0xf6, 0x2c, 0xbe, 
  0xc3, 0xc9, 0x6c, 0x3e, 0xfc, 0x2d, 0x1b, 0x3d, 0x37, 0x1c, 0xd8, 0x3d, 
  0x0e, 0xff, 0x82, 0xbd, 0xaa, 0x26, 0x93, 0x3c, 0x69, 0x9b, 0x2b, 0xbe, 
  0x6d, 0x51, 0x48, 0x3e, 0xf1, 0xaa, 0x5b, 0x3d, 0x22, 0xd9, 0xfe, 0xba, 
  0x01, 0x95, 0x80, 0xbe, 0x0c, 0x31, 0x08, 0x3c, 0xb3, 0xe8, 0x00, 0x3e, 
  0x20, 0xb9, 0x3d, 0xbe, 0x67, 0x20, 0x87, 0xbd, 0x47, 0x53, 0x09, 0x3e, 
  0xa6, 0xef, 0x23, 0x3e, 0x90, 0x85, 0xfc, 0xbd, 0x3c, 0xf0, 0x27, 0x3e, 
  0xaf, 0xac, 0x24, 0xbe, 0xa9, 0xae, 0x95, 0x3d, 0xb6, 0x63, 0x29, 0xbd, 
  0xfa, 0xe2, 0xf5, 0xbc, 0xb7, 0xc4, 0x6f, 0xbe, 0x76, 0xf7, 0xdf, 0xbd, 
  0x59, 0x9c, 0xe6, 0xbd, 0x07, 0x33, 0x33, 0xbc, 0xf5, 0x7d, 0x6b, 0xbe, 
  0xcc, 0xa9, 0x75, 0x3d, 0x8f, 0xe0, 0x2e, 0xbe, 0x3c, 0x33, 0x61, 0x3e, 
  0x49, 0x15, 0x77, 0x3e, 0xa6, 0xc1, 0xc7, 0x3c, 0x32, 0xbd, 0x61, 0x3e, 
  0xa4, 0x41, 0x5c, 0x3e, 0x9f, 0xf0, 0xd0, 0xbc, 0xe0, 0x6d, 0x31, 0xbd, 
  0xd2, 0x85, 0xab, 0x3c, 0x78, 0x49, 0xf0, 0x3d, 0xd4, 0x73, 0x57, 0x3e, 
  0xcb, 0xdf, 0x6d, 0xbe, 0x32, 0x3c, 0x08, 0x3c, 0x59, 0xc2, 0x6a, 0xbd, 
  0x08, 0x99, 0x0a, 0xbe, 0x40, 0x03, 0x7d, 0x3d, 0xb0, 0xfc, 0x6f, 0xbe, 
  0x5d, 0x4e, 0x04, 0x3e, 0xaf, 0x44, 0x30, 0x3e, 0x02, 0x53, 0x1f, 0x3e, 
  0xed, 0xf8, 0xe1, 0xbc, 0x6f, 0xaa, 0x37, 0x3e, 0x09, 0xdd, 0x50, 0xbe, 
  0xf0, 0xee, 0xf0, 0x3d, 0x44, 0xfa, 0xe2, 0x3d, 0xc8, 0x33, 0xa3, 0x3d, 
  0x22, 0x97, 0xfd, 0x3b, 0x19, 0x38, 0xf3, 0xbc, 0xab, 0x0f, 0x5a, 0xbd, 
  0x59, 0xa2, 0x5a, 0xbe, 0x36, 0x4b, 0xe5, 0x3d, 0xd0, 0xae, 0xe2, 0x3d, 
  0x82, 0x1b, 0x1a, 0x3e, 0xed, 0x70, 0x6f, 0xbe, 0xfa, 0xed, 0x68, 0x3d, 
  0x3d, 0xc8, 0xec, 0xbd, 0xcc, 0x6c, 0x99, 0x3d, 0x7f, 0x51, 0x8c, 0x3d, 
  0x43, 0x7c, 0xc7, 0xbb, 0x23, 0x46, 0xe7, 0x3d, 0xcd, 0xfc, 0x82, 0xbe, 
  0x05, 0x61, 0xb4, 0x3d, 0x22, 0xdb, 0x1e, 0xbe, 0x33, 0xb5, 0x90, 0xbd, 
  0xc3, 0x14, 0xcb, 0xbd, 0xa2, 0x2a, 0x3b, 0x3e, 0x1c, 0x42, 0xf1, 0xbc, 
  0xfa, 0x86, 0x38, 0x3d, 0x30, 0x7d, 0xaf, 0xbd, 0xed, 0xc3, 0x83, 0xbe, 
  0xa3, 0x91, 0x4f, 0x3d, 0x90, 0x4a, 0x4f, 0xbe, 0x43, 0x65, 0xf6, 0xbd, 
  0xbc, 0x06, 0x0e, 0xbd, 0x96, 0xbf, 0xd3, 0xbd, 0xf9, 0x71, 0x33, 0x3e, 
  0x2d, 0xb6, 0xbc, 0x3d, 0x31, 0x1b, 0x53, 0x3e, 0x2f, 0xdd, 0xec, 0x3d, 
  0xde, 0x0f, 0x57, 0xbe, 0xf1, 0x2b, 0x0e, 0x3e, 0x41, 0x58, 0x25, 0xbe, 
  0x7a, 0xfd, 0x65, 0x3d, 0x62, 0xdf, 0x57, 0x3d, 0xa4, 0x8a, 0x44, 0xbe, 
  0xe4, 0x26, 0x2d, 0xbe, 0xb3, 0x41, 0xc1, 0xbc, 0x32, 0x39, 0xc6, 0xbc, 
  0x9e, 0x2b, 0x22, 0x3e, 0x2d, 0x1b, 0xc4, 0x3c, 0xed, 0x8c, 0x85, 0xbe, 
  0xbb, 0x00, 0xad, 0xbb, 0x9e, 0xc2, 0xb9, 0x3d, 0xc8, 0x45, 0x25, 0xbe, 
  0x23, 0x05, 0x1b, 0x3e, 0x60, 0x0f, 0x22, 0xbe, 0x6c, 0x22, 0x10, 0xbd, 
  0x9e, 0x8a, 0x60, 0xbc, 0x4f, 0xd9, 0xd9, 0x3c, 0xa7, 0x1e, 0x2e, 0xbd, 
  0x78, 0x10, 0xc4, 0x3d, 0x18, 0x4b, 0x66, 0x3e, 0xef, 0x09, 0xce, 0x3d, 
  0x77, 0x8d, 0x06, 0xbe, 0x36, 0xf2, 0xf4, 0xbd, 0x00, 0x36, 0xa8, 0xbc, 
  0x5a, 0xbc, 0x92, 0xbb, 0x03, 0x62, 0xb0, 0x3d, 0x29, 0xc5, 0x9a, 0x3d, 
  0x06, 0x4a, 0x89, 0x3e, 0xfa, 0x3d, 0x51, 0x3e, 0x98, 0xc6, 0x89, 0xbd, 
  0x15, 0x60, 0xf4, 0x3d, 0x08, 0xfa, 0x34, 0x3e, 0x9a, 0xd4, 0xd0, 0xbd, 
  0xc7, 0x51, 0x23, 0xbe, 0x7b, 0xf9, 0x85, 0x3e, 0x7e, 0xe0, 0xbd, 0xbd, 
  0x2f, 0x3e, 0x29, 0x3e, 0x59, 0xc3, 0xa9, 0xbc, 0x52, 0xf0, 0x45, 0xbe, 
  0x1e, 0xde, 0x83, 0x3e, 0x1d, 0xa6, 0x7e, 0xbd, 0xfa, 0x96, 0xb3, 0xbd, 
  0x4c, 0x86, 0x40, 0x3e, 0x2f, 0x16, 0xb0, 0xbd, 0xa5, 0x52, 0x58, 0x3e, 
  0x52, 0xf7, 0x4e, 0xbd, 0xd7, 0x10, 0xdb, 0xbc, 0x6f, 0x68, 0xff, 0x3b, 
  0x88, 0xc3, 0x83, 0x3e, 0x13, 0x91, 0xa6, 0x3d, 0x93, 0x2b, 0xe2, 0x3d, 
  0xbf, 0xb9, 0x34, 0x3b, 0x3c, 0x77, 0x7f, 0x3c, 0x3f, 0xbc, 0xe1, 0x3d, 
  0xe1, 0x86, 0x72, 0x3c, 0x59, 0x1b, 0x81, 0x3d, 0x98, 0xfb, 0xef, 0xbd, 
  0xf9, 0xe9, 0x0d, 0xbd, 0xa3, 0xcc, 0x23, 0x3e, 0x26, 0xa3, 0x09, 0xbe, 
  0x75, 0x58, 0xf3, 0xbc, 0xc6, 0xae, 0x85, 0xbb, 0xe8, 0x3b, 0x4a, 0xbe, 
  0x87, 0xc2, 0xb2, 0x3d, 0x60, 0x29, 0x92, 0x3e, 0x75, 0x63, 0x94, 0xbc, 
  0xf9, 0x1f, 0x03, 0xbe, 0x8d, 0xf5, 0x63, 0x3e, 0x93, 0x0c, 0xea, 0xbd, 
  0x82, 0x3a, 0x5a, 0x3e, 0x8a, 0x68, 0x32, 0xbc, 0xe1, 0x3e, 0xa0, 0x3d, 
  0x18, 0xb1, 0x43, 0x3e, 0xee, 0x9c, 0x9c, 0x3e, 0x17, 0xc3, 0x7a, 0x3e, 
  0xce, 0x3d, 0x08, 0x3e, 0x2c, 0xea, 0x09, 0xbe, 0x84, 0x9a, 0x00, 0xbe, 
  0x31, 0xad, 0xaa, 0x3d, 0x15, 0xb5, 0x6e, 0x3e, 0x38, 0x98, 0x59, 0xbe, 
  0xa9, 0x81, 0x13, 0xbe, 0x81, 0xf4, 0x18, 0x3e, 0x5d, 0xdd, 0x55, 0x3e, 
  0x72, 0xcb, 0x86, 0xbe, 0xb1, 0x33, 0xdb, 0xbd, 0x03, 0x9d, 0x2e, 0x3d, 
  0x2c, 0xc7, 0x29, 0x3e, 0x75, 0x34, 0x67, 0xbd, 0x54, 0xfc, 0x11, 0x3e, 
  0xf2, 0xa9, 0x51, 0xbe, 0x4f, 0x5c, 0x05, 0xbe, 0xc8, 0x05, 0x05, 0xbe, 
  0xcb, 0x85, 0x5a, 0x3e, 0x0c, 0x8f, 0x05, 0xbe, 0x60, 0xe2, 0x81, 0xbe, 
  0x5d, 0x77, 0xb6, 0xbd, 0xaa, 0x21, 0x34, 0x3e, 0x32, 0x0e, 0xa9, 0xbd, 
  0x00, 0xbe, 0xed, 0xbd, 0x14, 0xe1, 0x6f, 0xbe, 0xfe, 0x1d, 0xe0, 0x3d, 
  0x9d, 0xbe, 0x24, 0x3c, 0xcb, 0x0d, 0xd4, 0xbd, 0xc2, 0x2e, 0x2e, 0xbd, 
  0x47, 0xba, 0x3d, 0x3d, 0xc6, 0xa7, 0xf8, 0x3d, 0x70, 0x48, 0x04, 0x3e, 
  0xc4, 0x96, 0x89, 0xbe, 0x2b, 0xc7, 0x0b, 0x3d, 0x13, 0x56, 0x22, 0x3e, 
  0x62, 0x8e, 0x21, 0xbe, 0x04, 0x55, 0xdb, 0x3d, 0xb3, 0xc6, 0x68, 0xbd, 
  0x7d, 0x15, 0x91, 0xbe, 0xae, 0xee, 0x65, 0x3d, 0x31, 0x7c, 0xb3, 0x3d, 
  0x99, 0x0d, 0x0a, 0xbe, 0x62, 0xcb, 0xa1, 0xbc, 0x03, 0xde, 0xc3, 0x3b, 
  0x00, 0x5a, 0xaa, 0x3d, 0xbb, 0xc1, 0xba, 0xbd, 0x26, 0x8a, 0x42, 0xbd, 
  0x96, 0x1f, 0xdc, 0xbd, 0xf0, 0x90, 0x22, 0xbe, 0x43, 0x93, 0xa6, 0x3d, 
  0x1b, 0x93, 0x89, 0xbe, 0x00, 0xbd, 0xe2, 0xbc, 0x88, 0x87, 0xd9, 0xbd, 
  0x19, 0xdd, 0x15, 0xbe, 0x09, 0x7b, 0x67, 0xbe, 0xb9, 0xb5, 0xa8, 0xbd, 
  0x36, 0x5f, 0xf8, 0xbd, 0x24, 0xf4, 0x12, 0xbe, 0xca, 0x83, 0x59, 0xbd, 
  0xb2, 0x10, 0x16, 0x3e, 0x9b, 0x0e, 0x1e, 0x3e, 0xfc, 0xa4, 0x72, 0xbe, 
  0xfa, 0xe6, 0x33, 0x3e, 0x82, 0xe5, 0x0d, 0x3c, 0xb6, 0x9e, 0xed, 0x3c, 
  0x69, 0x36, 0x8c, 0x3d, 0x93, 0xe1, 0x11, 0x3e, 0x7e, 0x1f, 0x26, 0x3e, 
  0xf9, 0x14, 0xa4, 0x3d, 0x17, 0xa1, 0xa7, 0xbb, 0xc9, 0x40, 0xa5, 0x3d, 
  0xa9, 0x83, 0x81, 0x3e, 0xc6, 0xfd, 0x5f, 0x3e, 0xfe, 0x6e, 0x24, 0xbe, 
  0xaf, 0xc5, 0x03, 0x3e, 0x9d, 0xd8, 0x17, 0xbe, 0xd5, 0x3b, 0x70, 0xbe, 
  0x97, 0x97, 0x5a, 0xbe, 0x47, 0x2c, 0x33, 0xbc, 0xc0, 0x92, 0x4b, 0x3e, 
  0x04, 0x4f, 0x42, 0xbe, 0xbd, 0xe2, 0x63, 0xbe, 0xa3, 0x04, 0x7c, 0x3e, 
  0x86, 0xac, 0xac, 0x3d, 0x05, 0xf3, 0x88, 0x3d, 0x86, 0xfa, 0x49, 0xbe, 
  0x1f, 0x61, 0x80, 0x3e, 0x16, 0x0c, 0x2d, 0xbe, 0x03, 0xb5, 0x31, 0xbd, 
  0x22, 0xda, 0xaf, 0xbd, 0x92, 0x1f, 0xed, 0x3d, 0x8a, 0x7d, 0xdb, 0x3c, 
  0x05, 0xb2, 0xb7, 0x3d, 0x28, 0xe8, 0x67, 0xbe, 0x18, 0xb8, 0x1d, 0xbe, 
  0x6b, 0xdf, 0x76, 0xbc, 0x81, 0x65, 0x1f, 0x3e, 0x36, 0xae, 0x02, 0x3e, 
  0x6f, 0xa3, 0x9a, 0xbe, 0x88, 0x30, 0x36, 0x3c, 0x41, 0xe3, 0x35, 0x3e, 
  0xf2, 0x59, 0x96, 0xbd, 0xd2, 0xa3, 0xd3, 0x3d, 0xe2, 0x67, 0x1e, 0x3e, 
  0xae, 0xd0, 0x84, 0xbd, 0x32, 0x0c, 0x46, 0x3d, 0xc7, 0xa0, 0x53, 0xbe, 
  0x9b, 0x84, 0x55, 0xbe, 0x91, 0x5a, 0xaa, 0xbd, 0xe1, 0x3d, 0x8e, 0x3e, 
  0x30, 0xb6, 0xf8, 0x3d, 0xc6, 0x4e, 0x0d, 0x3e, 0xf9, 0xc4, 0x30, 0x3e, 
  0x80, 0x3b, 0x40, 0xbc, 0x01, 0x64, 0xe0, 0xbd, 0x20, 0x08, 0x68, 0x3e, 
  0x56, 0x00, 0x55, 0x3e, 0x73, 0x0b, 0x27, 0x3e, 0x73, 0xc7, 0x0f, 0xbe, 
  0x61, 0xbe, 0xe5, 0xbd, 0xea, 0x12, 0x64, 0xbe, 0xa9, 0x2f, 0x1c, 0x3e, 
  0x69, 0x34, 0xa1, 0xbd, 0xac, 0xca, 0x3f, 0xbe, 0x61, 0x7d, 0xe8, 0x3a, 
  0x0d, 0xe6, 0x0e, 0x3d, 0x79, 0xd2, 0xbc, 0xbd, 0x92, 0x16, 0x56, 0xbd, 
  0x02, 0x86, 0x7a, 0x3e, 0x90, 0x2c, 0x80, 0x3e, 0x82, 0xce, 0x00, 0x3e, 
  0x12, 0x6a, 0xc0, 0x3d, 0x7b, 0x7a, 0x81, 0xbd, 0x23, 0xcc, 0xb2, 0xbd, 
  0x3b, 0xa1, 0xc5, 0x3d, 0x83, 0xef, 0xbf, 0x3d, 0x1c, 0x06, 0x95, 0x3e, 
  0x9c, 0xc7, 0x11, 0x3e, 0x1c, 0xc8, 0x92, 0xbc, 0x44, 0x87, 0xa4, 0x3e, 
  0xc6, 0x88, 0xf1, 0xbc, 0xea, 0x04, 0x14, 0x3e, 0xd4, 0xac, 0xe3, 0xbc, 
  0xc2, 0x32, 0x95, 0x3e, 0x74, 0xc9, 0xf1, 0xbd, 0x6f, 0x53, 0x22, 0xbc, 
  0xd8, 0xc7, 0x62, 0x3e, 0x9a, 0x84, 0x86, 0x3d, 0xd0, 0x04, 0x5c, 0xbe, 
  0x9f, 0x44, 0xc3, 0x3d, 0xf0, 0x3c, 0x84, 0xbd, 0x19, 0x73, 0x72, 0xbe, 
  0xdf, 0x1e, 0x15, 0x3e, 0xe8, 0xa0, 0xce, 0xbd, 0x69, 0x7b, 0x1a, 0xbd, 
  0x2b, 0xe5, 0xa9, 0x3d, 0xd2, 0x09, 0x1a, 0x3d, 0x40, 0x7a, 0x4b, 0xbe, 
  0xfc, 0x69, 0x52, 0x3e, 0xd9, 0x4c, 0x15, 0x3e, 0x46, 0x44, 0xf5, 0xbd, 
  0xba, 0x1a, 0xe8, 0x3d, 0xda, 0x60, 0x94, 0x3e, 0x15, 0xa9, 0xf4, 0xbd, 
  0xe0, 0x0f, 0xec, 0x3d, 0x41, 0x85, 0xbe, 0xbd, 0x5b, 0x29, 0x26, 0x3e, 
  0xa3, 0x42, 0xfb, 0xbd, 0x06, 0x8e, 0x29, 0x3e, 0x8f, 0xc2, 0xee, 0x3c, 
  0xb4, 0xf2, 0x79, 0x3e, 0x9f, 0x4e, 0x77, 0x3e, 0x2c, 0x3d, 0x60, 0x3e, 
  0x8d, 0x56, 0x62, 0xbe, 0x6a, 0xb0, 0xb8, 0xbd, 0x7f, 0xfc, 0xf7, 0xbd, 
  0x20, 0x5f, 0xc3, 0x3d, 0x28, 0x9b, 0x11, 0x3e, 0xbf, 0x1d, 0x40, 0x3d, 
  0x37, 0x5c, 0x61, 0x3e, 0x1e, 0xda, 0x0b, 0xbd, 0xfb, 0x9c, 0x48, 0xbe, 
  0x12, 0xbd, 0x29, 0x3d, 0x29, 0x7f, 0x1b, 0x3e, 0x86, 0x7a, 0x3b, 0x3e, 
  0x10, 0x49, 0x85, 0xbd, 0x73, 0xe6, 0x73, 0xbd, 0x6b, 0x9e, 0x0b, 0x3e, 
  0xba, 0xdf, 0x2e, 0xbe, 0x23, 0xd7, 0x1c, 0xbe, 0xd0, 0x74, 0xac, 0x3d, 
  0x7a, 0x3c, 0x13, 0x3e, 0x76, 0x7a, 0x76, 0x3d, 0x41, 0xdc, 0x26, 0x3e, 
  0x0a, 0x7a, 0x5f, 0x3d, 0xc9, 0x69, 0xf4, 0xbd, 0xf8, 0x6e, 0x47, 0x3e, 
  0x33, 0x1f, 0x12, 0x3d, 0x9f, 0x84, 0x8b, 0x3e, 0xfe, 0x98, 0x3f, 0x3d, 
  0x32, 0x32, 0x61, 0xbe, 0x6e, 0x3a, 0x75, 0x3d, 0xed, 0xe1, 0x8a, 0x3e, 
  0x76, 0xfa, 0x08, 0x3e, 0xd7, 0xf8, 0x72, 0x3e, 0xc4, 0xa7, 0x94, 0xbd, 
  0xa4, 0x18, 0xb7, 0x3d, 0x38, 0x7f, 0xdc, 0x3d, 0x54, 0x4e, 0x5c, 0xbe, 
  0x45, 0xe9, 0xbf, 0x3d, 0x23, 0xc6, 0xb4, 0xbd, 0xc9, 0xa3, 0x90, 0x3e, 
  0x46, 0xac, 0xed, 0x3d, 0x85, 0x9a, 0x26, 0xbe, 0x46, 0x1d, 0x95, 0xbd, 
  0xd7, 0xff, 0x3c, 0xbe, 0x25, 0x8a, 0xff, 0xbc, 0xb8, 0xce, 0x2b, 0x3e, 
  0xe8, 0x5b, 0x21, 0x3d, 0x33, 0xc8, 0xf2, 0x3d, 0x37, 0x0d, 0x54, 0x3e, 
  0xde, 0xad, 0x95, 0x3d, 0x8b, 0xf3, 0x79, 0xbc, 0x4f, 0x62, 0x1d, 0x3e, 
  0x5b, 0xf9, 0xc6, 0x3c, 0xba, 0x1e, 0x0b, 0x3e, 0x6a, 0xfe, 0x13, 0xbe, 
  0x17, 0x85, 0x93, 0x3b, 0x76, 0xaf, 0x9d, 0x3c, 0x0b, 0x81, 0xec, 0x3d, 
  0x44, 0x69, 0x9d, 0x3d, 0x07, 0xf1, 0x45, 0x3d, 0x37, 0x15, 0x3b, 0xbe, 
  0xb1, 0x81, 0x8e, 0x3d, 0x8c, 0x04, 0x61, 0xbe, 0x54, 0xc1, 0xbc, 0x3c, 
  0xb3, 0x56, 0x69, 0xbe, 0xd2, 0xcb, 0x17, 0x3e, 0x01, 0xbb, 0x97, 0xbc, 
  0xba, 0xd8, 0x96, 0x3e, 0x4d, 0xef, 0xa2, 0x3e, 0xf1, 0xeb, 0x88, 0xbd, 
  0x8d, 0x34, 0x8a, 0x3e, 0xee, 0xa7, 0x58, 0x3e, 0x65, 0x66, 0x98, 0xbd, 
  0xb0, 0x66, 0x0d, 0xbe, 0x77, 0xb2, 0xee, 0xbd, 0x8a, 0x91, 0x1e, 0x3e, 
  0x2b, 0xd9, 0x1f, 0x3e, 0x5f, 0x6f, 0x22, 0xbe, 0x36, 0x54, 0x90, 0x3e, 
  0x73, 0xf4, 0x50, 0xbe, 0x4b, 0xc7, 0xda, 0x3d, 0xab, 0x44, 0xd5, 0x3b, 
  0xf8, 0xd9, 0x1e, 0xbd, 0xa3, 0x7a, 0x90, 0x3c, 0xe2, 0x56, 0x4d, 0x3e, 
  0x47, 0x12, 0x31, 0xbe, 0x94, 0xb3, 0x2a, 0x3e, 0x49, 0x68, 0xdc, 0x3d, 
  0x75, 0xa7, 0xa0, 0x3d, 0xf4, 0x6b, 0x1e, 0xbe, 0x69, 0x7b, 0x6c, 0xbe, 
  0x28, 0xcb, 0x89, 0x3d, 0x88, 0x27, 0x77, 0xbe, 0x25, 0x45, 0x27, 0x3e, 
  0x67, 0x50, 0x34, 0x3d, 0xb3, 0x20, 0xd9, 0x3d, 0x28, 0x92, 0x16, 0x3e, 
  0x36, 0x04, 0x50, 0xbe, 0xbc, 0x22, 0xaa, 0xbd, 0xc8, 0x7b, 0xbc, 0x3d, 
  0xa4, 0xb9, 0x96, 0x3d, 0xe3, 0x30, 0xb8, 0xbd, 0x71, 0x81, 0x8e, 0x3c, 
  0xa2, 0x28, 0x8b, 0xbd, 0x9a, 0x83, 0x71, 0x3c, 0x53, 0xf0, 0x90, 0x3d, 
  0xba, 0x99, 0xc5, 0x3d, 0x9b, 0x17, 0x60, 0xbe, 0x8c, 0xc3, 0x68, 0xbe, 
  0xbb, 0x56, 0x93, 0xbd, 0x92, 0x24, 0xc6, 0x3d, 0x13, 0x62, 0xe9, 0x3d, 
  0xad, 0xa2, 0x85, 0xbb, 0xc4, 0x6e, 0xb2, 0x3a, 0xcd, 0x32, 0x62, 0x3d, 
  0xc3, 0xbd, 0x75, 0xbd, 0x41, 0xf3, 0x5b, 0x3e, 0x4a, 0x63, 0x5e, 0xbe, 
  0x00, 0x60, 0x47, 0x3e, 0xec, 0x31, 0x8f, 0xbd, 0x25, 0x73, 0xaf, 0x3b, 
  0x1f, 0xf0, 0xc1, 0xbd, 0x01, 0x8a, 0x15, 0xbe, 0x82, 0x6b, 0x2c, 0xbe, 
  0x4d, 0x66, 0x52, 0x3d, 0x59, 0x64, 0x03, 0xbe, 0x1a, 0x7e, 0x2c, 0x3e, 
  0x5a, 0xa8, 0x67, 0x3d, 0xc0, 0x1c, 0xbc, 0xbd, 0x1b, 0xbc, 0xc9, 0x3d, 
  0x3c, 0x3f, 0xd6, 0xbc, 0x4b, 0x53, 0x2b, 0x3c, 0x72, 0x6a, 0xeb, 0xbd, 
  0x60, 0x57, 0x3a, 0x3d, 0x24, 0xb5, 0xcd, 0x3d, 0xdf, 0xa1, 0xdb, 0x3d, 
  0xc8, 0xe1, 0x14, 0xbc, 0x24, 0xdc, 0x7f, 0x3e, 0xef, 0xae, 0xc2, 0xbc, 
  0x6d, 0x53, 0x23, 0x3e, 0x26, 0xb5, 0x75, 0x3d, 0x56, 0x59, 0x3b, 0x3e, 
  0xaa, 0x3a, 0x72, 0x3e, 0x6b, 0xad, 0x85, 0x3e, 0x6c, 0xd8, 0x40, 0x3e, 
  0x8f, 0x16, 0x82, 0xbd, 0x01, 0xf5, 0x32, 0xbe, 0x0e, 0x1d, 0x9d, 0xbc, 
  0xca, 0x8c, 0x10, 0xbe, 0xe0, 0x0a, 0x8c, 0xbd, 0x56, 0x21, 0x33, 0xbd, 
  0xd1, 0x03, 0xe1, 0x3d, 0x6b, 0xe8, 0xbf, 0xbd, 0xb7, 0x36, 0x33, 0x3e, 
  0x62, 0x95, 0xa3, 0x3d, 0x04, 0x75, 0xbd, 0x3d, 0xf5, 0xc9, 0xe1, 0x3d, 
  0xf8, 0x1f, 0x65, 0x3e, 0x72, 0x1d, 0x6b, 0x3e, 0x38, 0x36, 0x98, 0x3a, 
  0x1a, 0x86, 0xb0, 0x3d, 0x6f, 0xe4, 0x38, 0x3d, 0x16, 0x30, 0xaf, 0xbd, 
  0xf7, 0x55, 0xa6, 0x3d, 0x49, 0x09, 0x40, 0x3e, 0xf7, 0x10, 0xc2, 0xbc, 
  0xdb, 0x4e, 0x9e, 0x3e, 0x9c, 0x08, 0x71, 0x3e, 0x3e, 0xe7, 0xef, 0xbd, 
  0xf6, 0xf9, 0x02, 0x3e, 0x1d, 0xee, 0x8d, 0x3e, 0xef, 0x51, 0x7d, 0x3e, 
  0xbe, 0x2d, 0xc7, 0x3c, 0x35, 0x6f, 0x0c, 0x3e, 0x55, 0xcf, 0xea, 0x3d, 
  0x2f, 0xc8, 0x7f, 0x3e, 0xd2, 0x45, 0xff, 0x3d, 0xe0, 0x8e, 0x5c, 0x3e, 
  0x51, 0x8a, 0xd0, 0xbd, 0x4a, 0x61, 0x90, 0x3e, 0x2d, 0xfa, 0x8b, 0x3d, 
  0x17, 0xf7, 0x6c, 0x3e, 0x7a, 0x0c, 0x1b, 0x3d, 0xcd, 0x18, 0x5e, 0x3d, 
  0xad, 0x3a, 0x9e, 0xbd, 0x45, 0xfe, 0x93, 0xbc, 0xb5, 0x69, 0x2b, 0x3e, 
  0x70, 0x8c, 0xd8, 0xbd, 0x8b, 0x12, 0x0f, 0xbe, 0xc1, 0xfc, 0x47, 0xbd, 
  0x98, 0x71, 0x3f, 0xbe, 0x02, 0xd7, 0xc6, 0xbd, 0x0f, 0x86, 0xd7, 0xbd, 
  0x58, 0x5b, 0x23, 0xbe, 0x3c, 0x91, 0x2d, 0x3e, 0xf8, 0x1a, 0x52, 0x3e, 
  0x11, 0x5d, 0x26, 0x3e, 0x40, 0x3c, 0x17, 0xbe, 0x51, 0x41, 0xa5, 0xbd, 
  0x31, 0x60, 0x12, 0x3e, 0xb3, 0xbd, 0x5b, 0x3d, 0xcc, 0x23, 0xa2, 0x3d, 
  0x03, 0x94, 0x3f, 0x3e, 0xd4, 0xb0, 0x37, 0x3e, 0xec, 0x82, 0x7f, 0x3e, 
  0xd0, 0xfb, 0x3f, 0x3c, 0x6b, 0x9c, 0xe1, 0x3b, 0xed, 0xcf, 0x8d, 0x3c, 
  0xf8, 0xd5, 0x61, 0x3e, 0x62, 0x80, 0xed, 0x3d, 0xf2, 0x51, 0x58, 0x3e, 
  0xde, 0xe3, 0x65, 0x3e, 0x7a, 0x38, 0x1f, 0xbd, 0x25, 0x6f, 0x2a, 0x3d, 
  0xb7, 0x27, 0x6b, 0x3d, 0x5d, 0x98, 0x0a, 0x3e, 0xd7, 0xe1, 0x86, 0x3e, 
  0xcd, 0xd7, 0x6a, 0x3e, 0xf3, 0x7e, 0x94, 0x3d, 0xe8, 0xda, 0x89, 0x3e, 
  0xb9, 0x82, 0xaf, 0x3e, 0xe7, 0x63, 0x7e, 0x3e, 0x40, 0x67, 0xdc, 0x3c, 
  0x0e, 0xfe, 0x98, 0x3e, 0x55, 0x0c, 0x5b, 0xbb, 0xf3, 0x23, 0xbb, 0x3d, 
  0xe9, 0x5d, 0xcb, 0x3d, 0xa0, 0x76, 0x55, 0x3e, 0x4b, 0xa1, 0x84, 0x3e, 
  0x66, 0x8d, 0x0d, 0x3e, 0xb4, 0x3e, 0x97, 0x3e, 0x92, 0x46, 0x90, 0x3e, 
  0x40, 0x3b, 0x64, 0xbd, 0xb1, 0xe0, 0x95, 0x3e, 0x1f, 0x0a, 0x1d, 0x3e, 
  0x2f, 0x9b, 0x72, 0x3d, 0xef, 0x24, 0x2c, 0x3e, 0xa8, 0xa0, 0xa4, 0x3e, 
  0x19, 0x8b, 0x72, 0x3e, 0xb6, 0x9b, 0x3a, 0x3c, 0x48, 0x39, 0x55, 0x3e, 
  0x0e, 0x96, 0x35, 0x3e, 0x26, 0x66, 0xc8, 0xbb, 0xdc, 0x03, 0xfb, 0xba, 
  0xf6, 0x16, 0xf5, 0x3c, 0xc5, 0x5e, 0xbe, 0x3c, 0xfd, 0xa9, 0x05, 0x3e, 
  0x2d, 0x9c, 0xd0, 0x3c, 0x67, 0x96, 0xc4, 0x3d, 0x3e, 0xb3, 0xdf, 0xb9, 
  0x85, 0x77, 0x2a, 0xbe, 0x7f, 0x39, 0x41, 0xbe, 0xf3, 0x59, 0xa4, 0x3d, 
  0x06, 0x46, 0xe9, 0xbb, 0x74, 0x21, 0x82, 0xbc, 0xfc, 0x36, 0x14, 0xbe, 
  0x25, 0x3b, 0xb3, 0x3d, 0x6f, 0x9a, 0xcc, 0x3d, 0xa4, 0xa7, 0x52, 0x3d, 
  0x32, 0x41, 0xbd, 0x3e, 0xc4, 0xd9, 0xa3, 0x3d, 0xf4, 0x02, 0x02, 0xbe, 
  0x01, 0xb7, 0xb0, 0x3c, 0x4d, 0x67, 0x21, 0x3e, 0x77, 0x3f, 0xca, 0x3d, 
  0x33, 0x26, 0x85, 0x3e, 0x0b, 0xa9, 0xb6, 0x3e, 0x36, 0x2d, 0x01, 0xbe, 
  0x76, 0xf2, 0x46, 0x3e, 0x07, 0xab, 0x48, 0xbc, 0x29, 0x21, 0x5d, 0x3e, 
  0x6c, 0x7d, 0x90, 0x3e, 0xfc, 0x47, 0xd0, 0xbd, 0x32, 0x49, 0x45, 0x3d, 
  0x47, 0xec, 0xa3, 0x3e, 0x46, 0x86, 0xe7, 0xbc, 0xc1, 0xd7, 0xb3, 0x3e, 
  0x3d, 0x20, 0xd8, 0x3d, 0x4f, 0xad, 0x86, 0x3c, 0x7e, 0x73, 0x7b, 0x3e, 
  0x34, 0x3d, 0x50, 0xbd, 0x0a, 0x5c, 0x8d, 0xbd, 0x7e, 0x41, 0x76, 0x3e, 
  0xde, 0x24, 0x76, 0xbe, 0x02, 0xe3, 0xd6, 0x3d, 0x19, 0x1a, 0x00, 0xbe, 
  0xba, 0xde, 0xaf, 0xbd, 0xd0, 0x88, 0x94, 0xbd, 0x1e, 0x18, 0x54, 0xbd, 
  0x90, 0x8f, 0x72, 0xbd, 0x10, 0xd2, 0x3c, 0x3d, 0xb3, 0x0c, 0x66, 0x3e, 
  0x39, 0xa2, 0x4e, 0xbd, 0xa6, 0x1a, 0x68, 0x3d, 0x03, 0xba, 0xea, 0x3d, 
  0x84, 0x7c, 0x0b, 0x3d, 0x2f, 0xcc, 0xe1, 0xbd, 0xed, 0x06, 0x09, 0x3d, 
  0xba, 0xc5, 0x1e, 0xbe, 0x6b, 0x87, 0x5d, 0x3c, 0x06, 0xac, 0x7c, 0xbd, 
  0x9b, 0x2b, 0xbf, 0xbd, 0xd9, 0x02, 0xd1, 0x3d, 0xcf, 0x00, 0x73, 0xbd, 
  0xbf, 0xaa, 0x16, 0xbb, 0xc8, 0x8f, 0x42, 0xbe, 0x1c, 0x28, 0x5d, 0xbe, 
  0xab, 0xea, 0x86, 0x3d, 0xbe, 0x4b, 0xeb, 0xbd, 0xf9, 0xf0, 0xbe, 0xbc, 
  0x64, 0x2f, 0x18, 0x3d, 0x30, 0x8f, 0xa5, 0xbc, 0x5f, 0xed, 0xb4, 0xbd, 
  0x10, 0xe7, 0x82, 0xbe, 0xe9, 0x91, 0x3f, 0x3d, 0x3a, 0x68, 0x3f, 0x3e, 
  0x26, 0x75, 0x70, 0x3c, 0xf4, 0x84, 0x1c, 0xbe, 0xf7, 0x96, 0x63, 0xbc, 
  0xb2, 0x23, 0x80, 0xbd, 0x58, 0x6c, 0x77, 0xbe, 0xe0, 0x9b, 0x43, 0x3e, 
  0x20, 0x04, 0x0e, 0x3c, 0xc4, 0xda, 0x50, 0x3e, 0x24, 0x64, 0xd1, 0x3d, 
  0x79, 0xf2, 0xe6, 0x3d, 0xbd, 0x8a, 0x24, 0xbb, 0x1b, 0xf3, 0x49, 0xbd, 
  0x2e, 0x84, 0xa8, 0x3d, 0x16, 0x7a, 0x3c, 0xbd, 0x6c, 0x01, 0x5c, 0xbb, 
  0xe2, 0x51, 0x8b, 0x3d, 0x0e, 0x5c, 0x57, 0xbd, 0xaf, 0x6e, 0x46, 0x3e, 
  0x14, 0x26, 0xca, 0x3d, 0x60, 0x58, 0xbc, 0x3d, 0x2f, 0x11, 0x46, 0x3e, 
  0x40, 0x43, 0xf3, 0xbc, 0x30, 0x78, 0x91, 0x3c, 0xe0, 0x5e, 0x97, 0xbd, 
  0xd0, 0xda, 0x22, 0xbe, 0x8d, 0xd9, 0x87, 0xbd, 0xbb, 0xb7, 0xa8, 0xbd, 
  0x6d, 0xef, 0x10, 0x3e, 0xf8, 0x90, 0xf4, 0xbd, 0xf6, 0x98, 0x7e, 0xbe, 
  0x18, 0x3a, 0x2c, 0x3e, 0x62, 0x14, 0xec, 0xbd, 0xef, 0xce, 0xae, 0x3d, 
  0x6e, 0x36, 0x27, 0xbe, 0x92, 0x6d, 0x09, 0x3e, 0xa5, 0xe3, 0x95, 0xbd, 
  0x0a, 0xae, 0xa6, 0xbd, 0xfe, 0xef, 0x39, 0xbd, 0x69, 0xb1, 0x22, 0x3e, 
  0x60, 0xae, 0x96, 0xbd, 0x58, 0xe3, 0x80, 0xbe, 0x67, 0x6c, 0x48, 0x3e, 
  0x27, 0x82, 0x0e, 0x3c, 0xa2, 0x8b, 0x2e, 0xbe, 0xe5, 0x43, 0x8d, 0x3b, 
  0x12, 0xc3, 0xf9, 0x3d, 0xbd, 0xda, 0x42, 0xbe, 0x9f, 0xf1, 0x25, 0x3e, 
  0xf9, 0xdc, 0x0c, 0xbd, 0xe0, 0x0b, 0x2f, 0x3e, 0xd0, 0x4e, 0xb0, 0xbd, 
  0xcb, 0x0b, 0xa3, 0xbd, 0x5d, 0x8f, 0x85, 0xbe, 0xe2, 0x01, 0x5c, 0xbe, 
  0x07, 0x6d, 0x52, 0xbe, 0xf1, 0x86, 0x3a, 0x3e, 0x51, 0x67, 0xd2, 0x3d, 
  0x09, 0xe8, 0x16, 0xbe, 0x88, 0xa5, 0x44, 0xbe, 0xa4, 0x16, 0x1e, 0x3e, 
  0xe8, 0xaa, 0x46, 0x3d, 0xbd, 0x44, 0x1b, 0x3e, 0xed, 0xc6, 0xe2, 0xbd, 
  0x1b, 0xa6, 0xd1, 0xbd, 0xd3, 0x51, 0x8d, 0x3b, 0x21, 0xaf, 0x17, 0xbe, 
  0xa0, 0x78, 0x72, 0xbc, 0x14, 0x3e, 0x89, 0xbd, 0xe9, 0x76, 0x4d, 0x3e, 
  0x03, 0x01, 0xc4, 0xbd, 0xe1, 0x37, 0x19, 0xbd, 0xa1, 0xef, 0x1c, 0xbd, 
  0x7c, 0x02, 0x3b, 0xbe, 0x8a, 0x07, 0xab, 0x3d, 0xa9, 0x3c, 0xb0, 0x3d, 
  0x6b, 0x04, 0xb4, 0xbd, 0x5c, 0x2e, 0x88, 0xbe, 0xea, 0x29, 0x3f, 0xbe, 
  0x23, 0xcb, 0x34, 0x3e, 0xf2, 0x08, 0x1c, 0xbd, 0xfe, 0x38, 0x6d, 0xbc, 
  0xc2, 0xe2, 0x29, 0xbe, 0x08, 0x6d, 0xae, 0x3b, 0xaa, 0xc2, 0x66, 0xbe, 
  0xaa, 0xf2, 0x2d, 0x3e, 0xd6, 0xd7, 0x9f, 0xbd, 0x54, 0xde, 0x27, 0xbe, 
  0xee, 0xbf, 0x0e, 0x3e, 0xd4, 0x7b, 0xf6, 0xbd, 0x7c, 0x63, 0xf4, 0xbd, 
  0xb8, 0x35, 0x88, 0x3d, 0x0b, 0x49, 0x87, 0xbe, 0x99, 0xb9, 0x32, 0x3d, 
  0xbc, 0xc7, 0x4c, 0x3e, 0x06, 0xc4, 0x73, 0xbe, 0x30, 0x84, 0x8d, 0xbe, 
  0xdb, 0xa3, 0x7f, 0x3e, 0x18, 0x97, 0x6a, 0x3d, 0xec, 0x97, 0xf2, 0x3c, 
  0xed, 0x7f, 0x2d, 0xbe, 0xdd, 0xd8, 0xb0, 0xbd, 0x09, 0x4f, 0x26, 0xbe, 
  0x8b, 0x2a, 0x01, 0xbe, 0x52, 0x34, 0x24, 0xbe, 0x03, 0x93, 0x86, 0x3e, 
  0x5e, 0x8a, 0x94, 0xbe, 0x5f, 0xd7, 0x33, 0x3e, 0x1d, 0x37, 0xbe, 0xbd, 
  0x43, 0x93, 0x28, 0x3d, 0x62, 0x15, 0x25, 0xbe, 0x71, 0x07, 0x94, 0xbc, 
  0x46, 0x95, 0x5e, 0x3e, 0x89, 0x17, 0x64, 0xbe, 0x2e, 0xa1, 0x23, 0x3e, 
  0x68, 0xf6, 0x37, 0x3d, 0x43, 0xd4, 0x11, 0xbe, 0x78, 0x39, 0x5e, 0x3b, 
  0x1a, 0x4b, 0xd9, 0x3d, 0xba, 0x06, 0x06, 0xbc, 0xd8, 0x2c, 0x55, 0xbe, 
  0xf9, 0x3d, 0x17, 0xbe, 0x33, 0xce, 0x84, 0x3e, 0xc1, 0xbd, 0xf6, 0xbc, 
  0x36, 0x02, 0xf1, 0x3d, 0xb4, 0x60, 0x44, 0x3e, 0x04, 0x12, 0x6c, 0x3c, 
  0x2f, 0x5b, 0xa0, 0xbd, 0xbb, 0xe0, 0xaa, 0x3d, 0xd5, 0xed, 0x37, 0x3e, 
  0x98, 0x8d, 0x73, 0xbc, 0x77, 0xe9, 0x32, 0xbe, 0x3c, 0x9c, 0x76, 0xbb, 
  0xbc, 0xe2, 0x42, 0xbe, 0xdd, 0xd8, 0x1c, 0xbe, 0xee, 0x14, 0x54, 0x3e, 
  0xe2, 0xc5, 0x50, 0xbe, 0xeb, 0x09, 0x72, 0xbe, 0xc6, 0xe7, 0x3e, 0x3e, 
  0x35, 0x0a, 0x1e, 0xbe, 0x64, 0x57, 0x2c, 0xbd, 0x46, 0x7f, 0xa3, 0xbd, 
  0x5a, 0xa1, 0x64, 0x3e, 0xe0, 0x57, 0x60, 0x3e, 0xbb, 0x7a, 0x4f, 0xbe, 
  0x04, 0x5e, 0x31, 0x3e, 0x5d, 0x44, 0xec, 0x3c, 0x06, 0x44, 0x36, 0xbe, 
  0x0f, 0xa3, 0x85, 0xbe, 0xd4, 0x96, 0xf7, 0xbd, 0xf0, 0xdd, 0xfe, 0xbd, 
  0x7d, 0x44, 0x9d, 0xbd, 0x82, 0xaa, 0x26, 0x3e, 0xce, 0x99, 0xf8, 0xbd, 
  0xdd, 0xcd, 0x84, 0x3e, 0xb3, 0x2c, 0xed, 0x3d, 0x0c, 0x86, 0x2d, 0x3e, 
  0xd5, 0x6a, 0x46, 0x3d, 0xc6, 0xef, 0x3f, 0xbe, 0x67, 0x87, 0xff, 0x3d, 
  0x92, 0x7a, 0xf1, 0x3d, 0x48, 0xe8, 0xb7, 0xbd, 0x2d, 0x14, 0x90, 0x3e, 
  0x06, 0xdc, 0x1a, 0x3e, 0xbc, 0xd3, 0x6c, 0x3d, 0x07, 0x2d, 0x82, 0x3e, 
  0x4c, 0x9b, 0x1b, 0xbe, 0x12, 0x38, 0x68, 0xbd, 0x16, 0x2b, 0x00, 0x3e, 
  0x31, 0xa8, 0x4e, 0x3e, 0x11, 0x88, 0x63, 0x3e, 0x1e, 0x72, 0x10, 0xbe, 
  0x8d, 0xaf, 0x10, 0xbe, 0x12, 0x9c, 0x5a, 0x3e, 0x2d, 0xd4, 0x38, 0x3e, 
  0x03, 0xa1, 0x02, 0x3e, 0xac, 0x39, 0xac, 0x3d, 0x97, 0x53, 0x42, 0x3e, 
  0x7f, 0x89, 0x73, 0xbd, 0xe5, 0x8d, 0x49, 0x3e, 0xd0, 0x64, 0x34, 0x3c, 
  0x25, 0xb8, 0x22, 0xbb, 0xbc, 0xd2, 0x7e, 0x3e, 0xbe, 0x1f, 0x89, 0xbd, 
  0x56, 0xe0, 0xa5, 0x3d, 0x73, 0x98, 0xa1, 0x3e, 0x82, 0x34, 0x20, 0xbe, 
  0xa1, 0xd8, 0xd7, 0xbd, 0x8a, 0x50, 0x3b, 0x3e, 0x1f, 0xeb, 0x53, 0x3c, 
  0x50, 0x12, 0x2c, 0x3c, 0x2c, 0x74, 0x36, 0x3e, 0xd1, 0xe8, 0x1a, 0x3e, 
  0xc1, 0x74, 0x53, 0xbe, 0x4a, 0xc7, 0x73, 0xbe, 0x37, 0x54, 0xfb, 0x3d, 
  0x38, 0xb2, 0x80, 0x3d, 0xa6, 0x0f, 0x5e, 0x3e, 0x80, 0x5f, 0xb1, 0x3d, 
  0x6d, 0xc3, 0x07, 0xbe, 0xdb, 0x48, 0x76, 0x3e, 0x16, 0x11, 0x86, 0x3e, 
  0x64, 0xbe, 0xa9, 0xbc, 0x2a, 0x35, 0xca, 0x3c, 0x88, 0x5a, 0xc0, 0xbc, 
  0x9f, 0xf5, 0xab, 0xbd, 0xb0, 0x7e, 0x65, 0x3e, 0xc1, 0x6f, 0x04, 0x3e, 
  0x3f, 0xd1, 0x45, 0xbe, 0xb1, 0x07, 0x1a, 0x3e, 0x39, 0x83, 0x5c, 0x3e, 
  0xa3, 0x3d, 0xd4, 0x3c, 0x68, 0x00, 0x6c, 0x3c, 0x86, 0x2e, 0x5e, 0xbc, 
  0x4a, 0xf9, 0x8f, 0xbd, 0xfe, 0x44, 0x1c, 0x3e, 0xbf, 0xfc, 0x54, 0x3e, 
  0x20, 0x5f, 0x8e, 0x3e, 0xf3, 0x95, 0x13, 0x3e, 0xfe, 0x11, 0x90, 0x3e, 
  0x98, 0x3c, 0xb5, 0xbb, 0x6f, 0xfa, 0x25, 0xbd, 0x32, 0x53, 0x43, 0xbe, 
  0x04, 0xd8, 0x72, 0x3e, 0xe5, 0x7f, 0x28, 0x3e, 0xf5, 0x01, 0x2f, 0x3e, 
  0x18, 0xbb, 0x1d, 0x3d, 0x3f, 0x59, 0x58, 0x3e, 0xcd, 0xcb, 0x3b, 0xbe, 
  0xbb, 0x6b, 0x56, 0xbe, 0x09, 0x63, 0xab, 0xbd, 0x0c, 0x66, 0x34, 0x3e, 
  0x23, 0xd4, 0xad, 0xbc, 0x0c, 0xfd, 0xb8, 0xbd, 0xa9, 0x2a, 0x34, 0xbd, 
  0x7e, 0xb4, 0x2b, 0x3e, 0x4f, 0x40, 0x3c, 0xbe, 0xa2, 0xe6, 0x20, 0x3d, 
  0x22, 0xdc, 0xa8, 0x3d, 0x60, 0x0b, 0x56, 0x3e, 0x7e, 0x09, 0x90, 0xbd, 
  0xcf, 0x25, 0x8f, 0x3e, 0xaa, 0xda, 0x68, 0xbe, 0xb1, 0x28, 0x20, 0x3e, 
  0x1c, 0x59, 0x18, 0xbe, 0x14, 0xf5, 0x0f, 0xbe, 0x0d, 0xc4, 0x9e, 0x3e, 
  0x19, 0xc2, 0x99, 0xbd, 0x2a, 0x55, 0xd6, 0x3d, 0x05, 0xd7, 0x8f, 0xbd, 
  0x21, 0xdd, 0x0f, 0xbd, 0x42, 0x47, 0xac, 0x3d, 0x14, 0xf4, 0x57, 0xbe, 
  0x8d, 0x1d, 0xaf, 0x3d, 0xc6, 0x2d, 0x46, 0xbe, 0xbb, 0x5b, 0x51, 0x3d, 
  0x69, 0x3b, 0x5f, 0xbe, 0xaf, 0xa1, 0x57, 0xbe, 0xd7, 0xff, 0x00, 0x3e, 
  0x32, 0xb9, 0x2f, 0x3e, 0xe2, 0x5c, 0x13, 0xbe, 0x52, 0x87, 0x80, 0x3e, 
  0x50, 0xad, 0x00, 0x3e, 0x26, 0x8a, 0x05, 0x3e, 0xe9, 0xe8, 0xb7, 0x3d, 
  0x1c, 0x37, 0x66, 0x3d, 0xdd, 0xa7, 0x56, 0xbe, 0x1e, 0xbc, 0xd8, 0x3d, 
  0xa1, 0xeb, 0x99, 0xbd, 0x0f, 0xde, 0x04, 0xbe, 0xba, 0x66, 0x04, 0x3e, 
  0xe9, 0x71, 0x06, 0x3e, 0xc8, 0x29, 0xb6, 0xbd, 0x51, 0x39, 0x36, 0x3e, 
  0xf5, 0xc6, 0x47, 0x3e, 0x9c, 0xb3, 0x6f, 0x3d, 0xca, 0x71, 0x3c, 0x3e, 
  0x91, 0x7b, 0xf9, 0xbd, 0xdf, 0x3f, 0xcf, 0xbd, 0x14, 0x43, 0x9f, 0xbd, 
  0xfc, 0x7b, 0x6f, 0x3e, 0xbd, 0xb0, 0xf3, 0xbd, 0xbf, 0xa4, 0x32, 0x3d, 
  0xbe, 0x2a, 0xa5, 0x3d, 0xf9, 0xcc, 0xfc, 0x3d, 0x7d, 0xec, 0xda, 0x3d, 
  0x49, 0xd9, 0x1b, 0xbe, 0xd5, 0x1e, 0x90, 0xbd, 0x18, 0x51, 0x34, 0xbc, 
  0x03, 0xa3, 0x01, 0xbe, 0xc5, 0xd1, 0x6f, 0xbe, 0xa7, 0x47, 0x1f, 0x3e, 
  0x8f, 0x21, 0x79, 0xbe, 0x02, 0x43, 0x78, 0xbe, 0x1f, 0x7a, 0x16, 0xbd, 
  0x59, 0xd6, 0xc3, 0xbd, 0x70, 0x52, 0x3e, 0x3e, 0x9e, 0x08, 0x35, 0x3e, 
  0xec, 0x47, 0x1b, 0xbe, 0x56, 0x7d, 0x36, 0x3d, 0x01, 0xa1, 0x90, 0xbd, 
  0xb8, 0x59, 0x8a, 0x3c, 0x4c, 0x41, 0xfe, 0x3d, 0xf7, 0xe5, 0x42, 0xbd, 
  0xd0, 0x72, 0x15, 0x3e, 0x65, 0xa8, 0x07, 0x3e, 0x9d, 0xd0, 0x57, 0xbe, 
  0x0e, 0xba, 0x5c, 0x3e, 0xc8, 0x94, 0x08, 0x3e, 0xa2, 0x3d, 0xfa, 0xbc, 
  0x2e, 0x54, 0xae, 0x3d, 0x40, 0xc4, 0x32, 0xbd, 0x06, 0x29, 0x5c, 0xbd, 
  0xa1, 0xe7, 0x21, 0xbe, 0x0d, 0x69, 0xa3, 0xbd, 0xbc, 0xc8, 0x52, 0xbe, 
  0x6a, 0xdb, 0x1b, 0xbb, 0x96, 0x9c, 0xab, 0xbd, 0xe9, 0xe1, 0xcf, 0x3d, 
  0xa2, 0xd0, 0xd6, 0x3d, 0xf8, 0x6a, 0x30, 0xbe, 0xc2, 0xfc, 0x47, 0xbe, 
  0xce, 0x7d, 0x3a, 0x3e, 0x48, 0x97, 0x23, 0x3d, 0x4c, 0xab, 0x14, 0x3e, 
  0x98, 0x26, 0x58, 0xbc, 0xfd, 0x86, 0x4b, 0xbe, 0xbb, 0xb5, 0x10, 0xbe, 
  0xba, 0xe0, 0xd1, 0x3d, 0xe8, 0xa2, 0xaf, 0xbb, 0x71, 0x81, 0x10, 0xbe, 
  0x7b, 0xc9, 0xa1, 0x3d, 0x80, 0x7e, 0x87, 0xbe, 0x21, 0x7d, 0xfd, 0xbd, 
  0x54, 0x51, 0xe5, 0x3d, 0x50, 0x92, 0x63, 0xbe, 0xff, 0x32, 0x3a, 0xbd, 
  0x11, 0x68, 0xe7, 0xbd, 0x3c, 0x0f, 0x1c, 0x3e, 0xc8, 0x98, 0x4b, 0xbe, 
  0x50, 0x9e, 0x61, 0xbe, 0x02, 0xf2, 0x42, 0xbe, 0x9a, 0xee, 0x95, 0xbd, 
  0x9c, 0xd0, 0x3b, 0xbe, 0xb8, 0x8c, 0xc6, 0x3d, 0x87, 0xd0, 0x2c, 0xbd, 
  0x66, 0xe1, 0x8b, 0xbe, 0x4c, 0x10, 0xfb, 0xbb, 0x83, 0xbc, 0x58, 0xbe, 
  0xe9, 0x30, 0x3e, 0x3e, 0x3c, 0xbb, 0x6e, 0x3d, 0xf3, 0x58, 0x33, 0xbd, 
  0x04, 0x96, 0x12, 0x3e, 0x00, 0xdb, 0x5d, 0x3e, 0x57, 0x11, 0x7f, 0xbe, 
  0x13, 0xe2, 0xb4, 0x3d, 0xd4, 0x30, 0x6c, 0x3e, 0x75, 0x60, 0x80, 0x3e, 
  0xa0, 0x6c, 0x45, 0xbe, 0x57, 0xb0, 0xb8, 0xbc, 0x30, 0xc8, 0xdd, 0xbd, 
  0x1c, 0xc7, 0x6d, 0xbd, 0x7a, 0x8c, 0x60, 0x3e, 0x6f, 0x9b, 0x8e, 0xbd, 
  0x21, 0x0d, 0x70, 0xbc, 0xa3, 0x5b, 0xee, 0xbd, 0xbc, 0x40, 0x36, 0x3e, 
  0xfc, 0x2b, 0xe2, 0x3d, 0x3c, 0x88, 0x4e, 0xbe, 0xb9, 0xaf, 0x59, 0x3e, 
  0x0d, 0x56, 0xa9, 0xbd, 0xbc, 0xe1, 0x0b, 0x3d, 0xf6, 0xbe, 0x3b, 0x3e, 
  0x8c, 0xfb, 0x41, 0x3e, 0x9b, 0xce, 0x70, 0x3d, 0x40, 0xc8, 0xf3, 0xbd, 
  0x46, 0xb2, 0x0c, 0x3e, 0xfb, 0xad, 0x19, 0xbe, 0x81, 0x15, 0x15, 0x3e, 
  0x87, 0x70, 0x47, 0xbd, 0x55, 0x8a, 0x5b, 0x3e, 0x65, 0x51, 0xad, 0x3c, 
  0xa8, 0x23, 0x95, 0x3e, 0xf5, 0x4e, 0xfd, 0xbd, 0x56, 0xce, 0xf0, 0x3d, 
  0x9d, 0xa7, 0x4f, 0x3e, 0x75, 0xd0, 0x6d, 0xbe, 0x87, 0x34, 0x35, 0xbe, 
  0x93, 0xb8, 0x66, 0xbe, 0x0e, 0x7b, 0x0f, 0xbe, 0xc4, 0x74, 0x88, 0x3d, 
  0x71, 0x64, 0x09, 0x3e, 0xff, 0xd1, 0x0a, 0x3e, 0x22, 0x8f, 0x12, 0x3b, 
  0x10, 0x7b, 0x38, 0xbd, 0x17, 0xa8, 0x91, 0xbd, 0x9d, 0x09, 0x37, 0xbe, 
  0x62, 0x6d, 0x24, 0xbe, 0xdc, 0x5a, 0x82, 0xbd, 0xc8, 0x68, 0xef, 0xbd, 
  0x50, 0xcf, 0x6a, 0x3e, 0x44, 0x9f, 0x0f, 0x3e, 0xd9, 0x8a, 0x79, 0x3d, 
  0x39, 0x19, 0xa3, 0x3d, 0x94, 0x0f, 0x81, 0xbe, 0x06, 0xfd, 0xc0, 0xbd, 
  0x27, 0xbc, 0x44, 0x3d, 0xf0, 0x61, 0x3d, 0xbe, 0x24, 0x13, 0x2d, 0xbe, 
  0xa4, 0xec, 0x05, 0xbe, 0xc2, 0x16, 0x22, 0xbe, 0x10, 0xf3, 0xa8, 0x3c, 
  0x9d, 0xd7, 0xe6, 0x3c, 0x97, 0x23, 0x51, 0xbe, 0x06, 0x05, 0x02, 0x3e, 
  0x17, 0x39, 0x5e, 0x3e, 0xc0, 0x62, 0x65, 0xbe, 0x88, 0xe4, 0x79, 0xbe, 
  0xfa, 0xcc, 0x0d, 0xbe, 0x4b, 0x77, 0x5b, 0xbd, 0x67, 0xf8, 0x0e, 0x3e, 
  0x7d, 0xa8, 0x89, 0x3d, 0xb3, 0x93, 0x49, 0xbd, 0x64, 0xcb, 0xb4, 0x3d, 
  0xd5, 0x89, 0x65, 0xbe, 0xab, 0x80, 0x6e, 0x3e, 0x48, 0xff, 0xb7, 0x3d, 
  0x39, 0x29, 0xfa, 0x3d, 0x9b, 0x98, 0x64, 0x3e, 0x65, 0xc6, 0xb0, 0x3d, 
  0x47, 0x8e, 0x23, 0x3d, 0x3f, 0xbf, 0xa8, 0xbd, 0xe1, 0x8e, 0x85, 0x3e, 
  0x2f, 0x00, 0x55, 0xbe, 0x1d, 0x69, 0xbe, 0x3d, 0x81, 0x87, 0xa6, 0xbd, 
  0x55, 0x32, 0xf3, 0x3d, 0x29, 0x99, 0xfd, 0xbd, 0x90, 0xbb, 0x5e, 0xbe, 
  0xe0, 0xc4, 0x57, 0xbd, 0x90, 0x3d, 0x85, 0xbc, 0x28, 0x54, 0x79, 0xbe, 
  0x8a, 0x3c, 0x5b, 0x3e, 0x72, 0xfe, 0xd4, 0x3d, 0x12, 0xea, 0x48, 0xbe, 
  0x0e, 0x12, 0x92, 0x3e, 0xb6, 0x18, 0xe6, 0x3d, 0x73, 0x08, 0x6a, 0x3e, 
  0x04, 0xa0, 0xcb, 0xbd, 0xb6, 0x1f, 0xd1, 0xbd, 0x57, 0x07, 0x04, 0xbe, 
  0x12, 0xa5, 0x19, 0x3e, 0x51, 0xea, 0x7e, 0xbe, 0x38, 0x1c, 0xf8, 0x3c, 
  0xf1, 0xb1, 0x15, 0x3d, 0x09, 0xf8, 0x43, 0xbc, 0x96, 0x9b, 0x68, 0xbe, 
  0xe9, 0xe4, 0x53, 0x3b, 0x99, 0xd4, 0x67, 0x3e, 0x7a, 0x83, 0x5e, 0x3e, 
  0x0c, 0x6f, 0x65, 0x3e, 0xdb, 0x12, 0x36, 0xbe, 0xdc, 0x1d, 0x5a, 0xbe, 
  0x30, 0xd0, 0x4f, 0xbe, 0xa3, 0xa4, 0xd1, 0xbb, 0x88, 0x4d, 0x01, 0x3e, 
  0x75, 0x7d, 0x38, 0xbe, 0x7c, 0x50, 0x86, 0x3d, 0x2d, 0xfd, 0xae, 0x3d, 
  0xbc, 0x83, 0x6b, 0x3e, 0x35, 0x79, 0x9f, 0x3c, 0x6e, 0xcd, 0x33, 0xbd, 
  0x38, 0x4e, 0xae, 0x3d, 0x75, 0xf1, 0x04, 0x3e, 0x4c, 0x94, 0x43, 0x3e, 
  0xa8, 0x22, 0x21, 0xbe, 0x9f, 0x8c, 0xb3, 0x3d, 0x48, 0x1b, 0x86, 0x3e, 
  0x5e, 0xfd, 0xff, 0xff, 0x04, 0x00, 0x00, 0x00, 0x00, 0x02, 0x00, 0x00, 
  0x93, 0xf5, 0x7d, 0x3e, 0x69, 0xb5, 0xdc, 0xbe, 0x89, 0xa3, 0x2b, 0x3e, 
  0x00, 0x31, 0xac, 0x3e, 0xec, 0x06, 0xad, 0xbe, 0x7f, 0x23, 0x12, 0xbe, 
  0xb0, 0x61, 0x34, 0xbe, 0xec, 0x7b, 0x1a, 0xbe, 0x4f, 0x1a, 0x32, 0x3d, 
  0x73, 0x50, 0x8b, 0x3d, 0x80, 0x4c, 0x30, 0xbe, 0x18, 0x65, 0xdd, 0xbd, 
  0xfd, 0x00, 0x66, 0x3e, 0xe0, 0x09, 0x7a, 0xbe, 0x38, 0xcd, 0x90, 0x3e, 
  0x71, 0x3a, 0x9c, 0x3e, 0xb7, 0x11, 0xdf, 0xbd, 0xe0, 0x02, 0xa5, 0xbe, 
  0x54, 0xb6, 0x98, 0x3e, 0x50, 0x9f, 0x04, 0xbe, 0x59, 0x15, 0xf0, 0xbd, 
  0xad, 0xcf, 0x95, 0xbe, 0x7a, 0x23, 0xd2, 0x3c, 0xb0, 0x6f, 0xa4, 0x3c, 
  0x20, 0x20, 0xa9, 0x3e, 0x33, 0x9e, 0xac, 0x3c, 0x73, 0x5b, 0x00, 0x3e, 
  0xf6, 0xbd, 0x0d, 0xbd, 0xee, 0x4e, 0x9f, 0xbe, 0x0a, 0x5e, 0x34, 0xbe, 
  0x2f, 0xf9, 0xc5, 0xbd, 0x9e, 0xe3, 0xca, 0x3e, 0xbc, 0x07, 0x3f, 0xbd, 
  0xb2, 0xf5, 0xa4, 0xbe, 0x0a, 0x25, 0xba, 0xbe, 0xc5, 0x71, 0xdc, 0x3e, 
  0x98, 0x24, 0xd9, 0x3d, 0xc5, 0xaf, 0xdd, 0x3d, 0x76, 0xee, 0x75, 0xbe, 
  0x2c, 0x6f, 0x95, 0x3e, 0x8e, 0xd3, 0x2e, 0x3d, 0xad, 0xdf, 0x07, 0x3e, 
  0xc8, 0xd1, 0xbb, 0xbd, 0xbd, 0xf2, 0x97, 0x3e, 0x18, 0x95, 0xc6, 0x3e, 
  0xa4, 0x02, 0x40, 0x3d, 0x51, 0xd4, 0xae, 0xbd, 0x80, 0x69, 0x14, 0x3e, 
  0x88, 0x91, 0xd6, 0x3e, 0xed, 0x4e, 0xa0, 0xbe, 0x62, 0x58, 0x6b, 0xbe, 
  0xd4, 0x71, 0x49, 0xbd, 0xfd, 0xef, 0xf4, 0x3d, 0x4f, 0xc1, 0x78, 0xbc, 
  0xd2, 0x24, 0x62, 0xbe, 0x1e, 0x8f, 0xca, 0xbd, 0x4b, 0x5b, 0x22, 0xbe, 
  0x58, 0x9a, 0xfe, 0x3c, 0xae, 0x47, 0x4c, 0xbe, 0xd8, 0xec, 0xe6, 0x3e, 
  0xe7, 0x71, 0xcf, 0x3e, 0x3a, 0x8e, 0xa1, 0xbe, 0x89, 0xea, 0xa1, 0x3e, 
  0x9a, 0xb7, 0x16, 0xbe, 0x79, 0xf9, 0xa4, 0x3e, 0x88, 0x4c, 0x33, 0xbe, 
  0x25, 0x56, 0xc7, 0xbe, 0x32, 0x48, 0xa7, 0xbe, 0x09, 0x2c, 0xa0, 0xbc, 
  0x8a, 0x53, 0x9c, 0x3e, 0xd7, 0xce, 0x30, 0x3e, 0xb3, 0x3a, 0x45, 0x3e, 
  0xf1, 0xf1, 0xba, 0x3e, 0x91, 0xf2, 0xdb, 0xbe, 0xac, 0x67, 0xcf, 0x3c, 
  0xdb, 0x93, 0xe8, 0x3c, 0x70, 0xf9, 0x92, 0xbe, 0x8d, 0x32, 0xc9, 0xbe, 
  0x2e, 0x4b, 0x4a, 0xbe, 0x96, 0x7c, 0x68, 0x3e, 0x79, 0xd9, 0xa8, 0xbe, 
  0xfe, 0x1f, 0xe6, 0x3d, 0xf5, 0x11, 0x05, 0xbf, 0x5b, 0x3a, 0x3a, 0xbe, 
  0x6d, 0x51, 0x88, 0xbd, 0x2c, 0xec, 0x9b, 0x3e, 0x89, 0x05, 0x05, 0xbf, 
  0x9b, 0xa9, 0xe9, 0xbe, 0xc7, 0x56, 0xd9, 0xbe, 0xe3, 0x73, 0x1a, 0x3e, 
  0xa4, 0x0c, 0x98, 0xbe, 0x82, 0xf4, 0xb4, 0xbe, 0xbd, 0x71, 0x8d, 0xbd, 
  0xe8, 0x89, 0x18, 0xbe, 0x1e, 0x4c, 0x3f, 0x3e, 0xa8, 0xc1, 0x6a, 0xbd, 
  0x9f, 0xc1, 0x05, 0xbf, 0x30, 0x7c, 0x80, 0x3d, 0x90, 0xaf, 0xe2, 0x3d, 
  0xd7, 0x22, 0x28, 0x3e, 0x5a, 0x31, 0x97, 0x3e, 0xbb, 0x4c, 0xa4, 0x3e, 
  0x30, 0x01, 0xbd, 0x3e, 0x0b, 0xd8, 0xd4, 0xbe, 0x63, 0x07, 0x3f, 0x3e, 
  0x86, 0x7d, 0x09, 0xbf, 0x12, 0x75, 0xe5, 0xbe, 0xa4, 0xca, 0xf5, 0xbe, 
  0x35, 0x46, 0x1b, 0x3d, 0xf9, 0x97, 0x93, 0xbe, 0xee, 0xf6, 0x8f, 0x3e, 
  0xb3, 0xd0, 0x22, 0x3e, 0x48, 0xa2, 0x91, 0xbe, 0x0e, 0x6b, 0xdc, 0x3b, 
  0x81, 0xad, 0x02, 0xbf, 0x9e, 0xb2, 0x78, 0xbe, 0xf1, 0x22, 0x36, 0xbe, 
  0xed, 0x72, 0x04, 0xbf, 0xc3, 0xa7, 0xef, 0xbe, 0x40, 0x72, 0xdd, 0xbe, 
  0x28, 0xd9, 0xc5, 0xbd, 0xa1, 0xbb, 0xb0, 0x3e, 0xe6, 0x73, 0x65, 0xbe, 
  0xf0, 0x4d, 0x11, 0xbe, 0xb4, 0xd4, 0x9e, 0xbe, 0xe3, 0xaa, 0x5f, 0xbd, 
  0x6b, 0x1f, 0x33, 0x3e, 0x5a, 0xef, 0x65, 0xbe, 0x64, 0xfa, 0xff, 0xff, 
  0x68, 0xfa, 0xff, 0xff, 0x0f, 0x00, 0x00, 0x00, 0x4d, 0x4c, 0x49, 0x52, 
  0x20, 0x43, 0x6f, 0x6e, 0x76, 0x65, 0x72, 0x74, 0x65, 0x64, 0x2e, 0x00, 
  0x01, 0x00, 0x00, 0x00, 0x14, 0x00, 0x00, 0x00, 0x00, 0x00, 0x0e, 0x00, 
  0x18, 0x00, 0x14, 0x00, 0x10, 0x00, 0x0c, 0x00, 0x08, 0x00, 0x04, 0x00, 
  0x0e, 0x00, 0x00, 0x00, 0x14, 0x00, 0x00, 0x00, 0x1c, 0x00, 0x00, 0x00, 
  0x24, 0x01, 0x00, 0x00, 0x28, 0x01, 0x00, 0x00, 0x2c, 0x01, 0x00, 0x00, 
  0x04, 0x00, 0x00, 0x00, 0x6d, 0x61, 0x69, 0x6e, 0x00, 0x00, 0x00, 0x00, 
  0x04, 0x00, 0x00, 0x00, 0xcc, 0x00, 0x00, 0x00, 0x84, 0x00, 0x00, 0x00, 
  0x50, 0x00, 0x00, 0x00, 0x14, 0x00, 0x00, 0x00, 0x00, 0x00, 0x0e, 0x00, 
  0x1a, 0x00, 0x14, 0x00, 0x10, 0x00, 0x0c, 0x00, 0x0b, 0x00, 0x04, 0x00, 
  0x0e, 0x00, 0x00, 0x00, 0x1c, 0x00, 0x00, 0x00, 0x00, 0x00, 0x00, 0x09, 
  0x1c, 0x00, 0x00, 0x00, 0x20, 0x00, 0x00, 0x00, 0x01, 0x00, 0x00, 0x00, 
  0x00, 0x00, 0x06, 0x00, 0x08, 0x00, 0x04, 0x00, 0x06, 0x00, 0x00, 0x00, 
  0x00, 0x00, 0x80, 0x3f, 0x01, 0x00, 0x00, 0x00, 0x0a, 0x00, 0x00, 0x00, 
  0x01, 0x00, 0x00, 0x00, 0x09, 0x00, 0x00, 0x00, 0x9a, 0xff, 0xff, 0xff, 
  0x10, 0x00, 0x00, 0x00, 0x00, 0x00, 0x00, 0x08, 0x0c, 0x00, 0x00, 0x00, 
  0x10, 0x00, 0x00, 0x00, 0x2c, 0xfb, 0xff, 0xff, 0x01, 0x00, 0x00, 0x00, 
  0x09, 0x00, 0x00, 0x00, 0x03, 0x00, 0x00, 0x00, 0x08, 0x00, 0x00, 0x00, 
  0x01, 0x00, 0x00, 0x00, 0x03, 0x00, 0x00, 0x00, 0xca, 0xff, 0xff, 0xff, 
  0x10, 0x00, 0x00, 0x00, 0x00, 0x00, 0x00, 0x08, 0x10, 0x00, 0x00, 0x00, 
  0x14, 0x00, 0x00, 0x00, 0xba, 0xff, 0xff, 0xff, 0x00, 0x00, 0x00, 0x01, 
  0x01, 0x00, 0x00, 0x00, 0x08, 0x00, 0x00, 0x00, 0x03, 0x00, 0x00, 0x00, 
  0x07, 0x00, 0x00, 0x00, 0x02, 0x00, 0x00, 0x00, 0x04, 0x00, 0x00, 0x00, 
  0x00, 0x00, 0x0e, 0x00, 0x16, 0x00, 0x00, 0x00, 0x10, 0x00, 0x0c, 0x00, 
  0x0b, 0x00, 0x04, 0x00, 0x0e, 0x00, 0x00, 0x00, 0x18, 0x00, 0x00, 0x00, 
  0x00, 0x00, 0x00, 0x08, 0x18, 0x00, 0x00, 0x00, 0x1c, 0x00, 0x00, 0x00, 
  0x00, 0x00, 0x06, 0x00, 0x08, 0x00, 0x07, 0x00, 0x06, 0x00, 0x00, 0x00, 
  0x00, 0x00, 0x00, 0x01, 0x01, 0x00, 0x00, 0x00, 0x07, 0x00, 0x00, 0x00, 
  0x03, 0x00, 0x00, 0x00, 0x00, 0x00, 0x00, 0x00, 0x06, 0x00, 0x00, 0x00, 
  0x05, 0x00, 0x00, 0x00, 0x01, 0x00, 0x00, 0x00, 0x0a, 0x00, 0x00, 0x00, 
  0x01, 0x00, 0x00, 0x00, 0x00, 0x00, 0x00, 0x00, 0x0b, 0x00, 0x00, 0x00, 
  0xfc, 0x03, 0x00, 0x00, 0xa4, 0x03, 0x00, 0x00, 0x4c, 0x03, 0x00, 0x00, 
  0x10, 0x03, 0x00, 0x00, 0xb4, 0x02, 0x00, 0x00, 0x5c, 0x02, 0x00, 0x00, 
  0x10, 0x02, 0x00, 0x00, 0x7c, 0x01, 0x00, 0x00, 0xe0, 0x00, 0x00, 0x00, 
  0x60, 0x00, 0x00, 0x00, 0x04, 0x00, 0x00, 0x00, 0x46, 0xfc, 0xff, 0xff, 
  0x00, 0x00, 0x00, 0x01, 0x14, 0x00, 0x00, 0x00, 0x1c, 0x00, 0x00, 0x00, 
  0x1c, 0x00, 0x00, 0x00, 0x0b, 0x00, 0x00, 0x00, 0x34, 0x00, 0x00, 0x00, 
  0x02, 0x00, 0x00, 0x00, 0xff, 0xff, 0xff, 0xff, 0x04, 0x00, 0x00, 0x00, 
  0x30, 0xfc, 0xff, 0xff, 0x1b, 0x00, 0x00, 0x00, 0x53, 0x74, 0x61, 0x74, 
  0x65, 0x66, 0x75, 0x6c, 0x50, 0x61, 0x72, 0x74, 0x69, 0x74, 0x69, 0x6f, 
  0x6e, 0x65, 0x64, 0x43, 0x61, 0x6c, 0x6c, 0x5f, 0x31, 0x3a, 0x30, 0x00, 
  0x02, 0x00, 0x00, 0x00, 0x01, 0x00, 0x00, 0x00, 0x04, 0x00, 0x00, 0x00, 
  0x9e, 0xfc, 0xff, 0xff, 0x00, 0x00, 0x00, 0x01, 0x14, 0x00, 0x00, 0x00, 
  0x1c, 0x00, 0x00, 0x00, 0x1c, 0x00, 0x00, 0x00, 0x0a, 0x00, 0x00, 0x00, 
  0x58, 0x00, 0x00, 0x00, 0x02, 0x00, 0x00, 0x00, 0xff, 0xff, 0xff, 0xff, 
  0x04, 0x00, 0x00, 0x00, 0x88, 0xfc, 0xff, 0xff, 0x3c, 0x00, 0x00, 0x00, 
  0x73, 0x65, 0x71, 0x75, 0x65, 0x6e, 0x74, 0x69, 0x61, 0x6c, 0x5f, 0x31, 
  0x2f, 0x64, 0x65, 0x6e, 0x73, 0x65, 0x5f, 0x32, 0x5f, 0x31, 0x2f, 0x4d, 
  0x61, 0x74, 0x4d, 0x75, 0x6c, 0x3b, 0x73, 0x65, 0x71, 0x75, 0x65, 0x6e, 
  0x74, 0x69, 0x61, 0x6c, 0x5f, 0x31, 0x2f, 0x64, 0x65, 0x6e, 0x73, 0x65, 
  0x5f, 0x32, 0x5f, 0x31, 0x2f, 0x42, 0x69, 0x61, 0x73, 0x41, 0x64, 0x64, 
  0x00, 0x00, 0x00, 0x00, 0x02, 0x00, 0x00, 0x00, 0x01, 0x00, 0x00, 0x00, 
  0x04, 0x00, 0x00, 0x00, 0x1a, 0xfd, 0xff, 0xff, 0x00, 0x00, 0x00, 0x01, 
  0x14, 0x00, 0x00, 0x00, 0x1c, 0x00, 0x00, 0x00, 0x1c, 0x00, 0x00, 0x00, 
  0x09, 0x00, 0x00, 0x00, 0x74, 0x00, 0x00, 0x00, 0x02, 0x00, 0x00, 0x00, 
  0xff, 0xff, 0xff, 0xff, 0x20, 0x00, 0x00, 0x00, 0x04, 0xfd, 0xff, 0xff, 
  0x58, 0x00, 0x00, 0x00, 0x73, 0x65, 0x71, 0x75, 0x65, 0x6e, 0x74, 0x69, 
  0x61, 0x6c, 0x5f, 0x31, 0x2f, 0x64, 0x65, 0x6e, 0x73, 0x65, 0x5f, 0x31, 
  0x5f, 0x32, 0x2f, 0x4d, 0x61, 0x74, 0x4d, 0x75, 0x6c, 0x3b, 0x73, 0x65, 
  0x71, 0x75, 0x65, 0x6e, 0x74, 0x69, 0x61, 0x6c, 0x5f, 0x31, 0x2f, 0x64, 
  0x65, 0x6e, 0x73, 0x65, 0x5f, 0x31, 0x5f, 0x32, 0x2f, 0x52, 0x65, 0x6c, 
  0x75, 0x3b, 0x73, 0x65, 0x71, 0x75, 0x65, 0x6e, 0x74, 0x69, 0x61, 0x6c, 
  0x5f, 0x31, 0x2f, 0x64, 0x65, 0x6e, 0x73, 0x65, 0x5f, 0x31, 0x5f, 0x32, 
  0x2f, 0x42, 0x69, 0x61, 0x73, 0x41, 0x64, 0x64, 0x00, 0x00, 0x00, 0x00, 
  0x02, 0x00, 0x00, 0x00, 0x01, 0x00, 0x00, 0x00, 0x20, 0x00, 0x00, 0x00, 
  0xb2, 0xfd, 0xff, 0xff, 0x00, 0x00, 0x00, 0x01, 0x14, 0x00, 0x00, 0x00, 
  0x1c, 0x00, 0x00, 0x00, 0x1c, 0x00, 0x00, 0x00, 0x08, 0x00, 0x00, 0x00, 
  0x6c, 0x00, 0x00, 0x00, 0x02, 0x00, 0x00, 0x00, 0xff, 0xff, 0xff, 0xff, 
  0x40, 0x00, 0x00, 0x00, 0x9c, 0xfd, 0xff, 0xff, 0x52, 0x00, 0x00, 0x00, 
  0x73, 0x65, 0x71, 0x75, 0x65, 0x6e, 0x74, 0x69, 0x61, 0x6c, 0x5f, 0x31, 
  0x2f, 0x64, 0x65, 0x6e, 0x73, 0x65, 0x5f, 0x31, 0x2f, 0x4d, 0x61, 0x74, 
  0x4d, 0x75, 0x6c, 0x3b, 0x73, 0x65, 0x71, 0x75, 0x65, 0x6e, 0x74, 0x69, 
  0x61, 0x6c, 0x5f, 0x31, 0x2f, 0x64, 0x65, 0x6e, 0x73, 0x65, 0x5f, 0x31, 
  0x2f, 0x52, 0x65, 0x6c, 0x75, 0x3b, 0x73, 0x65, 0x71, 0x75, 0x65, 0x6e, 
  0x74, 0x69, 0x61, 0x6c, 0x5f, 0x31, 0x2f, 0x64, 0x65, 0x6e, 0x73, 0x65, 
  0x5f, 0x31, 0x2f, 0x42, 0x69, 0x61, 0x73, 0x41, 0x64, 0x64, 0x00, 0x00, 
  0x02, 0x00, 0x00, 0x00, 0x01, 0x00, 0x00, 0x00, 0x40, 0x00, 0x00, 0x00, 
  0x96, 0xfe, 0xff, 0xff, 0x00, 0x00, 0x00, 0x01, 0x10, 0x00, 0x00, 0x00, 
  0x10, 0x00, 0x00, 0x00, 0x07, 0x00, 0x00, 0x00, 0x28, 0x00, 0x00, 0x00, 
  0x1c, 0xfe, 0xff, 0xff, 0x1b, 0x00, 0x00, 0x00, 0x73, 0x65, 0x71, 0x75, 
  0x65, 0x6e, 0x74, 0x69, 0x61, 0x6c, 0x5f, 0x31, 0x2f, 0x64, 0x65, 0x6e, 
  0x73, 0x65, 0x5f, 0x31, 0x2f, 0x4d, 0x61, 0x74, 0x4d, 0x75, 0x6c, 0x00, 
  0x02, 0x00, 0x00, 0x00, 0x40, 0x00, 0x00, 0x00, 0x06, 0x00, 0x00, 0x00, 
  0xde, 0xfe, 0xff, 0xff, 0x00, 0x00, 0x00, 0x01, 0x10, 0x00, 0x00, 0x00, 
  0x10, 0x00, 0x00, 0x00, 0x06, 0x00, 0x00, 0x00, 0x38, 0x00, 0x00, 0x00, 
  0x64, 0xfe, 0xff, 0xff, 0x2b, 0x00, 0x00, 0x00, 0x73, 0x65, 0x71, 0x75, 
  0x65, 0x6e, 0x74, 0x69, 0x61, 0x6c, 0x5f, 0x31, 0x2f, 0x64, 0x65, 0x6e, 
  0x73, 0x65, 0x5f, 0x31, 0x2f, 0x42, 0x69, 0x61, 0x73, 0x41, 0x64, 0x64, 
  0x2f, 0x52, 0x65, 0x61, 0x64, 0x56, 0x61, 0x72, 0x69, 0x61, 0x62, 0x6c, 
  0x65, 0x4f, 0x70, 0x00, 0x01, 0x00, 0x00, 0x00, 0x40, 0x00, 0x00, 0x00, 
  0x32, 0xff, 0xff, 0xff, 0x00, 0x00, 0x00, 0x01, 0x10, 0x00, 0x00, 0x00, 
  0x10, 0x00, 0x00, 0x00, 0x05, 0x00, 0x00, 0x00, 0x3c, 0x00, 0x00, 0x00, 
  0xb8, 0xfe, 0xff, 0xff, 0x2d, 0x00, 0x00, 0x00, 0x73, 0x65, 0x71, 0x75, 
  0x65, 0x6e, 0x74, 0x69, 0x61, 0x6c, 0x5f, 0x31, 0x2f, 0x64, 0x65, 0x6e, 
  0x73, 0x65, 0x5f, 0x31, 0x5f, 0x32, 0x2f, 0x42, 0x69, 0x61, 0x73, 0x41, 
  0x64, 0x64, 0x2f, 0x52, 0x65, 0x61, 0x64, 0x56, 0x61, 0x72, 0x69, 0x61, 
  0x62, 0x6c, 0x65, 0x4f, 0x70, 0x00, 0x00, 0x00, 0x01, 0x00, 0x00, 0x00, 
  0x20, 0x00, 0x00, 0x00, 0x8a, 0xff, 0xff, 0xff, 0x00, 0x00, 0x00, 0x01, 
  0x10, 0x00, 0x00, 0x00, 0x10, 0x00, 0x00, 0x00, 0x04, 0x00, 0x00, 0x00, 
  0x1c, 0x00, 0x00, 0x00, 0x10, 0xff, 0xff, 0xff, 0x0f, 0x00, 0x00, 0x00, 
  0x61, 0x72, 0x69, 0x74, 0x68, 0x2e, 0x63, 0x6f, 0x6e, 0x73, 0x74, 0x61, 
  0x6e, 0x74, 0x32, 0x00, 0x01, 0x00, 0x00, 0x00, 0x04, 0x00, 0x00, 0x00, 
  0xc2, 0xff, 0xff, 0xff, 0x00, 0x00, 0x00, 0x01, 0x10, 0x00, 0x00, 0x00, 
  0x10, 0x00, 0x00, 0x00, 0x03, 0x00, 0x00, 0x00, 0x1c, 0x00, 0x00, 0x00, 
  0x48, 0xff, 0xff, 0xff, 0x0f, 0x00, 0x00, 0x00, 0x61, 0x72, 0x69, 0x74, 
  0x68, 0x2e, 0x63, 0x6f, 0x6e, 0x73, 0x74, 0x61, 0x6e, 0x74, 0x31, 0x00, 
  0x02, 0x00, 0x00, 0x00, 0x20, 0x00, 0x00, 0x00, 0x40, 0x00, 0x00, 0x00, 
  0x00, 0x00, 0x16, 0x00, 0x18, 0x00, 0x14, 0x00, 0x00, 0x00, 0x10, 0x00, 
  0x0c, 0x00, 0x08, 0x00, 0x00, 0x00, 0x00, 0x00, 0x00, 0x00, 0x07, 0x00, 
  0x16, 0x00, 0x00, 0x00, 0x00, 0x00, 0x00, 0x01, 0x10, 0x00, 0x00, 0x00, 
  0x10, 0x00, 0x00, 0x00, 0x02, 0x00, 0x00, 0x00, 0x1c, 0x00, 0x00, 0x00, 
  0x9c, 0xff, 0xff, 0xff, 0x0e, 0x00, 0x00, 0x00, 0x61, 0x72, 0x69, 0x74, 
  0x68, 0x2e, 0x63, 0x6f, 0x6e, 0x73, 0x74, 0x61, 0x6e, 0x74, 0x00, 0x00, 
  0x02, 0x00, 0x00, 0x00, 0x04, 0x00, 0x00, 0x00, 0x20, 0x00, 0x00, 0x00, 
  0x00, 0x00, 0x16, 0x00, 0x1c, 0x00, 0x18, 0x00, 0x00, 0x00, 0x14, 0x00, 
  0x10, 0x00, 0x0c, 0x00, 0x00, 0x00, 0x00, 0x00, 0x08, 0x00, 0x07, 0x00, 
  0x16, 0x00, 0x00, 0x00, 0x00, 0x00, 0x00, 0x01, 0x14, 0x00, 0x00, 0x00, 
  0x20, 0x00, 0x00, 0x00, 0x20, 0x00, 0x00, 0x00, 0x01, 0x00, 0x00, 0x00, 
  0x3c, 0x00, 0x00, 0x00, 0x02, 0x00, 0x00, 0x00, 0xff, 0xff, 0xff, 0xff, 
  0x06, 0x00, 0x00, 0x00, 0x04, 0x00, 0x04, 0x00, 0x04, 0x00, 0x00, 0x00, 
  0x1e, 0x00, 0x00, 0x00, 0x73, 0x65, 0x72, 0x76, 0x69, 0x6e, 0x67, 0x5f, 
  0x64, 0x65, 0x66, 0x61, 0x75, 0x6c, 0x74, 0x5f, 0x6b, 0x65, 0x72, 0x61, 
  0x73, 0x5f, 0x74, 0x65, 0x6e, 0x73, 0x6f, 0x72, 0x3a, 0x30, 0x00, 0x00, 
  0x02, 0x00, 0x00, 0x00, 0x01, 0x00, 0x00, 0x00, 0x06, 0x00, 0x00, 0x00, 
  0x02, 0x00, 0x00, 0x00, 0x20, 0x00, 0x00, 0x00, 0x04, 0x00, 0x00, 0x00, 
  0xf4, 0xff, 0xff, 0xff, 0x19, 0x00, 0x00, 0x00, 0x00, 0x00, 0x00, 0x19, 
  0x0c, 0x00, 0x0c, 0x00, 0x0b, 0x00, 0x00, 0x00, 0x00, 0x00, 0x04, 0x00, 
  0x0c, 0x00, 0x00, 0x00, 0x09, 0x00, 0x00, 0x00, 0x00, 0x00, 0x00, 0x09, 
};

const unsigned int model_len = 12744;