const unsigned char model[] = {

  0x1c, 0x00, 0x00, 0x00, 0x54, 0x46, 0x4c, 0x33, 0x14, 0x00, 0x20, 0x00, 
  0x1c, 0x00, 0x18, 0x00, 0x14, 0x00, 0x10, 0x00, 0x0c, 0x00, 0x00, 0x00, 
  0x08, 0x00, 0x04, 0x00, 0x14, 0x00, 0x00, 0x00, 0x1c, 0x00, 0x00, 0x00, 
  0x98, 0x00, 0x00, 0x00, 0xf0, 0x00, 0x00, 0x00, 0xa0, 0x2b, 0x00, 0x00, 
  0xb0, 0x2b, 0x00, 0x00, 0x50, 0x31, 0x00, 0x00, 0x03, 0x00, 0x00, 0x00, 
  0x01, 0x00, 0x00, 0x00, 0x10, 0x00, 0x00, 0x00, 0x00, 0x00, 0x0a, 0x00, 
  0x10, 0x00, 0x0c, 0x00, 0x08, 0x00, 0x04, 0x00, 0x0a, 0x00, 0x00, 0x00, 
  0x0c, 0x00, 0x00, 0x00, 0x1c, 0x00, 0x00, 0x00, 0x3c, 0x00, 0x00, 0x00, 
  0x0f, 0x00, 0x00, 0x00, 0x73, 0x65, 0x72, 0x76, 0x69, 0x6e, 0x67, 0x5f, 
  0x64, 0x65, 0x66, 0x61, 0x75, 0x6c, 0x74, 0x00, 0x01, 0x00, 0x00, 0x00, 
  0x04, 0x00, 0x00, 0x00, 0x90, 0xff, 0xff, 0xff, 0x0a, 0x00, 0x00, 0x00, 
  0x04, 0x00, 0x00, 0x00, 0x08, 0x00, 0x00, 0x00, 0x6f, 0x75, 0x74, 0x70, 
  0x75, 0x74, 0x5f, 0x30, 0x00, 0x00, 0x00, 0x00, 0x01, 0x00, 0x00, 0x00, 
  0x04, 0x00, 0x00, 0x00, 0x46, 0xd4, 0xff, 0xff, 0x04, 0x00, 0x00, 0x00, 
  0x0c, 0x00, 0x00, 0x00, 0x6b, 0x65, 0x72, 0x61, 0x73, 0x5f, 0x74, 0x65, 
  0x6e, 0x73, 0x6f, 0x72, 0x00, 0x00, 0x00, 0x00, 0x02, 0x00, 0x00, 0x00, 
  0x34, 0x00, 0x00, 0x00, 0x04, 0x00, 0x00, 0x00, 0xdc, 0xff, 0xff, 0xff, 
  0x0d, 0x00, 0x00, 0x00, 0x04, 0x00, 0x00, 0x00, 0x13, 0x00, 0x00, 0x00, 
  0x43, 0x4f, 0x4e, 0x56, 0x45, 0x52, 0x53, 0x49, 0x4f, 0x4e, 0x5f, 0x4d, 
  0x45, 0x54, 0x41, 0x44, 0x41, 0x54, 0x41, 0x00, 0x08, 0x00, 0x0c, 0x00, 
  0x08, 0x00, 0x04, 0x00, 0x08, 0x00, 0x00, 0x00, 0x0c, 0x00, 0x00, 0x00, 
  0x04, 0x00, 0x00, 0x00, 0x13, 0x00, 0x00, 0x00, 0x6d, 0x69, 0x6e, 0x5f, 
  0x72, 0x75, 0x6e, 0x74, 0x69, 0x6d, 0x65, 0x5f, 0x76, 0x65, 0x72, 0x73, 
  0x69, 0x6f, 0x6e, 0x00, 0x0e, 0x00, 0x00, 0x00, 0xac, 0x2a, 0x00, 0x00, 
  0xa4, 0x2a, 0x00, 0x00, 0x94, 0x28, 0x00, 0x00, 0x84, 0x08, 0x00, 0x00, 
  0x64, 0x08, 0x00, 0x00, 0xd4, 0x07, 0x00, 0x00, 0xc4, 0x06, 0x00, 0x00, 
  0xb4, 0x00, 0x00, 0x00, 0xac, 0x00, 0x00, 0x00, 0xa4, 0x00, 0x00, 0x00, 
  0x9c, 0x00, 0x00, 0x00, 0x94, 0x00, 0x00, 0x00, 0x74, 0x00, 0x00, 0x00, 
  0x04, 0x00, 0x00, 0x00, 0xfa, 0xd4, 0xff, 0xff, 0x04, 0x00, 0x00, 0x00, 
  0x60, 0x00, 0x00, 0x00, 0x10, 0x00, 0x00, 0x00, 0x00, 0x00, 0x00, 0x00, 
  0x08, 0x00, 0x0e, 0x00, 0x08, 0x00, 0x04, 0x00, 0x08, 0x00, 0x00, 0x00, 
  0x10, 0x00, 0x00, 0x00, 0x24, 0x00, 0x00, 0x00, 0x00, 0x00, 0x06, 0x00, 
  0x08, 0x00, 0x04, 0x00, 0x06, 0x00, 0x00, 0x00, 0x04, 0x00, 0x00, 0x00, 
  0x00, 0x00, 0x00, 0x00, 0x0c, 0x00, 0x18, 0x00, 0x14, 0x00, 0x10, 0x00, 
  0x0c, 0x00, 0x04, 0x00, 0x0c, 0x00, 0x00, 0x00, 0x81, 0x03, 0x33, 0x39, 
  0x2b, 0xed, 0xdd, 0x48, 0x02, 0x00, 0x00, 0x00, 0x02, 0x00, 0x00, 0x00, 
  0x04, 0x00, 0x00, 0x00, 0x06, 0x00, 0x00, 0x00, 0x32, 0x2e, 0x31, 0x37, 
  0x2e, 0x30, 0x00, 0x00, 0x66, 0xd5, 0xff, 0xff, 0x04, 0x00, 0x00, 0x00, 
  0x10, 0x00, 0x00, 0x00, 0x31, 0x2e, 0x35, 0x2e, 0x30, 0x00, 0x00, 0x00, 
  0x00, 0x00, 0x00, 0x00, 0x00, 0x00, 0x00, 0x00, 0x90, 0xd0, 0xff, 0xff, 
  0x94, 0xd0, 0xff, 0xff, 0x98, 0xd0, 0xff, 0xff, 0x9c, 0xd0, 0xff, 0xff, 
  0x92, 0xd5, 0xff, 0xff, 0x04, 0x00, 0x00, 0x00, 0x00, 0x06, 0x00, 0x00, 
  0xfa, 0x51, 0x8a, 0xbe, 0xd0, 0x84, 0xaa, 0x3e, 0xf2, 0x86, 0x16, 0xbe, 
  0x9c, 0x8d, 0x9a, 0xbd, 0x73, 0x44, 0x84, 0xbd, 0x50, 0xad, 0x2b, 0x3e, 
  0x72, 0xa7, 0x1b, 0xbe, 0x4f, 0xd2, 0x74, 0xbe, 0xcf, 0xf0, 0xb1, 0x3e, 
  0xe3, 0xdb, 0xc9, 0xbd, 0xe2, 0x05, 0x2e, 0xba, 0x80, 0xc4, 0xfe, 0x3d, 
  0x1c, 0xa8, 0x6c, 0xbe, 0xc6, 0x60, 0x14, 0xbc, 0x2f, 0xe7, 0xb3, 0xbd, 
  0x92, 0x17, 0x96, 0x3e, 0xd1, 0xbd, 0xfe, 0xbd, 0x6d, 0xdc, 0x7a, 0xbe, 
  0x56, 0xda, 0x47, 0xbe, 0xd7, 0x08, 0x5f, 0x3e, 0xfe, 0xb2, 0x13, 0x3e, 
  0x5c, 0x38, 0x9b, 0xbd, 0x9b, 0x5b, 0x04, 0x3c, 0x11, 0x00, 0x7b, 0xbe, 
  0x0b, 0x9d, 0x0b, 0x3e, 0x4e, 0x22, 0x65, 0x3e, 0xbf, 0x28, 0x24, 0xbe, 
  0x98, 0x21, 0x54, 0x3e, 0x8c, 0xdd, 0x02, 0xbd, 0x78, 0xe3, 0x48, 0xbe, 
  0x22, 0xba, 0x88, 0xbe, 0x49, 0x6d, 0x51, 0x3e, 0x83, 0xb1, 0x75, 0xbd, 
  0x6c, 0x4a, 0x11, 0xbe, 0xf7, 0x8b, 0xc5, 0xbd, 0x87, 0x2c, 0xa9, 0xbd, 
  0x3d, 0xd8, 0xa8, 0x3d, 0x6c, 0x1f, 0x93, 0xbe, 0x7e, 0x1d, 0x9f, 0x3e, 
  0x92, 0x31, 0xfb, 0xbd, 0x63, 0x26, 0x1e, 0x3e, 0x24, 0x47, 0x94, 0x3d, 
  0x57, 0x75, 0xab, 0x3d, 0xf3, 0xc3, 0x14, 0xbe, 0x52, 0x87, 0x8b, 0x3e, 
  0x92, 0x59, 0x9f, 0x3e, 0x45, 0x81, 0x24, 0x3e, 0xa8, 0xe1, 0x22, 0x3e, 
  0x59, 0x34, 0x2d, 0x3e, 0xa1, 0xf8, 0xbf, 0x3e, 0xd3, 0x25, 0x35, 0xbe, 
  0x4a, 0xc2, 0x68, 0xbe, 0x44, 0xda, 0x91, 0xbe, 0xf1, 0x22, 0x00, 0xbe, 
  0x5d, 0x7b, 0x9a, 0x3e, 0xd0, 0x82, 0x73, 0x3e, 0x2e, 0xda, 0x17, 0x3d, 
  0x13, 0xfb, 0xbf, 0xbd, 0x08, 0x64, 0x44, 0x3e, 0x9e, 0x6d, 0x01, 0x3e, 
  0x5e, 0xba, 0x5f, 0x3e, 0xca, 0x24, 0x83, 0xbe, 0x12, 0xa2, 0x45, 0x3d, 
  0x43, 0xfc, 0x3d, 0x3e, 0xb4, 0x89, 0xa3, 0xbe, 0xd9, 0x45, 0x23, 0x3e, 
  0x8a, 0x5e, 0xe3, 0xbd, 0x48, 0x32, 0x75, 0x3e, 0x48, 0xee, 0x45, 0x3e, 
  0xb4, 0x54, 0xe2, 0xbd, 0xf9, 0x46, 0xb9, 0xbd, 0xfb, 0xaa, 0x94, 0xbe, 
  0x4a, 0x4a, 0x36, 0xbe, 0x91, 0xf1, 0x8d, 0xbe, 0xc8, 0xd6, 0x03, 0x3e, 
  0x38, 0xee, 0x51, 0x3c, 0x22, 0x55, 0x13, 0xbe, 0x98, 0xc7, 0x30, 0x3c, 
  0xb4, 0x64, 0xc9, 0xbd, 0xf1, 0xdb, 0x25, 0x3e, 0xca, 0xa5, 0x61, 0x3d, 
  0xf0, 0x2f, 0x8c, 0xbd, 0xcf, 0x56, 0xec, 0x3b, 0x8a, 0x73, 0xc4, 0xbd, 
  0x6a, 0xda, 0x6f, 0x3e, 0x19, 0x7d, 0x8f, 0xbe, 0xc3, 0xdb, 0x2e, 0xbd, 
  0xc9, 0xb2, 0xa8, 0x3d, 0x4d, 0xff, 0xf3, 0x3d, 0xa3, 0x55, 0x62, 0xbe, 
  0xae, 0x32, 0xc1, 0xbe, 0xc5, 0x1a, 0xb0, 0xbc, 0xfc, 0x00, 0xef, 0xbd, 
  0x3b, 0x6b, 0x9e, 0xbd, 0x1c, 0xe8, 0x79, 0xbd, 0x8a, 0x61, 0xd4, 0x3b, 
  0x5f, 0xaa, 0x20, 0x3e, 0xc2, 0xef, 0xc9, 0xbd, 0xec, 0x32, 0x80, 0x3e, 
  0x45, 0xdf, 0xcf, 0xbd, 0x3e, 0x4e, 0x0b, 0x3d, 0x7c, 0xc0, 0x2b, 0x3e, 
  0x54, 0x89, 0x6f, 0xbe, 0x27, 0xef, 0x8a, 0xbe, 0xb0, 0xa1, 0x8c, 0xbe, 
  0xf1, 0x1a, 0x0c, 0xbd, 0x37, 0x38, 0x15, 0xbe, 0x35, 0x53, 0x8b, 0x3e, 
  0xba, 0x5e, 0x54, 0x3e, 0x2f, 0x5e, 0x85, 0x3d, 0xea, 0xd3, 0x44, 0xbe, 
  0x12, 0x36, 0x1f, 0xbe, 0xbc, 0x86, 0x48, 0xbe, 0x9b, 0x31, 0x65, 0xbe, 
  0x6f, 0x0b, 0x0d, 0x3e, 0x3c, 0x7d, 0x6f, 0xbe, 0xbc, 0xe4, 0xbf, 0xbd, 
  0x6f, 0x3c, 0x3a, 0x3e, 0x2f, 0x35, 0x95, 0x3c, 0x32, 0x26, 0x80, 0xbd, 
  0x50, 0x49, 0x0f, 0x3d, 0x11, 0x07, 0xec, 0x3d, 0xaa, 0x6f, 0x0a, 0x3d, 
  0x73, 0xa2, 0x19, 0x3e, 0x44, 0x2b, 0x2d, 0xbe, 0xba, 0x6b, 0xb7, 0x3e, 
  0xa2, 0xf7, 0x5a, 0xbe, 0xa0, 0xd2, 0xf1, 0xbd, 0x3a, 0x57, 0x6c, 0x3e, 
  0x62, 0x21, 0x3e, 0xbd, 0x85, 0x80, 0xcd, 0x3c, 0x99, 0x56, 0x50, 0x3d, 
  0x75, 0x0d, 0x9e, 0xbe, 0x17, 0x2e, 0x91, 0xbe, 0xbe, 0x77, 0x3d, 0xbe, 
  0x37, 0xf5, 0xa3, 0xbe, 0x59, 0x52, 0x88, 0xbe, 0x46, 0x65, 0x1c, 0xbd, 
  0xe4, 0xdd, 0x86, 0x3d, 0xfb, 0x2d, 0xf5, 0x3d, 0x46, 0xed, 0x4e, 0x3e, 
  0xd9, 0x09, 0x9e, 0xbd, 0x6f, 0xbb, 0x84, 0xbd, 0x14, 0xfb, 0x49, 0x3e, 
  0x14, 0x87, 0x21, 0x3e, 0xe1, 0x90, 0x5d, 0x3d, 0x4b, 0xf5, 0x80, 0xbe, 
  0xb7, 0xea, 0x47, 0x3c, 0x84, 0xfa, 0x2b, 0x3e, 0x49, 0x32, 0x91, 0xbe, 
  0x3c, 0x64, 0x66, 0x3e, 0x09, 0xca, 0xf3, 0xbd, 0x30, 0xbf, 0x5a, 0x3c, 
  0x70, 0x99, 0x16, 0x3e, 0x9e, 0xe4, 0x49, 0x3e, 0x78, 0xc9, 0xa1, 0x3b, 
  0x77, 0x65, 0x1a, 0x3e, 0xb8, 0x2f, 0xb3, 0xbd, 0xa3, 0x5b, 0x66, 0xbe, 
  0x90, 0xca, 0x53, 0x3d, 0x84, 0x76, 0x85, 0x3e, 0x12, 0x75, 0xcd, 0xbb, 
  0x2e, 0xb0, 0x64, 0xbe, 0x3c, 0x1e, 0x6c, 0xbe, 0x87, 0x5a, 0x18, 0x3d, 
  0x31, 0x85, 0x93, 0x3e, 0x82, 0x79, 0x06, 0xbe, 0x4f, 0xd0, 0xe1, 0x3d, 
  0xf2, 0x69, 0xa6, 0xbe, 0x97, 0x30, 0x43, 0x3e, 0x09, 0x9d, 0x63, 0xbe, 
  0x35, 0xf5, 0xd2, 0x3d, 0x96, 0x02, 0x38, 0x3e, 0xe3, 0xee, 0x8f, 0x3e, 
  0xa3, 0x95, 0x9f, 0x3e, 0xe9, 0xa9, 0xa4, 0xbb, 0x7d, 0xcb, 0x95, 0xbe, 
  0x19, 0xa2, 0x84, 0xbe, 0xf1, 0x06, 0x39, 0x3d, 0x5e, 0x1a, 0x3b, 0xbe, 
  0x56, 0xb6, 0x7e, 0xbe, 0x07, 0x6b, 0x88, 0x3e, 0x1c, 0x03, 0x2a, 0xbc, 
  0x28, 0xd1, 0xab, 0x3d, 0x5e, 0x85, 0xf6, 0xbd, 0xea, 0x28, 0x83, 0xbe, 
  0x1d, 0x1f, 0x7b, 0xbe, 0xaa, 0x69, 0x8f, 0x3d, 0xf4, 0xc0, 0x13, 0xbe, 
  0x10, 0x0b, 0xf2, 0xbd, 0x98, 0x1e, 0x88, 0xbe, 0x82, 0x98, 0x58, 0x3e, 
  0x52, 0x6d, 0x8c, 0x3e, 0xd6, 0x0f, 0x04, 0x3e, 0xad, 0x2b, 0x70, 0x3e, 
  0x1a, 0x4c, 0x74, 0x3e, 0xdf, 0x75, 0x54, 0x3d, 0x75, 0xff, 0xf4, 0x3d, 
  0x18, 0x93, 0x1f, 0xbd, 0xb0, 0x01, 0x92, 0x3e, 0xbd, 0x12, 0x43, 0xbc, 
  0xde, 0x6a, 0x2e, 0x3d, 0x1b, 0x0b, 0x2e, 0x3e, 0xa5, 0x8b, 0x68, 0xbe, 
  0x48, 0xdb, 0x56, 0x3d, 0xd9, 0xa5, 0x60, 0x3e, 0x7a, 0x7c, 0x45, 0x3e, 
  0x3f, 0x99, 0x2a, 0x3c, 0x35, 0x72, 0x5e, 0xbe, 0x82, 0x7e, 0x07, 0x3d, 
  0x17, 0x46, 0x91, 0xbb, 0xf6, 0xcd, 0x8d, 0x3d, 0x21, 0x83, 0x84, 0x3d, 
  0x05, 0xb1, 0xb4, 0x3b, 0x60, 0xb0, 0xa7, 0xbe, 0xe1, 0x27, 0x9a, 0xbe, 
  0x62, 0x03, 0x9f, 0xbe, 0x72, 0x3a, 0xe4, 0xbd, 0x28, 0xa5, 0xa1, 0xbd, 
  0x7b, 0x92, 0x5d, 0x3e, 0xe7, 0x51, 0x93, 0xbe, 0xf7, 0xf8, 0x60, 0x3e, 
  0x88, 0xc8, 0xa2, 0x3e, 0x6f, 0x60, 0xdd, 0x3d, 0xb0, 0xaa, 0xee, 0x3d, 
  0x4a, 0xa1, 0x67, 0x3e, 0x09, 0x6f, 0x67, 0xbe, 0x25, 0x18, 0x8f, 0x3e, 
  0x59, 0x36, 0x21, 0x3e, 0x45, 0x57, 0x7a, 0x3e, 0x7f, 0xb7, 0x9d, 0xbe, 
  0xfb, 0x49, 0x89, 0xbe, 0xb3, 0x57, 0x26, 0xbe, 0x9c, 0xa1, 0x98, 0x3e, 
  0xa0, 0x52, 0x5a, 0x3e, 0xb3, 0x01, 0x92, 0x3d, 0x96, 0xc3, 0xae, 0x3d, 
  0x1e, 0x40, 0x67, 0x3e, 0x14, 0x81, 0x8e, 0x3e, 0x4e, 0x35, 0xda, 0xbd, 
  0x40, 0x0a, 0x8e, 0x3c, 0xcf, 0x7b, 0x2b, 0xbc, 0x72, 0xfb, 0x2e, 0x3e, 
  0x21, 0x05, 0x03, 0xbd, 0xe0, 0x7a, 0x1e, 0xbe, 0xf7, 0x38, 0xee, 0x3d, 
  0x19, 0xea, 0xd7, 0xbc, 0x93, 0x63, 0xa1, 0xbd, 0xe5, 0x8a, 0xa1, 0x3e, 
  0x3a, 0x89, 0xda, 0x3c, 0xfa, 0xf7, 0x8f, 0x3e, 0x2a, 0x20, 0xa1, 0xbe, 
  0x87, 0x22, 0xb5, 0x3d, 0x1e, 0xc9, 0x7a, 0xbe, 0xbc, 0x9c, 0x40, 0xbd, 
  0xac, 0x30, 0x1f, 0x3d, 0xac, 0xe8, 0x67, 0xbe, 0x08, 0xbf, 0x75, 0xbe, 
  0x58, 0xd4, 0xac, 0x3d, 0xfd, 0x56, 0x1f, 0xbe, 0x4d, 0xcf, 0x5e, 0xbe, 
  0xf6, 0x1d, 0x87, 0xbd, 0x24, 0x82, 0xa4, 0xbd, 0x25, 0xe6, 0x0d, 0x3e, 
  0x20, 0x74, 0xc8, 0xbe, 0x85, 0xe1, 0x17, 0xbc, 0x50, 0x17, 0xdf, 0xbd, 
  0xf2, 0x09, 0x22, 0xbd, 0xe0, 0x57, 0xe5, 0x3d, 0xab, 0x5c, 0xf9, 0x3d, 
  0x60, 0xbd, 0x7e, 0x3d, 0xd3, 0x3e, 0x66, 0x3e, 0xe3, 0x05, 0x99, 0x3d, 
  0x70, 0xa3, 0x62, 0x3c, 0x1f, 0x31, 0xaa, 0xbe, 0x92, 0xd2, 0x64, 0xbe, 
  0x95, 0x56, 0x1f, 0x3e, 0xea, 0x3f, 0x99, 0xbe, 0x93, 0xbf, 0x5a, 0xbe, 
  0x56, 0xc9, 0x56, 0x3e, 0xd5, 0xc0, 0x0b, 0x3d, 0x3d, 0xac, 0x7e, 0xbd, 
  0xf9, 0x7c, 0x98, 0x3e, 0x17, 0xf3, 0x71, 0xbe, 0x9e, 0x57, 0xad, 0xbd, 
  0x58, 0x0c, 0x1a, 0xbe, 0x28, 0x82, 0x67, 0xbe, 0xfd, 0x93, 0x6d, 0x3e, 
  0xb2, 0xd3, 0x93, 0xbd, 0xfe, 0x48, 0xa9, 0x3d, 0x81, 0x0f, 0x86, 0x3e, 
  0x49, 0xb0, 0x46, 0x3d, 0x7a, 0xc1, 0xa7, 0xbd, 0x09, 0xf2, 0x14, 0x3e, 
  0x50, 0x91, 0x95, 0x3e, 0x53, 0x9d, 0x26, 0x3e, 0x20, 0x0b, 0x20, 0x3c, 
  0x94, 0xfd, 0x2b, 0xbe, 0x6f, 0x06, 0x85, 0xbe, 0xd2, 0x05, 0x62, 0x3e, 
  0x12, 0xc3, 0x99, 0xbe, 0x6a, 0x6c, 0x73, 0x3e, 0xd7, 0x11, 0xe6, 0x3d, 
  0x8e, 0xe4, 0x90, 0x3e, 0x01, 0x47, 0x2d, 0xbd, 0xa6, 0x22, 0x1d, 0xbe, 
  0xed, 0x67, 0x4a, 0x3d, 0xeb, 0xe3, 0x79, 0xbc, 0x32, 0xd1, 0x87, 0x3e, 
  0x30, 0x9f, 0x84, 0xbe, 0x5e, 0xd0, 0x0f, 0x3e, 0xd0, 0xef, 0x49, 0x3e, 
  0x68, 0x9b, 0xf6, 0xbd, 0x20, 0x4c, 0xc4, 0xbd, 0xb2, 0xec, 0xc0, 0xbd, 
  0x3c, 0x90, 0x08, 0xbe, 0x65, 0xbf, 0x96, 0xbc, 0x3c, 0x67, 0x83, 0xbc, 
  0x40, 0x65, 0x02, 0x3e, 0x6b, 0x76, 0xec, 0x3b, 0x4d, 0x71, 0xb0, 0xbe, 
  0x42, 0x84, 0xff, 0x3d, 0x7b, 0x6c, 0x79, 0xbe, 0xcd, 0x7c, 0xcc, 0xbd, 
  0x9a, 0x57, 0x5f, 0xbe, 0xa5, 0x82, 0x16, 0xbe, 0x61, 0xf3, 0x34, 0x3e, 
  0xdd, 0xee, 0xb5, 0xbd, 0xd4, 0xd0, 0x62, 0x3e, 0x60, 0x89, 0xae, 0x3e, 
  0xbe, 0xf6, 0xc9, 0x3d, 0xd2, 0x25, 0x4b, 0x3e, 0x49, 0x84, 0xcb, 0xbc, 
  0x22, 0x4f, 0xab, 0xbe, 0x6a, 0xf9, 0xf5, 0xbd, 0x96, 0x55, 0x46, 0x3e, 
  0x17, 0xb6, 0x7f, 0x3e, 0x7d, 0x64, 0xf6, 0x3b, 0x5b, 0xd1, 0x8d, 0x3e, 
  0xcc, 0x23, 0x81, 0x3e, 0x27, 0x8d, 0xde, 0x3d, 0x4f, 0x25, 0x3c, 0x3d, 
  0x92, 0x2a, 0x8d, 0xbe, 0xc5, 0xfe, 0x1a, 0xbe, 0x8e, 0x68, 0x0d, 0xbd, 
  0x28, 0xd5, 0x71, 0xbe, 0x6d, 0xc7, 0x6b, 0x3e, 0xfb, 0x70, 0x02, 0xbd, 
  0x6a, 0xd7, 0xe1, 0xbd, 0x61, 0x67, 0x3e, 0x3e, 0x3f, 0x2f, 0x30, 0x3d, 
  0x30, 0x91, 0x89, 0x3e, 0x37, 0x0a, 0x6e, 0x3e, 0x89, 0x42, 0x6a, 0x3e, 
  0x94, 0x76, 0x85, 0x3e, 0x85, 0x21, 0x6b, 0x3e, 0x64, 0xaf, 0x1c, 0xbe, 
  0xe6, 0x3a, 0xa2, 0x3d, 0xb8, 0x57, 0x1c, 0x3d, 0x4f, 0x99, 0xc0, 0xbd, 
  0x6e, 0x54, 0x11, 0xbe, 0x3e, 0xde, 0xed, 0xbc, 0xb4, 0xdf, 0x44, 0xbe, 
  0x45, 0xda, 0x93, 0xbd, 0x99, 0x02, 0x3b, 0xbe, 0xb3, 0xa4, 0x74, 0x3e, 
  0x22, 0x83, 0x2c, 0x3e, 0x37, 0x2e, 0xc9, 0x3d, 0xfc, 0x2c, 0x84, 0x3e, 
  0xcc, 0xc1, 0x40, 0xbd, 0x6b, 0xbd, 0x16, 0x3e, 0x9b, 0xdb, 0x15, 0x3e, 
  0xdf, 0xd8, 0xd2, 0x3d, 0x20, 0x08, 0xd8, 0x3c, 0x30, 0xa1, 0x19, 0xbe, 
  0x20, 0x2f, 0xdc, 0x3d, 0x82, 0xfe, 0xf3, 0xbd, 0xc1, 0xda, 0x87, 0x3e, 
  0x9a, 0xe9, 0x8e, 0x3e, 0xe9, 0x89, 0xb3, 0x3d, 0xc7, 0x33, 0x44, 0x3e, 
  0xe6, 0x5b, 0x20, 0x3e, 0xeb, 0x5c, 0x10, 0xbe, 0x62, 0x2f, 0xb0, 0x3c, 
  0x9e, 0xdb, 0xff, 0xff, 0x04, 0x00, 0x00, 0x00, 0x00, 0x01, 0x00, 0x00, 
  0x79, 0xe8, 0x9a, 0x3d, 0xe8, 0x59, 0xbf, 0x3d, 0x7e, 0x4f, 0xff, 0x3c, 
  0x9a, 0x19, 0x83, 0xbb, 0xf6, 0x5f, 0x47, 0xbd, 0x71, 0xb2, 0xb9, 0x3c, 
  0x97, 0xe9, 0x98, 0x3d, 0xf7, 0xf6, 0xd1, 0xbb, 0xd7, 0x88, 0xb2, 0x3d, 
  0xd1, 0xaa, 0x56, 0x3d, 0xcb, 0x24, 0xaf, 0x3b, 0x30, 0xeb, 0x4d, 0x3d, 
  0x88, 0xcb, 0x38, 0x3d, 0x78, 0x85, 0x75, 0xbd, 0xa9, 0x3d, 0x19, 0x3d, 
  0xbb, 0x05, 0x8d, 0x3c, 0xf9, 0x3a, 0x70, 0x3d, 0x0e, 0xbd, 0xb6, 0x3d, 
  0x31, 0x58, 0xaf, 0x3d, 0x2c, 0x67, 0xb0, 0xbc, 0x1e, 0x4f, 0x00, 0x3e, 
  0xd8, 0x77, 0x5d, 0xbc, 0x60, 0x67, 0xe9, 0x3d, 0xeb, 0x61, 0x0f, 0x3c, 
  0x0a, 0x76, 0xb5, 0xbc, 0x24, 0xda, 0x1b, 0x3d, 0xbf, 0xf6, 0xa7, 0xbd, 
  0x8b, 0x36, 0xd5, 0x3c, 0xeb, 0xc9, 0x53, 0x3d, 0xd6, 0xa6, 0x10, 0x3d, 
  0x84, 0xb6, 0x3b, 0x3d, 0x36, 0xf6, 0xca, 0x3d, 0xfb, 0x89, 0x9d, 0x3d, 
  0xbc, 0x4a, 0xcc, 0x3c, 0xbd, 0xe7, 0x79, 0xbd, 0x08, 0xfc, 0x94, 0x3d, 
  0xa2, 0xd3, 0x46, 0x3d, 0xe0, 0x5f, 0x3e, 0xbd, 0xf0, 0xec, 0xc9, 0x3d, 
  0xb4, 0x5a, 0x8f, 0xbd, 0x94, 0xdf, 0xcb, 0x3b, 0xfe, 0x49, 0x5c, 0x3d, 
  0x32, 0x08, 0x0d, 0x3c, 0x9a, 0x20, 0x2a, 0xbd, 0xa1, 0x04, 0x02, 0x3e, 
  0xf9, 0x26, 0xab, 0x3d, 0xbf, 0xd9, 0x6a, 0x3c, 0x73, 0x91, 0xac, 0x3c, 
  0x21, 0xea, 0xac, 0xbc, 0x89, 0x60, 0x9b, 0x3b, 0x0b, 0xee, 0x8b, 0x3d, 
  0x4a, 0x61, 0xae, 0x3d, 0x0a, 0x06, 0xa7, 0xbd, 0x41, 0x43, 0xa6, 0x3d, 
  0x1c, 0x99, 0xaf, 0x3d, 0x0d, 0x8b, 0x03, 0x3e, 0xba, 0x49, 0x97, 0xba, 
  0xdc, 0xc7, 0xf9, 0x3d, 0xd9, 0xee, 0xe8, 0xbc, 0xab, 0x6e, 0x47, 0x3d, 
  0xa3, 0x05, 0xdc, 0x3c, 0x00, 0x09, 0x6f, 0x3d, 0xe4, 0x88, 0x62, 0xbc, 
  0x5d, 0xf6, 0x7f, 0x3d, 0xaa, 0xdc, 0xff, 0xff, 0x04, 0x00, 0x00, 0x00, 
  0x80, 0x00, 0x00, 0x00, 0xea, 0x23, 0xad, 0xbc, 0x6a, 0x06, 0x38, 0x3d, 
  0xd1, 0xa5, 0xc9, 0xbb, 0x51, 0x00, 0x39, 0xbc, 0x5f, 0xff, 0x33, 0xbd, 
  0x2b, 0xca, 0x45, 0xbd, 0xee, 0x77, 0x69, 0xbd, 0xa3, 0x45, 0x78, 0x3b, 
  0x95, 0xc9, 0xa8, 0x3c, 0x89, 0x69, 0x0e, 0x3d, 0x74, 0x3f, 0x05, 0x3e, 
  0x92, 0xb3, 0x31, 0xbd, 0xe4, 0x54, 0x81, 0xbd, 0xd6, 0xa3, 0xca, 0xbc, 
  0x93, 0xe6, 0xfe, 0x3d, 0x3b, 0x1b, 0x35, 0x3d, 0x15, 0x35, 0x1e, 0x3e, 
  0xf0, 0xff, 0x0d, 0x3d, 0xf8, 0x32, 0xc7, 0x3d, 0xda, 0x7a, 0xa3, 0x3d, 
  0xa1, 0x1f, 0x32, 0x3d, 0x17, 0xc5, 0xf5, 0xbc, 0x85, 0x83, 0xab, 0x3c, 
  0x0b, 0x40, 0x20, 0xbd, 0xd9, 0xfb, 0xfb, 0x3d, 0x63, 0x80, 0xf5, 0x3d, 
  0x84, 0x1f, 0x95, 0xbc, 0x8e, 0x73, 0x45, 0xbd, 0x4c, 0x69, 0x73, 0xbd, 
  0x2b, 0x8b, 0x30, 0xbd, 0x42, 0x60, 0x05, 0x3e, 0xfd, 0xbc, 0x3e, 0xbd, 
  0x36, 0xdd, 0xff, 0xff, 0x04, 0x00, 0x00, 0x00, 0x10, 0x00, 0x00, 0x00, 
  0xd0, 0x0a, 0x57, 0x3c, 0x37, 0xd4, 0xbb, 0x3d, 0x25, 0x8d, 0xbd, 0xbd, 
  0xe7, 0xfe, 0x06, 0xbe, 0x52, 0xdd, 0xff, 0xff, 0x04, 0x00, 0x00, 0x00, 
  0x00, 0x20, 0x00, 0x00, 0xf4, 0xff, 0x06, 0x3e, 0x68, 0x16, 0xce, 0xbd, 
  0xe8, 0xbd, 0x50, 0x3d, 0x6f, 0xb3, 0xcd, 0xbd, 0x57, 0xf8, 0x90, 0x3c, 
  0x3b, 0xeb, 0xdb, 0x3d, 0x53, 0x22, 0xde, 0xbd, 0x27, 0xa0, 0x4e, 0xbc, 
  0xa7, 0x44, 0xc0, 0x3d, 0x37, 0xa7, 0x6b, 0xbe, 0x0b, 0x69, 0x98, 0x3d, 
  0xd9, 0xda, 0x4b, 0xbe, 0x4b, 0x87, 0x3a, 0xbe, 0xef, 0x37, 0x19, 0xbe, 
  0x5c, 0x69, 0xe8, 0xbd, 0x3b, 0x87, 0xc2, 0x3c, 0x9e, 0x5a, 0x3f, 0xbe, 
  0x8f, 0xc5, 0x85, 0x3e, 0x34, 0xef, 0xba, 0x3d, 0x04, 0xe9, 0x6b, 0x3d, 
  0x50, 0xcc, 0x48, 0x3e, 0xd1, 0xa4, 0x3e, 0xbd, 0xe2, 0x09, 0xb0, 0xbd, 
  0xc3, 0x7e, 0x5a, 0xbe, 0x88, 0xd2, 0x49, 0xbd, 0xea, 0xe6, 0x1a, 0xbe, 
  0x74, 0x44, 0x72, 0xbc, 0xfb, 0xae, 0xba, 0x3d, 0x50, 0x06, 0x46, 0x3d, 
  0x48, 0xdb, 0x5a, 0x3e, 0x01, 0x0d, 0x6c, 0x3e, 0x36, 0x48, 0x76, 0x3e, 
  0xd2, 0xcb, 0x4e, 0x3e, 0xcf, 0xe2, 0xba, 0x3d, 0x96, 0x8e, 0xb7, 0xbd, 
  0x6e, 0x63, 0x0d, 0x3e, 0x08, 0x78, 0x6d, 0x3e, 0x28, 0x67, 0xad, 0x3c, 
  0x1a, 0x39, 0x6a, 0xbe, 0x66, 0x08, 0xc0, 0x3d, 0x20, 0x15, 0x59, 0xbd, 
  0x88, 0xdc, 0x7f, 0x3d, 0x2f, 0x65, 0x83, 0xbe, 0xdb, 0x14, 0xba, 0x3d, 
  0x7e, 0xb0, 0xa1, 0xbc, 0x4d, 0x4d, 0xce, 0xbc, 0x5e, 0x11, 0x9c, 0xbe, 
  0x78, 0x82, 0x9f, 0xbd, 0xf5, 0xc1, 0x8a, 0x3d, 0x1c, 0x54, 0x07, 0xbe, 
  0x90, 0x83, 0xed, 0xbd, 0x4f, 0xc7, 0x1f, 0x3e, 0xf5, 0xc4, 0x1b, 0xbe, 
  0x1f, 0x75, 0xc6, 0xbd, 0x84, 0x0b, 0x66, 0x3e, 0x81, 0x83, 0xe0, 0x3d, 
  0xfc, 0x11, 0x05, 0xbe, 0xe9, 0xb0, 0x90, 0x3c, 0x14, 0x0c, 0x84, 0xbe, 
  0x98, 0x12, 0x82, 0xbe, 0x74, 0x45, 0x1b, 0x3e, 0xff, 0x02, 0xd0, 0xbc, 
  0xfb, 0x54, 0x74, 0xbe, 0x71, 0x85, 0x22, 0xbe, 0x29, 0xa6, 0x49, 0xbe, 
  0x46, 0x33, 0x07, 0x3e, 0x8f, 0x33, 0xa2, 0xbd, 0x27, 0xea, 0xd1, 0xbd, 
  0x9a, 0x1a, 0x3e, 0x3e, 0xcd, 0x0d, 0x3c, 0x3e, 0xab, 0xba, 0x9a, 0xbb, 
  0xee, 0x4a, 0xbd, 0xbd, 0x12, 0xa5, 0x3c, 0x3d, 0xde, 0xfe, 0x43, 0x3e, 
  0x95, 0x62, 0x07, 0x3e, 0x2c, 0x4b, 0x2c, 0x3e, 0x4d, 0x42, 0xcc, 0xbd, 
  0x54, 0xf3, 0x74, 0x3c, 0xea, 0xba, 0x20, 0x3e, 0xc8, 0x66, 0xbc, 0x3e, 
  0x57, 0x11, 0x55, 0x3e, 0xcc, 0xef, 0x9e, 0x3e, 0xff, 0x0d, 0xe4, 0xbc, 
  0xe2, 0x59, 0x06, 0xbe, 0x09, 0x1d, 0x52, 0xbc, 0xca, 0x1e, 0x51, 0x3e, 
  0x1a, 0x23, 0x61, 0x3e, 0xbf, 0xf0, 0x6b, 0xbe, 0x4f, 0x73, 0x1a, 0x3d, 
  0xb1, 0x28, 0x9c, 0x3d, 0xb9, 0xaf, 0x78, 0x3e, 0xcb, 0xda, 0xdb, 0xbd, 
  0x2b, 0x07, 0x4a, 0x3e, 0x2d, 0x1d, 0xd0, 0xbd, 0x66, 0x78, 0x3c, 0x3e, 
  0x7e, 0x2e, 0xe3, 0x3c, 0x00, 0x91, 0x22, 0xbe, 0x77, 0x31, 0x99, 0x3d, 
  0x4c, 0x12, 0x18, 0xbd, 0xb9, 0xfa, 0x89, 0x3d, 0xeb, 0xcf, 0x36, 0x3e, 
  0x20, 0x8a, 0x31, 0xbe, 0x6a, 0xb5, 0x17, 0xbe, 0xe6, 0xf9, 0xac, 0xbd, 
  0xf2, 0xc6, 0xe1, 0x3c, 0xdc, 0x61, 0xa2, 0x3d, 0x3d, 0x7c, 0x79, 0x3d, 
  0x27, 0x31, 0x38, 0x3d, 0x0c, 0x59, 0x1b, 0x3e, 0xd5, 0x7f, 0x39, 0xbe, 
  0x3f, 0x76, 0x30, 0x3e, 0xc6, 0xb4, 0x80, 0x3e, 0xac, 0x5b, 0x86, 0x3c, 
  0x4b, 0x4c, 0x10, 0xbe, 0x46, 0x13, 0x83, 0xbc, 0x64, 0xfe, 0x0e, 0x3e, 
  0x6f, 0x96, 0x36, 0x3e, 0xaa, 0x51, 0x3f, 0xbe, 0xe9, 0xa6, 0x3d, 0xbe, 
  0xc2, 0x67, 0xd6, 0x3d, 0x1e, 0x50, 0xc1, 0xbd, 0xc4, 0x4a, 0xf7, 0xbd, 
  0xfd, 0xcd, 0x62, 0x3e, 0xf6, 0x34, 0x29, 0x3e, 0x26, 0x1c, 0x3c, 0x3e, 
  0xad, 0x4f, 0xf7, 0xbd, 0xce, 0x6a, 0x74, 0x3e, 0x68, 0x9a, 0x33, 0x3d, 
  0xd9, 0xa0, 0x47, 0xbe, 0x6d, 0xb1, 0xd6, 0x3d, 0x8e, 0x58, 0xef, 0xbd, 
  0x41, 0x55, 0x69, 0xbe, 0x2a, 0x26, 0x49, 0xbe, 0x94, 0x54, 0xa3, 0x3c, 
  0xfc, 0xef, 0x0e, 0xbe, 0x8d, 0x75, 0x3c, 0xbe, 0x25, 0x5f, 0xe1, 0x3d, 
  0x9f, 0x16, 0x0f, 0xbe, 0xe2, 0xf4, 0x1b, 0xbe, 0x2d, 0xd0, 0x6c, 0xbe, 
  0x03, 0x83, 0x45, 0xbd, 0xa9, 0x25, 0xdc, 0xbd, 0xca, 0x87, 0x86, 0xbc, 
  0xab, 0x7a, 0x47, 0xbe, 0xdb, 0x0b, 0x80, 0xbe, 0x0c, 0x33, 0x71, 0x3e, 
  0xe9, 0xa6, 0x19, 0xbe, 0x9b, 0x0f, 0x07, 0x3d, 0x0d, 0xd2, 0x18, 0xbe, 
  0xe2, 0xd6, 0x14, 0x3e, 0x8e, 0x66, 0x24, 0xbe, 0x13, 0x69, 0x18, 0xbd, 
  0x20, 0x69, 0xf1, 0xbb, 0xf7, 0x76, 0x65, 0xbe, 0x5a, 0x3a, 0x16, 0x3e, 
  0xc0, 0x76, 0x6d, 0xbe, 0x73, 0x8c, 0x5b, 0x3e, 0x3c, 0x9f, 0x6b, 0xbe, 
  0x3b, 0x39, 0x6d, 0xbe, 0x0c, 0x63, 0x5e, 0xbe, 0x48, 0xd3, 0x37, 0xbe, 
  0x85, 0x28, 0xb8, 0x3d, 0xf3, 0x64, 0x52, 0xbd, 0x15, 0xe4, 0xc0, 0xbc, 
  0xdc, 0x5d, 0x27, 0xbd, 0x75, 0xb0, 0x18, 0x3e, 0x59, 0xbe, 0x85, 0xbd, 
  0x88, 0x13, 0x5c, 0x3d, 0x7d, 0x3c, 0x0c, 0x3d, 0x3c, 0x42, 0xf2, 0x3c, 
  0xcf, 0x06, 0x3e, 0x3d, 0xf2, 0xee, 0x0b, 0xbe, 0x90, 0xfd, 0x63, 0x3d, 
  0xc0, 0x8d, 0x10, 0x3e, 0xe4, 0xc4, 0x1d, 0xbc, 0x2b, 0x40, 0x7b, 0xbe, 
  0xb4, 0x14, 0x2e, 0x3e, 0x09, 0xd9, 0x23, 0xbe, 0x80, 0xae, 0x8a, 0x3c, 
  0xe9, 0xb7, 0x6f, 0xbe, 0x00, 0x5b, 0x28, 0x3e, 0xbd, 0x38, 0x40, 0x3e, 
  0x70, 0x66, 0x7b, 0xbe, 0x8e, 0x7a, 0xed, 0x3d, 0x04, 0xfc, 0x9f, 0xbd, 
  0xca, 0x1d, 0x92, 0xbd, 0x5f, 0x7a, 0x7c, 0x3c, 0x66, 0x5c, 0x72, 0xbe, 
  0x94, 0x39, 0xaf, 0x3c, 0x2e, 0x46, 0x67, 0x3e, 0xcf, 0x30, 0xfe, 0xbd, 
  0x81, 0x54, 0xcb, 0xbd, 0xef, 0xdb, 0x02, 0xbd, 0x17, 0xdd, 0xcf, 0xbc, 
  0xd7, 0xdd, 0x8d, 0xbd, 0x38, 0xf0, 0xa4, 0x3d, 0xbd, 0x57, 0x3c, 0xbc, 
  0xd4, 0x6d, 0x49, 0xbe, 0x5f, 0x05, 0x02, 0xbe, 0x80, 0x18, 0x5f, 0xbd, 
  0x29, 0x95, 0x07, 0x3e, 0x29, 0x33, 0x63, 0x3e, 0x2b, 0x36, 0x11, 0x3e, 
  0x2b, 0x8b, 0xba, 0x3d, 0xb0, 0x3f, 0xfe, 0x3d, 0x20, 0xe4, 0x00, 0x3e, 
  0x0b, 0xd5, 0x73, 0xbe, 0xc7, 0x46, 0x3d, 0x3e, 0x18, 0x38, 0x75, 0x3e, 
  0x4a, 0xeb, 0xe4, 0xbd, 0xed, 0xf9, 0x2a, 0x3d, 0x58, 0x6f, 0xce, 0x3d, 
  0xc3, 0xec, 0xda, 0x3d, 0x95, 0x49, 0xca, 0x3d, 0xcc, 0x89, 0x61, 0xbe, 
  0xe5, 0x96, 0x4a, 0xbe, 0x49, 0xe3, 0x14, 0xbe, 0xdd, 0x8f, 0xe6, 0x3c, 
  0xcc, 0xf7, 0x4f, 0xbe, 0x84, 0x54, 0x69, 0xbe, 0x91, 0x66, 0x96, 0xbd, 
  0x64, 0xce, 0x24, 0x3e, 0xf9, 0xb3, 0x45, 0x3e, 0x99, 0x6f, 0x2f, 0xbe, 
  0xad, 0x56, 0x91, 0x3c, 0x93, 0x67, 0x63, 0xbe, 0x3c, 0xb5, 0x4e, 0x3e, 
  0x2b, 0xcd, 0xa6, 0x3c, 0x1b, 0x27, 0x0b, 0xbe, 0x5b, 0xda, 0x16, 0x3e, 
  0x58, 0x56, 0x5a, 0xbe, 0x81, 0x3d, 0xfb, 0x3d, 0xfa, 0x4d, 0x0b, 0xbe, 
  0x2b, 0x77, 0x83, 0x3e, 0x93, 0x32, 0xcf, 0xbc, 0xf3, 0x1f, 0x0c, 0xbe, 
  0xca, 0xff, 0x01, 0x3d, 0x78, 0xeb, 0x3a, 0x3e, 0x28, 0x37, 0x01, 0x3e, 
  0x5d, 0x77, 0x0d, 0xbd, 0xec, 0x29, 0xc0, 0xbd, 0x11, 0x87, 0x8f, 0xbd, 
  0xca, 0x1e, 0xb8, 0xbd, 0xc6, 0xdb, 0xca, 0x3d, 0x2f, 0xbd, 0x3e, 0xbe, 
  0x52, 0x94, 0x17, 0x3d, 0xd9, 0x77, 0xe1, 0x3d, 0x9a, 0x28, 0xd7, 0x3d, 
  0x05, 0xe3, 0x73, 0x3e, 0x77, 0x4f, 0x37, 0xbd, 0x2c, 0x6a, 0x5f, 0xbe, 
  0xc3, 0xad, 0x60, 0x3e, 0xfb, 0x4d, 0xfa, 0xbc, 0xc7, 0xd1, 0x7c, 0xbd, 
  0xce, 0x38, 0x69, 0x3e, 0x63, 0x16, 0x64, 0xbe, 0x71, 0x3c, 0x8d, 0xbe, 
  0x48, 0xa8, 0x08, 0x3d, 0x24, 0xdc, 0xf3, 0xbd, 0xe5, 0x8d, 0x88, 0xbc, 
  0x8e, 0x30, 0xda, 0x3d, 0x30, 0xdd, 0x03, 0xbe, 0x6f, 0x7f, 0x87, 0xbd, 
  0xd3, 0x4a, 0x02, 0x3e, 0x48, 0xab, 0x12, 0x3e, 0x99, 0x0a, 0x9d, 0x3c, 
  0xd0, 0x1b, 0x03, 0xbe, 0xa1, 0xd2, 0x2f, 0xbe, 0x3d, 0x68, 0x2e, 0xbe, 
  0x49, 0xbd, 0xc4, 0xbc, 0xce, 0xc9, 0x34, 0xbe, 0x0c, 0x8e, 0x6d, 0xbd, 
  0x3a, 0xb9, 0x5e, 0xbd, 0x14, 0x2d, 0x0f, 0x3e, 0xc4, 0x0f, 0x7f, 0xbe, 
  0xec, 0xd0, 0x1c, 0x3d, 0x78, 0xe6, 0x14, 0xbe, 0x6c, 0x3b, 0x04, 0x3e, 
  0x92, 0x17, 0x1e, 0xbe, 0x1c, 0x2f, 0x35, 0x3e, 0x3c, 0x09, 0x88, 0x3d, 
  0xf5, 0xce, 0x15, 0x3c, 0xc3, 0xe5, 0x4b, 0xbd, 0x78, 0x5a, 0x2b, 0x3d, 
  0x7c, 0x36, 0xb5, 0x3d, 0x3f, 0x90, 0x55, 0x3e, 0xc3, 0x3d, 0x19, 0xbe, 
  0xf3, 0xfe, 0x4f, 0xbe, 0x6c, 0xb6, 0x81, 0xbe, 0x47, 0x3f, 0x24, 0xbe, 
  0x1f, 0x11, 0x3e, 0x3d, 0x50, 0x5b, 0xa3, 0xbd, 0x18, 0xd1, 0x31, 0x3e, 
  0xbe, 0x74, 0x21, 0x3c, 0x72, 0x70, 0x4e, 0xbe, 0x94, 0x6f, 0x40, 0xbe, 
  0xb1, 0x6e, 0x26, 0xbe, 0x2b, 0x4d, 0x0f, 0xbe, 0x8b, 0x96, 0x7a, 0xbd, 
  0x06, 0x55, 0xdd, 0xbc, 0xbf, 0x56, 0x4d, 0x3d, 0x6a, 0x35, 0x1c, 0xbe, 
  0x02, 0xc4, 0x16, 0xbe, 0x37, 0x94, 0x7f, 0x3c, 0xf1, 0xf8, 0x0f, 0xbe, 
  0x95, 0x63, 0x9f, 0x3d, 0x23, 0xbd, 0xd2, 0xbd, 0x5f, 0xc0, 0x51, 0x3d, 
  0x4e, 0x79, 0x76, 0xbe, 0xdf, 0xb9, 0xff, 0xbd, 0x2f, 0xae, 0x98, 0xbd, 
  0xf2, 0x02, 0x4e, 0xbe, 0x77, 0x28, 0x06, 0x3e, 0xb3, 0x62, 0x1c, 0x3e, 
  0x56, 0xd9, 0x32, 0xbe, 0xb7, 0xb4, 0x47, 0x3e, 0x97, 0x44, 0xfc, 0xbd, 
  0x5f, 0xed, 0x5a, 0xbe, 0xa4, 0x40, 0xe6, 0xbc, 0x95, 0x64, 0xe0, 0xbc, 
  0xaa, 0x10, 0x94, 0xbd, 0x77, 0x19, 0x80, 0xbe, 0x36, 0x7e, 0x3b, 0x3e, 
  0x46, 0x6f, 0xae, 0x3d, 0x1b, 0x24, 0x34, 0xbe, 0x7b, 0xc1, 0xb9, 0x3d, 
  0x36, 0xde, 0x07, 0x3e, 0x6d, 0x48, 0x07, 0x3d, 0x04, 0x50, 0x0e, 0xbe, 
  0x43, 0x6c, 0xf6, 0xbd, 0x44, 0x9a, 0xa6, 0xbc, 0xb2, 0x59, 0x41, 0x3e, 
  0x34, 0xde, 0x2c, 0xbd, 0x9d, 0x5b, 0x2d, 0x3e, 0x23, 0xbf, 0x2f, 0xbe, 
  0xbe, 0x83, 0x2a, 0x3e, 0x9b, 0xa5, 0xbb, 0xbc, 0x9d, 0x18, 0x36, 0xbe, 
  0x77, 0x67, 0x2c, 0xbe, 0x10, 0xf1, 0x41, 0x3e, 0x72, 0x17, 0x86, 0x3d, 
  0x76, 0x7e, 0x7a, 0x3d, 0x60, 0x96, 0x65, 0x3c, 0x5d, 0x2a, 0x42, 0x3d, 
  0x4e, 0x45, 0x05, 0xbe, 0xfc, 0xda, 0xca, 0x3d, 0xe0, 0x27, 0x3a, 0x3e, 
  0x69, 0xa0, 0x8a, 0x3c, 0x04, 0x2d, 0x35, 0xbc, 0xb1, 0x12, 0x6c, 0xbd, 
  0x21, 0x30, 0x89, 0xbe, 0x9e, 0x53, 0x5e, 0xbe, 0xf1, 0x1d, 0x2c, 0x3e, 
  0xe4, 0xa5, 0x21, 0xbe, 0x31, 0xb2, 0x13, 0x3e, 0x7b, 0xf8, 0x29, 0xbe, 
  0x4c, 0x33, 0x15, 0xbd, 0xa3, 0x1a, 0x9f, 0xbd, 0x04, 0xd7, 0x4d, 0x3e, 
  0xce, 0x7f, 0x0e, 0xbd, 0xd7, 0x57, 0xb9, 0x3d, 0xbc, 0x33, 0x78, 0x3d, 
  0xfe, 0x90, 0x49, 0x3c, 0xaf, 0xcb, 0xa5, 0x3d, 0x32, 0x3a, 0xbe, 0xbd, 
  0x9f, 0xef, 0xd1, 0xbd, 0xb4, 0xbd, 0x08, 0xbe, 0xd5, 0x06, 0x80, 0xbe, 
  0x56, 0x62, 0x36, 0xbc, 0x5a, 0xe7, 0x11, 0xbd, 0x88, 0x08, 0x45, 0x3e, 
  0xde, 0xd7, 0xf4, 0x3d, 0x67, 0xef, 0x22, 0x3e, 0x12, 0x8e, 0x81, 0xbe, 
  0x1d, 0x82, 0x60, 0xbe, 0x02, 0x1c, 0x28, 0xbc, 0x42, 0xe2, 0x54, 0xbd, 
  0xca, 0x2b, 0x88, 0xbe, 0xc4, 0xd3, 0xc6, 0x3d, 0x87, 0x37, 0x52, 0xbd, 
  0xce, 0x94, 0xb9, 0x3d, 0x39, 0xdb, 0xf6, 0xbd, 0x8b, 0xf1, 0x56, 0x3e, 
  0x57, 0x35, 0x36, 0xbe, 0x6a, 0xfd, 0xaf, 0xbd, 0xd3, 0xf4, 0x36, 0x3c, 
  0xc5, 0x31, 0x31, 0x3e, 0xc6, 0x1b, 0x07, 0xbd, 0x53, 0x84, 0x49, 0xbe, 
  0xee, 0x09, 0x89, 0x3c, 0x5e, 0xba, 0x03, 0x3c, 0x6f, 0xdd, 0xe8, 0x3d, 
  0x27, 0xc7, 0x56, 0xbe, 0x16, 0xf9, 0x22, 0xbd, 0x8d, 0xcf, 0x56, 0xbe, 
  0x5c, 0x5d, 0x48, 0xbe, 0x57, 0x2d, 0x7d, 0xbe, 0xbd, 0x33, 0xf5, 0xbd, 
  0xbc, 0xc7, 0x4c, 0xbd, 0x81, 0x47, 0xd5, 0x3c, 0x22, 0x90, 0x90, 0x3d, 
  0x4a, 0xea, 0xb8, 0x3d, 0x40, 0x9f, 0xab, 0x3d, 0x2f, 0xb7, 0x6f, 0xbe, 
  0xaf, 0xf7, 0x16, 0x3e, 0xbc, 0x57, 0xb7, 0xbb, 0x33, 0x40, 0x05, 0x3e, 
  0x6e, 0xcf, 0xff, 0x3d, 0x86, 0xf2, 0x35, 0xbe, 0x83, 0xfb, 0xcc, 0xbc, 
  0xd1, 0x0d, 0x36, 0xbe, 0x05, 0xf4, 0xb0, 0x3d, 0x9a, 0x47, 0x91, 0xbe, 
  0x34, 0xb4, 0x1e, 0xbc, 0x0b, 0x69, 0x60, 0xbe, 0xce, 0xb1, 0xbb, 0x3d, 
  0xc2, 0x3e, 0xb0, 0x3d, 0x4b, 0xf4, 0x23, 0x3d, 0xfb, 0x99, 0x7a, 0xbe, 
  0xa8, 0x1a, 0xa7, 0x3d, 0x04, 0xf4, 0x25, 0x3e, 0x4f, 0x8e, 0x64, 0xbe, 
  0x2c, 0xb5, 0x47, 0xbd, 0x28, 0xae, 0x0a, 0x3d, 0xc3, 0x90, 0xbe, 0xbd, 
  0xea, 0x4f, 0x20, 0xbe, 0xc6, 0xa5, 0x5b, 0xbe, 0x92, 0x7c, 0x94, 0xbd, 
  0x0a, 0x1d, 0x3e, 0xbe, 0x07, 0xef, 0xff, 0xbd, 0xac, 0x04, 0x3a, 0x3d, 
  0x86, 0x77, 0x55, 0x3e, 0xc6, 0x93, 0x4e, 0x3e, 0x28, 0x67, 0xe5, 0x3d, 
  0x5b, 0x5e, 0x21, 0xbe, 0x3a, 0xde, 0xfb, 0x3d, 0xa7, 0x9a, 0xe5, 0x3d, 
  0x5e, 0xcc, 0x4c, 0x3e, 0xff, 0xe7, 0x45, 0xbc, 0xf8, 0x0d, 0xed, 0xbd, 
  0x88, 0x70, 0x49, 0xbe, 0xab, 0xf4, 0x81, 0x3d, 0x73, 0x34, 0xb1, 0xbc, 
  0x39, 0xda, 0x96, 0xbe, 0x2b, 0xe3, 0x82, 0xbd, 0xff, 0xf0, 0x5f, 0xbd, 
  0x3c, 0xbc, 0x35, 0x3e, 0x21, 0xa2, 0x5a, 0x3e, 0x08, 0x3c, 0x3f, 0x3e, 
  0xe2, 0x00, 0x50, 0xbe, 0xe8, 0x8f, 0x6f, 0x3e, 0x04, 0xbc, 0x85, 0xbe, 
  0xce, 0x40, 0x0c, 0x3e, 0xa3, 0xb1, 0x08, 0xbb, 0xe5, 0x0c, 0xe5, 0xbd, 
  0xe6, 0xbf, 0x23, 0x3e, 0xf5, 0x04, 0x77, 0xbd, 0xdd, 0x35, 0x53, 0x3e, 
  0x6c, 0x1a, 0xab, 0xbd, 0x1f, 0x5a, 0x22, 0xbe, 0x06, 0xe4, 0x86, 0xbe, 
  0x63, 0x1d, 0x86, 0xbe, 0xf4, 0x05, 0x22, 0xbe, 0x5b, 0xd3, 0x03, 0x3e, 
  0x1f, 0x95, 0xa5, 0x3d, 0x78, 0x89, 0x0a, 0x3e, 0x64, 0x53, 0x93, 0xbe, 
  0xab, 0xda, 0x3c, 0x3e, 0x02, 0x78, 0x44, 0xbe, 0x8e, 0xa7, 0x30, 0x3e, 
  0x0d, 0xdb, 0x80, 0xbe, 0xf9, 0xd4, 0x95, 0xbd, 0xfb, 0xe7, 0x4f, 0xbe, 
  0x1b, 0x54, 0x09, 0x3e, 0x10, 0x3b, 0x66, 0xbe, 0xdb, 0x71, 0xcf, 0xbd, 
  0x26, 0xa5, 0xaf, 0x3d, 0xf1, 0xc9, 0x30, 0xbe, 0x1a, 0xe1, 0x9f, 0xbc, 
  0xe1, 0x09, 0x83, 0xbd, 0x9d, 0x07, 0x13, 0x3e, 0xc0, 0x4e, 0x35, 0x3d, 
  0x33, 0x30, 0x8f, 0xbd, 0x7b, 0x6a, 0xb1, 0xbd, 0x89, 0xf7, 0x9e, 0x3d, 
  0xdb, 0x6b, 0x40, 0x3b, 0x86, 0xc0, 0x2f, 0x3e, 0x14, 0x0c, 0x15, 0x3e, 
  0x91, 0x29, 0x47, 0x3e, 0xb0, 0x37, 0x4a, 0x3e, 0xd6, 0x1e, 0xff, 0xbc, 
  0x6d, 0xa6, 0xad, 0x3d, 0x50, 0x65, 0x57, 0xbd, 0x3a, 0x84, 0xc1, 0xbc, 
  0xc0, 0xce, 0xd1, 0x3c, 0xa3, 0x7c, 0x7a, 0xbe, 0x02, 0xe7, 0x6c, 0x3e, 
  0x10, 0x41, 0xb8, 0x3c, 0x82, 0x7a, 0x32, 0xbc, 0x40, 0x94, 0x32, 0xbe, 
  0x5a, 0xdd, 0x0b, 0xbe, 0x77, 0xa1, 0xa2, 0xbd, 0x45, 0x75, 0x9f, 0xbd, 
  0x30, 0x03, 0x4e, 0xbd, 0x72, 0xfd, 0x4d, 0xbe, 0x1d, 0x57, 0x03, 0x3d, 
  0xd2, 0xdc, 0x5f, 0x3e, 0x2c, 0x9e, 0xa6, 0xbd, 0x7c, 0x78, 0xa7, 0x3d, 
  0xf2, 0xde, 0x86, 0xbd, 0x43, 0x3a, 0x88, 0x3d, 0x86, 0xa3, 0xb0, 0x3d, 
  0xa0, 0xe7, 0x6a, 0xbe, 0x96, 0xae, 0x44, 0xbe, 0x4c, 0xba, 0xda, 0x3d, 
  0x3e, 0x23, 0xb9, 0xbd, 0x08, 0xc3, 0x99, 0xbd, 0xd5, 0x37, 0xdc, 0xbd, 
  0x32, 0xaf, 0x85, 0x3e, 0xb1, 0x65, 0x27, 0xbe, 0xb9, 0x1e, 0x34, 0x3e, 
  0xd1, 0xae, 0x78, 0x3d, 0xa9, 0x47, 0xb8, 0x3d, 0x7e, 0x84, 0x8f, 0xbd, 
  0x18, 0x2e, 0x5c, 0x3e, 0xd9, 0x84, 0xc5, 0xbd, 0x3a, 0x35, 0x7b, 0x3e, 
  0x40, 0x44, 0x4c, 0xbe, 0x3d, 0x6c, 0xd2, 0x3d, 0x9e, 0xad, 0xf6, 0xbd, 
  0x4e, 0x27, 0x78, 0x3e, 0xe4, 0x07, 0x55, 0xbe, 0x75, 0xc8, 0x39, 0xbe, 
  0x3f, 0x29, 0xae, 0xbd, 0x1e, 0x3e, 0x3a, 0xbe, 0xed, 0xcc, 0xea, 0x3d, 
  0x2d, 0x4b, 0x2a, 0x3e, 0x15, 0x33, 0x3a, 0x3e, 0x70, 0x4d, 0xb3, 0xbd, 
  0x20, 0x8f, 0xa8, 0x3d, 0x1a, 0xe1, 0x3c, 0xbe, 0xba, 0x7a, 0x98, 0x3e, 
  0x49, 0x60, 0xf9, 0x3c, 0x99, 0x04, 0xf2, 0x3d, 0xec, 0x07, 0x2b, 0x3d, 
  0xe5, 0x1c, 0x51, 0xbe, 0xd3, 0x31, 0x84, 0xbd, 0x03, 0x99, 0x1f, 0xbe, 
  0xb9, 0xf6, 0x93, 0xbd, 0xbd, 0x1c, 0x76, 0x3e, 0x0c, 0x15, 0xb2, 0xbc, 
  0xe5, 0xcc, 0x03, 0x3e, 0xf1, 0x65, 0x48, 0x3d, 0xe7, 0x90, 0x2c, 0xbe, 
  0x18, 0xd8, 0xef, 0x3d, 0x09, 0xec, 0x26, 0x3e, 0x5f, 0xa8, 0x47, 0xbe, 
  0x6a, 0xdc, 0xa8, 0xbd, 0x5d, 0xfe, 0x6c, 0x3e, 0x31, 0x93, 0x18, 0x3e, 
  0x96, 0xac, 0xc2, 0xbd, 0x84, 0x55, 0x37, 0x3d, 0x06, 0x63, 0x0c, 0xbd, 
  0x5c, 0x74, 0x8f, 0x3e, 0x6c, 0xcc, 0x83, 0xbc, 0x38, 0xbd, 0x3f, 0xbd, 
  0x1b, 0xde, 0x2a, 0xbe, 0x61, 0xa3, 0x8d, 0x3c, 0xb2, 0x43, 0x0c, 0xbd, 
  0xbb, 0x26, 0x21, 0xbd, 0xab, 0xc9, 0x8f, 0xbc, 0x8d, 0x32, 0x1e, 0x3e, 
  0x51, 0xd1, 0x10, 0xbe, 0x23, 0x20, 0x6b, 0xbd, 0x0a, 0x50, 0x17, 0xbe, 
  0x57, 0x28, 0x40, 0x3e, 0xb2, 0xc7, 0x89, 0xbd, 0x65, 0x75, 0xcb, 0xbd, 
  0x68, 0x9b, 0x0b, 0xbe, 0xf7, 0x75, 0x9a, 0x3e, 0x48, 0x1d, 0xe9, 0xbd, 
  0x66, 0x3b, 0x48, 0xbd, 0xe6, 0xa5, 0xb9, 0x3c, 0x56, 0x91, 0x4c, 0x3d, 
  0x1e, 0xee, 0xe4, 0x3d, 0xdd, 0xb5, 0xc1, 0x3d, 0x72, 0x4e, 0x33, 0xbe, 
  0x7c, 0xde, 0xf9, 0xbd, 0x0c, 0xf4, 0x16, 0x3e, 0x45, 0xd8, 0x4d, 0x3e, 
  0x7f, 0x11, 0xed, 0x3d, 0x86, 0xf3, 0xb7, 0x3e, 0x06, 0xdb, 0x3b, 0x3e, 
  0x9f, 0x2a, 0x03, 0xbd, 0x86, 0x4f, 0x8e, 0xbb, 0xaf, 0x7a, 0x5d, 0xbb, 
  0x15, 0x04, 0xdc, 0xbd, 0xe9, 0x2d, 0xcb, 0x3d, 0x39, 0x53, 0xb9, 0x3c, 
  0x76, 0x1d, 0x6f, 0x3e, 0x3e, 0x60, 0xdd, 0x3d, 0xa0, 0x20, 0x0c, 0xbe, 
  0x11, 0x86, 0x89, 0x3e, 0xd9, 0x35, 0x29, 0xbd, 0x9c, 0x74, 0x8e, 0x3d, 
  0x34, 0xba, 0x83, 0xbd, 0x1e, 0x79, 0x91, 0x3e, 0xc9, 0xed, 0x47, 0xbd, 
  0x33, 0x34, 0x0a, 0x3e, 0x86, 0x3e, 0x30, 0xbe, 0x9d, 0xb0, 0xfa, 0x3c, 
  0xec, 0xea, 0x06, 0xbe, 0x3a, 0xac, 0x7d, 0x3e, 0x7a, 0x7b, 0x80, 0xbd, 
  0xb8, 0xb3, 0xa5, 0xbc, 0xd4, 0xc6, 0xb0, 0xbd, 0xa7, 0x43, 0x3e, 0xbe, 
  0x53, 0x8e, 0x6d, 0xbd, 0xb8, 0x67, 0x08, 0xbe, 0x76, 0x18, 0x04, 0xbe, 
  0xab, 0x19, 0x95, 0x3e, 0xab, 0x7e, 0x52, 0xbe, 0x45, 0x53, 0xe2, 0x3d, 
  0x53, 0xe2, 0x4c, 0xbd, 0x50, 0x3a, 0x89, 0xba, 0x56, 0x10, 0x24, 0x3e, 
  0xab, 0xe3, 0x23, 0x3e, 0x7c, 0xf7, 0x9e, 0x3c, 0xfd, 0x65, 0xde, 0x3d, 
  0xc7, 0xbc, 0x51, 0xbc, 0xe0, 0x38, 0x32, 0xbc, 0xeb, 0x6e, 0x48, 0xbe, 
  0x28, 0x7b, 0x25, 0x3e, 0xac, 0x98, 0xb2, 0xbc, 0xa6, 0xcf, 0x09, 0xbe, 
  0x67, 0x1f, 0x4e, 0xbb, 0x69, 0xfa, 0x01, 0x3e, 0xb9, 0xfc, 0x1a, 0x3c, 
  0x39, 0x4f, 0xa8, 0xbb, 0x39, 0x40, 0x13, 0x3e, 0xec, 0xb7, 0x10, 0x3e, 
  0x0f, 0xbf, 0x6b, 0x3e, 0xb3, 0x20, 0x0c, 0xbd, 0x5d, 0xe3, 0xcc, 0xbb, 
  0xc5, 0xfd, 0x31, 0xbd, 0x8a, 0x69, 0x81, 0xbd, 0x31, 0xbe, 0x24, 0xbe, 
  0x12, 0xe7, 0xa4, 0xbd, 0x96, 0x02, 0x6c, 0x3e, 0x76, 0xb6, 0xac, 0x3e, 
  0x62, 0x95, 0x3d, 0xbe, 0x62, 0xb3, 0x2a, 0xbe, 0x57, 0xa2, 0xea, 0xbd, 
  0x73, 0xc2, 0x3a, 0x3e, 0xc7, 0xfd, 0x3a, 0xbd, 0x4d, 0x1b, 0xfe, 0xbd, 
  0xd3, 0x55, 0x7a, 0x3e, 0x5b, 0x5a, 0x9f, 0x3e, 0xe7, 0xe6, 0xdb, 0x3d, 
  0x5c, 0xdd, 0x49, 0x3e, 0x68, 0x7c, 0x85, 0x3e, 0x99, 0x07, 0xcf, 0xbd, 
  0xd1, 0x27, 0xb8, 0x3e, 0x50, 0x6d, 0x8c, 0x3e, 0xe0, 0xed, 0x0d, 0x3d, 
  0x5b, 0xf0, 0xb9, 0x3d, 0xe8, 0x3e, 0xd0, 0xbd, 0x6b, 0x59, 0x5d, 0x3c, 
  0x82, 0x67, 0xbd, 0xbd, 0xf4, 0x7e, 0x30, 0x3e, 0x7e, 0xd0, 0xa6, 0x3e, 
  0xdb, 0xfb, 0xad, 0x3e, 0x7c, 0xa9, 0xbc, 0x3d, 0x07, 0x3e, 0xf5, 0x3d, 
  0x53, 0x5b, 0x5e, 0x3d, 0x88, 0xfb, 0xfb, 0x3d, 0x48, 0x01, 0x79, 0xbc, 
  0xde, 0x3a, 0x92, 0xbd, 0xdf, 0x4d, 0x91, 0x3e, 0x96, 0x29, 0x20, 0xbd, 
  0x42, 0x04, 0xca, 0xbd, 0x34, 0xe1, 0xf1, 0xbd, 0xe9, 0x71, 0x11, 0xbd, 
  0x84, 0x67, 0xf5, 0x3d, 0x73, 0xfd, 0x89, 0x3e, 0x32, 0x63, 0xff, 0xbd, 
  0xd7, 0xf6, 0x05, 0x3e, 0xf6, 0x11, 0x94, 0x3b, 0x1e, 0x65, 0xae, 0xbd, 
  0x4f, 0x32, 0xb4, 0x3e, 0xef, 0xb8, 0x85, 0xbd, 0x37, 0xd9, 0x8a, 0x3d, 
  0x81, 0xce, 0xdc, 0xbc, 0x14, 0xc0, 0x55, 0x3e, 0xd5, 0x0f, 0x39, 0x3e, 
  0x74, 0x1c, 0xaf, 0x3e, 0xcb, 0xd1, 0xb5, 0x3e, 0xa7, 0x82, 0x9a, 0x3d, 
  0x4b, 0x7f, 0x2e, 0x3e, 0x32, 0x21, 0xc4, 0x3e, 0xec, 0xae, 0x8e, 0x3e, 
  0x69, 0xd7, 0xc6, 0x3b, 0xd0, 0x39, 0x92, 0x3e, 0x94, 0x21, 0xa1, 0x3e, 
  0x6a, 0x2e, 0x39, 0xbe, 0x35, 0xb4, 0x39, 0xbe, 0x90, 0xba, 0x6f, 0xbe, 
  0x5a, 0x9c, 0x68, 0x3e, 0x92, 0xaf, 0x57, 0x3d, 0xaa, 0x89, 0x86, 0x3d, 
  0x10, 0xfd, 0xc0, 0xbc, 0xff, 0x2f, 0x12, 0x3e, 0xc6, 0x3b, 0x1b, 0xbe, 
  0xe2, 0xc9, 0x90, 0xbd, 0xe1, 0x29, 0xa3, 0xbd, 0xff, 0x35, 0xf7, 0xbc, 
  0x4a, 0xb9, 0x11, 0xbe, 0x4b, 0xe9, 0x0f, 0x3d, 0xc8, 0x70, 0x51, 0x3e, 
  0x13, 0x90, 0xce, 0xbb, 0x4d, 0x6c, 0x3d, 0x3e, 0xad, 0xd3, 0x2e, 0xbe, 
  0x74, 0xd3, 0x2b, 0x3e, 0xc2, 0x44, 0xba, 0xbd, 0x8b, 0xd4, 0x77, 0xbe, 
  0x73, 0xdf, 0xe6, 0x3d, 0x79, 0xa8, 0x82, 0xbd, 0x78, 0x8c, 0x86, 0x3d, 
  0x6d, 0x91, 0x59, 0xbe, 0x12, 0x7b, 0xb8, 0xbd, 0x04, 0xb6, 0x58, 0xbe, 
  0xab, 0xf2, 0x1d, 0xbe, 0xd2, 0x87, 0x13, 0x3e, 0xa5, 0x92, 0x3f, 0xbe, 
  0x59, 0x6d, 0x1b, 0xbd, 0xd7, 0xb5, 0xa0, 0x3c, 0xb8, 0xc5, 0xc5, 0xbd, 
  0xa7, 0xad, 0x17, 0xbe, 0x18, 0x86, 0xbf, 0x3d, 0xf0, 0xdc, 0x15, 0xbe, 
  0x7e, 0x5f, 0x2e, 0x3d, 0xba, 0xe8, 0x37, 0x3e, 0x8b, 0x7b, 0x53, 0x3e, 
  0x25, 0xd3, 0x87, 0xbd, 0xd7, 0xd9, 0xab, 0x3d, 0xa1, 0xb3, 0xfb, 0xbd, 
  0xb9, 0x96, 0x40, 0xbd, 0x17, 0xea, 0x82, 0x3d, 0xdc, 0x4e, 0x12, 0xbe, 
  0x63, 0x5c, 0x3b, 0xbe, 0x8c, 0x9d, 0xa3, 0xbd, 0xc3, 0xea, 0xdb, 0x3d, 
  0x7a, 0x52, 0x22, 0xbe, 0x5f, 0x4e, 0x6d, 0xbe, 0x62, 0x7a, 0xa9, 0xbc, 
  0x2f, 0xb5, 0x46, 0x3d, 0xc1, 0x2d, 0x41, 0xbe, 0xa0, 0xd2, 0x64, 0xbe, 
  0xbf, 0x4c, 0x69, 0xbe, 0x3a, 0x96, 0x30, 0x3e, 0xcf, 0xd3, 0xf0, 0x3b, 
  0xa8, 0x90, 0x25, 0xbe, 0xd1, 0xda, 0x38, 0xbe, 0x02, 0x23, 0x20, 0x3e, 
  0xec, 0xff, 0x3d, 0xbd, 0x85, 0xab, 0x5e, 0x3d, 0x98, 0x12, 0x05, 0xbd, 
  0xf0, 0x04, 0xa9, 0xbd, 0x78, 0xe8, 0xfb, 0xbd, 0x3c, 0x6b, 0x78, 0xbe, 
  0x7f, 0x6c, 0x75, 0xbe, 0xe3, 0x62, 0xeb, 0x3c, 0x7e, 0x80, 0x1d, 0x3e, 
  0x2b, 0x27, 0x0e, 0xbe, 0x69, 0x2f, 0xbe, 0xbd, 0xf8, 0xb8, 0xe4, 0x3d, 
  0x4b, 0x04, 0x11, 0xbe, 0xad, 0xd8, 0x1a, 0x3e, 0x41, 0xc6, 0x25, 0x3e, 
  0xbb, 0x3f, 0x3a, 0x3d, 0x35, 0x3c, 0x8f, 0xbe, 0x95, 0x28, 0xa3, 0x3d, 
  0xeb, 0xb6, 0x9e, 0x3d, 0x82, 0xf9, 0xe5, 0xbd, 0xb5, 0xc2, 0xbd, 0xbd, 
  0x99, 0xc0, 0x0c, 0x3d, 0x67, 0x7e, 0x5b, 0xbe, 0xc4, 0x21, 0x38, 0xbe, 
  0xe7, 0x46, 0x93, 0x3d, 0x3d, 0xd4, 0x13, 0xbd, 0xe9, 0x4e, 0x5d, 0xbc, 
  0x60, 0x7e, 0x4b, 0x3e, 0x71, 0x3e, 0x8d, 0xbd, 0xf0, 0x9a, 0xa6, 0xbc, 
  0xf0, 0xa8, 0x90, 0x3d, 0xc0, 0xe9, 0xae, 0xbd, 0xef, 0xc2, 0x97, 0xbd, 
  0xbf, 0x38, 0x16, 0x3e, 0x89, 0x3b, 0xc9, 0xbc, 0x58, 0x74, 0x28, 0xbe, 
  0x89, 0x86, 0x9d, 0xbd, 0x7e, 0xbc, 0x2c, 0x3e, 0x8e, 0x5b, 0x6f, 0x3d, 
  0xdb, 0x2d, 0x25, 0xbe, 0xbd, 0xd8, 0x16, 0xbe, 0xf5, 0x3c, 0x5d, 0x3e, 
  0x9b, 0x83, 0x2f, 0x3e, 0x25, 0xe6, 0x7d, 0xbe, 0x67, 0x6a, 0x13, 0xbe, 
  0x18, 0xac, 0x1b, 0xbd, 0xcd, 0xcc, 0x73, 0xbd, 0x23, 0x98, 0x95, 0x3d, 
  0x6f, 0x6a, 0xce, 0xbd, 0xc6, 0x0f, 0x8c, 0xbe, 0xab, 0xcb, 0x94, 0x3d, 
  0x74, 0x71, 0xef, 0x3d, 0xbc, 0x27, 0x52, 0x3e, 0xa0, 0xa4, 0x24, 0x3e, 
  0x30, 0xdb, 0xab, 0x3d, 0x5c, 0xe2, 0x74, 0xbe, 0x57, 0xad, 0x1b, 0xbe, 
  0xd7, 0xe8, 0x4e, 0xbe, 0x6f, 0x76, 0x34, 0x3d, 0xc8, 0x73, 0x41, 0x3e, 
  0x86, 0x56, 0x24, 0x3e, 0x3a, 0x5d, 0x85, 0xbe, 0xeb, 0xac, 0x2a, 0x3d, 
  0x23, 0x30, 0x6b, 0xbd, 0x4d, 0xc6, 0x9c, 0xbd, 0x8e, 0x58, 0x74, 0xbd, 
  0xb3, 0xb6, 0xe6, 0xbc, 0x59, 0x81, 0x42, 0x3e, 0x05, 0x1e, 0x81, 0xbe, 
  0x44, 0x67, 0x63, 0xbd, 0x28, 0x15, 0x16, 0xbe, 0x62, 0x08, 0x75, 0x3e, 
  0x6f, 0xfc, 0x52, 0x3d, 0x30, 0x47, 0x2d, 0xbe, 0x60, 0x57, 0x08, 0xbe, 
  0x24, 0xd0, 0xfc, 0x3d, 0x22, 0x11, 0x4d, 0xbe, 0x2f, 0x37, 0x04, 0x3e, 
  0xc7, 0x63, 0x8f, 0x3c, 0x98, 0x92, 0xce, 0xbb, 0x31, 0x83, 0x44, 0xbe, 
  0xc2, 0x3a, 0x85, 0x3e, 0x7d, 0xf0, 0x69, 0xbe, 0xb2, 0x1d, 0xaf, 0x3d, 
  0x92, 0xa8, 0x5e, 0x3e, 0x2b, 0xa8, 0xec, 0x3d, 0xae, 0x9a, 0x0f, 0x3b, 
  0x67, 0xbf, 0x4a, 0x3e, 0xb8, 0xfa, 0xb2, 0xbc, 0xc9, 0xd7, 0xf0, 0x3d, 
  0x97, 0xac, 0x22, 0xbd, 0x35, 0xd8, 0x3b, 0x3d, 0xd5, 0x05, 0xdc, 0xbd, 
  0x6f, 0x74, 0x08, 0x3e, 0x52, 0x42, 0x20, 0xbe, 0x48, 0xcc, 0x1b, 0xbe, 
  0xd5, 0x51, 0x5c, 0xbb, 0xef, 0x3c, 0x3c, 0x3e, 0x51, 0xcf, 0x1b, 0x3e, 
  0xe6, 0x18, 0x2d, 0xbe, 0x34, 0x44, 0xcd, 0xbd, 0xd7, 0xb0, 0x2b, 0xbe, 
  0x8f, 0x6d, 0x4f, 0xbe, 0x86, 0x8c, 0x01, 0x3e, 0x2c, 0xa8, 0x34, 0xbd, 
  0xca, 0x94, 0x7e, 0x3d, 0xbe, 0x09, 0x45, 0x3e, 0x8b, 0xe5, 0x41, 0xbe, 
  0xc7, 0xcf, 0x61, 0x3e, 0xed, 0x61, 0x3d, 0xbe, 0x8b, 0x89, 0x03, 0xbe, 
  0x1d, 0xc6, 0x4f, 0x3e, 0xda, 0xda, 0x6c, 0xbe, 0x8f, 0x9d, 0x8b, 0xbd, 
  0x9d, 0x93, 0x25, 0x3e, 0xda, 0x3c, 0x18, 0xbe, 0x8c, 0x33, 0x04, 0x3e, 
  0x11, 0x07, 0x0d, 0x3e, 0xa2, 0xe4, 0x4f, 0x3e, 0x16, 0x06, 0x58, 0xbe, 
  0xea, 0xa9, 0x9f, 0x3d, 0xa0, 0x22, 0x80, 0x3d, 0x68, 0x99, 0x6a, 0x3c, 
  0xf2, 0xfa, 0x33, 0x3c, 0x9c, 0xbc, 0x48, 0x3e, 0x6e, 0xe2, 0x17, 0x3e, 
  0x32, 0x66, 0x33, 0xbe, 0x33, 0xe1, 0xd1, 0xbd, 0x5e, 0x3c, 0x9c, 0xbd, 
  0x07, 0x97, 0xfa, 0xbc, 0xfe, 0xa6, 0xc6, 0x3d, 0x63, 0x8f, 0xe4, 0x3c, 
  0x69, 0xd2, 0xb2, 0xbd, 0x58, 0x07, 0xcd, 0x3b, 0x4e, 0x0b, 0x20, 0x3c, 
  0x33, 0x50, 0x1b, 0x3e, 0x5a, 0x5d, 0x44, 0xbd, 0x00, 0x13, 0x89, 0x3e, 
  0x12, 0x15, 0x60, 0x3c, 0xa5, 0xf0, 0x30, 0x3e, 0xf3, 0xe3, 0x99, 0x3e, 
  0xfa, 0x55, 0x76, 0x3e, 0x99, 0x3d, 0x06, 0xbe, 0x75, 0xc0, 0x5f, 0x3e, 
  0x5a, 0xc1, 0x2d, 0x3e, 0xe4, 0xf2, 0x46, 0x3e, 0x78, 0x9a, 0x04, 0x3e, 
  0xb5, 0x52, 0x46, 0x3e, 0x62, 0xd3, 0x16, 0xbd, 0x0a, 0x43, 0x72, 0x3d, 
  0x14, 0x70, 0xcb, 0xbd, 0x8e, 0xe9, 0x36, 0x3e, 0x75, 0xc5, 0x13, 0x3e, 
  0xd7, 0x84, 0x20, 0x3e, 0x0e, 0xa3, 0x4a, 0x3e, 0x4f, 0x94, 0xee, 0xbd, 
  0x1a, 0xde, 0x13, 0xbe, 0xe3, 0xe6, 0x70, 0xbd, 0x52, 0x9a, 0x21, 0x3e, 
  0x20, 0x0c, 0x42, 0x3e, 0xc3, 0x0f, 0x35, 0x3e, 0x98, 0x3f, 0xfd, 0xbd, 
  0xe5, 0xc9, 0xcc, 0x3d, 0xd4, 0xa0, 0xc3, 0xbd, 0x20, 0x6d, 0x8e, 0x3e, 
  0xe8, 0x43, 0x12, 0x3c, 0x79, 0x85, 0x21, 0x3e, 0x3a, 0x99, 0x0c, 0x3e, 
  0x3d, 0x04, 0xf7, 0xbd, 0x9f, 0xed, 0x4a, 0x3e, 0x8d, 0x3e, 0x74, 0x3e, 
  0xcc, 0x6d, 0xf3, 0xbd, 0x20, 0xd2, 0x91, 0x3e, 0x8b, 0x0a, 0x44, 0x3e, 
  0xc0, 0x72, 0xf2, 0xbd, 0xbe, 0x9c, 0xd3, 0x3c, 0x5d, 0x1f, 0xcf, 0x3d, 
  0xd9, 0xba, 0x38, 0xbb, 0x39, 0xfb, 0x6b, 0x3e, 0x59, 0xf3, 0xa6, 0x3d, 
  0x05, 0xb5, 0x37, 0xbe, 0xe3, 0x69, 0x40, 0x3e, 0x1d, 0x03, 0x7b, 0x3e, 
  0xd1, 0x9c, 0x2d, 0x3e, 0xec, 0xf8, 0x47, 0xbe, 0xf1, 0x64, 0x7c, 0x3e, 
  0x60, 0x11, 0xf0, 0x3c, 0xf5, 0xfb, 0x3b, 0x3e, 0xb3, 0xde, 0x07, 0xbe, 
  0x62, 0x2c, 0x01, 0x3e, 0x66, 0xbb, 0xa7, 0x3e, 0x9f, 0x2b, 0xfb, 0xbd, 
  0xff, 0xdf, 0x61, 0x3d, 0x58, 0xc6, 0x38, 0xbd, 0x7c, 0x42, 0xea, 0xbc, 
  0xf8, 0x45, 0x3d, 0x3e, 0x2a, 0x4f, 0x9a, 0x3d, 0x65, 0x4c, 0x9d, 0xbc, 
  0xe2, 0xd8, 0xb1, 0xbd, 0x20, 0x0b, 0x3d, 0x3d, 0xba, 0x98, 0x47, 0x3e, 
  0x1c, 0xed, 0x87, 0x3e, 0xf6, 0xf9, 0x30, 0x3e, 0x0f, 0x73, 0xb1, 0xbd, 
  0x5f, 0xbe, 0x9b, 0xbd, 0x9a, 0xfa, 0x68, 0x3e, 0x88, 0x89, 0x28, 0xbe, 
  0xe2, 0xed, 0x1f, 0x3e, 0x07, 0x55, 0x9d, 0xbd, 0xbf, 0x9f, 0x02, 0x3e, 
  0x6e, 0x79, 0xc1, 0xbd, 0xe3, 0x7f, 0x9f, 0x3e, 0x63, 0x86, 0xc0, 0x3d, 
  0x80, 0x10, 0x63, 0x3e, 0x8c, 0x54, 0x1d, 0x3e, 0x3f, 0x9d, 0x3b, 0x3e, 
  0x24, 0x09, 0x91, 0xbe, 0x3e, 0xae, 0x07, 0xbe, 0x42, 0xb7, 0xf2, 0x3d, 
  0x7f, 0x83, 0x19, 0xbe, 0xc4, 0x92, 0xf8, 0x3d, 0xcc, 0xe8, 0x28, 0xbe, 
  0x7e, 0xa7, 0xcb, 0x39, 0xc8, 0x26, 0x22, 0x3e, 0x91, 0x22, 0x1d, 0xbe, 
  0x8f, 0x7c, 0xa3, 0x3e, 0xf7, 0xd2, 0x2f, 0xbe, 0xf0, 0x60, 0x9c, 0x3c, 
  0xe4, 0x2e, 0x9f, 0xbd, 0xe6, 0x10, 0x67, 0x3d, 0xbe, 0x85, 0xb9, 0x3d, 
  0x94, 0xe3, 0x40, 0xbe, 0xdd, 0x62, 0x7c, 0x3e, 0xc2, 0x1a, 0x97, 0x3c, 
  0xa3, 0x75, 0x0b, 0xbd, 0x2f, 0x4f, 0xf3, 0x3d, 0xba, 0xe1, 0x52, 0xbe, 
  0x1d, 0x11, 0x64, 0x3d, 0x82, 0x6c, 0xd4, 0x3c, 0x9f, 0xe4, 0xea, 0xbd, 
  0x32, 0xd9, 0xae, 0x3d, 0x3b, 0x70, 0xd7, 0x3d, 0xdb, 0x04, 0xe1, 0xbd, 
  0x8d, 0x82, 0xd1, 0x3d, 0xf1, 0xef, 0x92, 0xbe, 0x92, 0x1a, 0x35, 0xbe, 
  0x74, 0x65, 0xb3, 0x3d, 0x23, 0x63, 0x3b, 0xbe, 0xe6, 0x5d, 0x8a, 0xbd, 
  0x99, 0xe2, 0x80, 0x3e, 0xf8, 0x8a, 0x09, 0xbe, 0x98, 0x20, 0x6e, 0xbe, 
  0x4b, 0xd1, 0x9e, 0xbd, 0x6a, 0xf9, 0x45, 0xbd, 0x79, 0x98, 0x2d, 0x3e, 
  0xa9, 0xff, 0x56, 0xbe, 0x3c, 0x10, 0x35, 0x3d, 0x7c, 0xa3, 0xbd, 0xbd, 
  0xb0, 0xc8, 0xfd, 0xbc, 0xb7, 0x41, 0x27, 0xbe, 0x2d, 0xbc, 0x6c, 0x3e, 
  0x0d, 0xbd, 0x73, 0x3e, 0xb5, 0xd3, 0x87, 0x3e, 0x02, 0x6f, 0x72, 0x3e, 
  0x30, 0xe0, 0x08, 0x3d, 0x0f, 0x79, 0xf2, 0x3d, 0x63, 0xae, 0x4a, 0x3e, 
  0x1e, 0xfa, 0x2b, 0x3e, 0x33, 0x83, 0x87, 0xbd, 0x08, 0x6a, 0xae, 0xbd, 
  0xf5, 0xf5, 0x93, 0xbd, 0x6a, 0x2f, 0x9e, 0xbd, 0x27, 0x16, 0x72, 0x3e, 
  0xe4, 0x65, 0x0f, 0xbe, 0x2f, 0xa5, 0x30, 0xbe, 0xf7, 0xe9, 0x7d, 0x3d, 
  0x00, 0x35, 0x8d, 0x3e, 0x96, 0x31, 0xc1, 0x3e, 0xc9, 0xdd, 0x9f, 0xbd, 
  0x8b, 0x71, 0x41, 0xbd, 0x0e, 0x91, 0x9d, 0x3e, 0xe1, 0x0b, 0xac, 0x3c, 
  0x9d, 0x88, 0x8f, 0x3e, 0x71, 0x87, 0xfc, 0x3d, 0x07, 0x67, 0xba, 0xbd, 
  0x8e, 0x94, 0x8a, 0xbd, 0xb2, 0x23, 0xf7, 0x3b, 0x9d, 0xf5, 0x76, 0x3e, 
  0x42, 0x0e, 0xad, 0x3e, 0x3a, 0xae, 0x36, 0x3e, 0xb8, 0xef, 0x5c, 0x3e, 
  0x9e, 0x38, 0x5d, 0x3d, 0x22, 0x95, 0x69, 0x3e, 0x17, 0x46, 0xb4, 0xbc, 
  0xe9, 0xbe, 0x2e, 0x3c, 0xf0, 0x87, 0xf0, 0x3c, 0x15, 0xcc, 0x7e, 0x3e, 
  0x00, 0xa6, 0x03, 0x3e, 0x45, 0x92, 0xdc, 0xbd, 0x2f, 0x08, 0x14, 0x3e, 
  0x12, 0xe5, 0x94, 0x3e, 0xf6, 0xf3, 0x98, 0x3e, 0xe2, 0x48, 0x07, 0x3e, 
  0xfd, 0xa2, 0x00, 0x3e, 0xfe, 0x80, 0xfa, 0x3b, 0xef, 0x76, 0x48, 0x3e, 
  0xc1, 0x02, 0x15, 0x3e, 0x5d, 0xe2, 0x0d, 0x3e, 0x86, 0x77, 0x7a, 0x3e, 
  0xf9, 0xe8, 0x97, 0x3e, 0x80, 0xad, 0x84, 0x3d, 0x1b, 0xd7, 0x91, 0x3e, 
  0x03, 0x30, 0xca, 0xbc, 0xa9, 0x2a, 0x7c, 0x3e, 0x79, 0xfd, 0x05, 0xbe, 
  0x9e, 0x96, 0xb7, 0x3e, 0x4c, 0xe0, 0xbe, 0x3d, 0xfa, 0x77, 0x94, 0xbd, 
  0x4b, 0x0c, 0x6a, 0x3e, 0x14, 0xa4, 0xa0, 0x3d, 0xd5, 0x8a, 0x47, 0x3e, 
  0x1f, 0x96, 0xa8, 0x3d, 0xff, 0x55, 0x66, 0xbd, 0x76, 0x19, 0x13, 0x3e, 
  0xb3, 0x04, 0xef, 0xbd, 0xf8, 0x61, 0x8a, 0xbe, 0x94, 0x50, 0x41, 0x3e, 
  0xfb, 0xc0, 0x83, 0xbe, 0xa9, 0x12, 0x2e, 0x3e, 0xda, 0xa2, 0x5a, 0xbe, 
  0x46, 0xa6, 0x45, 0x3e, 0x2a, 0xf6, 0xa7, 0x3d, 0xb2, 0xc6, 0x57, 0xbe, 
  0x9b, 0x7b, 0x07, 0x3c, 0x13, 0x2d, 0x10, 0x3e, 0x2b, 0xd2, 0x14, 0xbd, 
  0x4a, 0xc6, 0xab, 0xb9, 0xa9, 0xd1, 0x39, 0xbe, 0x9f, 0xde, 0x32, 0x3e, 
  0x3f, 0xec, 0x49, 0x3e, 0x9f, 0xc3, 0x53, 0xbe, 0xf4, 0x17, 0x0a, 0xbe, 
  0x3c, 0xfb, 0x63, 0xbe, 0x8e, 0xf5, 0x40, 0x3e, 0x1a, 0xff, 0xa9, 0xbb, 
  0x32, 0x9b, 0x84, 0xbe, 0xd9, 0x4f, 0xb1, 0xbc, 0xd4, 0x61, 0x6d, 0xbe, 
  0xf0, 0x58, 0xf2, 0x3c, 0x47, 0xa1, 0x4d, 0x3e, 0xf0, 0x41, 0x81, 0xbe, 
  0xf6, 0x25, 0x15, 0x3e, 0x76, 0x1c, 0x7f, 0x3e, 0x4f, 0xe3, 0x04, 0xbe, 
  0x14, 0x26, 0xe0, 0xbc, 0x36, 0xa1, 0x04, 0x3e, 0x30, 0x80, 0x41, 0x3e, 
  0xd1, 0x74, 0xce, 0x3c, 0xd6, 0x8e, 0xe3, 0xbd, 0xb1, 0xd8, 0x02, 0xbe, 
  0x08, 0x0c, 0xd3, 0xbd, 0xa2, 0x8f, 0x37, 0x3d, 0x68, 0xf8, 0x98, 0xbd, 
  0x90, 0xfb, 0x62, 0xbe, 0x2b, 0x35, 0x86, 0xbe, 0xa8, 0x1d, 0x48, 0x3d, 
  0x1e, 0x68, 0x19, 0xbc, 0x89, 0xc3, 0xe8, 0xbd, 0xfe, 0x9e, 0x0c, 0xbd, 
  0xc5, 0x6c, 0x10, 0x3d, 0xaf, 0xe9, 0x7a, 0xbe, 0x8f, 0x4f, 0x6b, 0xbe, 
  0x2d, 0x7c, 0x6b, 0x3e, 0x25, 0x5b, 0x59, 0x3d, 0xe2, 0xaf, 0xda, 0x3c, 
  0x0a, 0x04, 0xaa, 0x3d, 0xab, 0xad, 0x6e, 0xbe, 0xee, 0x86, 0xc9, 0xbc, 
  0x28, 0x23, 0x85, 0xbe, 0x96, 0xa1, 0x42, 0xbc, 0x9e, 0xa6, 0x2b, 0x3e, 
  0x6b, 0xc8, 0xca, 0xbd, 0xb4, 0x4e, 0xf4, 0x3d, 0x57, 0xd1, 0x31, 0x3e, 
  0x5f, 0xf5, 0x0b, 0xbe, 0xd6, 0xbf, 0x18, 0x3e, 0x86, 0x88, 0x5f, 0x3e, 
  0xba, 0x17, 0x3c, 0xbe, 0xaa, 0xdf, 0x85, 0x3e, 0x69, 0x17, 0x1b, 0xbe, 
  0xdf, 0x68, 0x45, 0x3e, 0xdd, 0x77, 0x56, 0x3e, 0xa4, 0x56, 0x43, 0xbe, 
  0x49, 0x55, 0x6b, 0x3e, 0xbb, 0xb4, 0x4d, 0xbe, 0x8a, 0x63, 0xbe, 0x3d, 
  0xce, 0xe9, 0x2d, 0x3e, 0x77, 0x40, 0xd2, 0xbd, 0x7c, 0x38, 0x31, 0x3e, 
  0x92, 0x5c, 0x3e, 0x3e, 0xd2, 0x34, 0x31, 0xbd, 0xd1, 0x7f, 0x22, 0xbe, 
  0x98, 0xba, 0x82, 0xbd, 0x17, 0x91, 0x00, 0xbd, 0xba, 0xc9, 0x53, 0x3e, 
  0xaf, 0xa8, 0x2b, 0x3e, 0xb8, 0x61, 0x8e, 0x3e, 0x3f, 0xb6, 0x05, 0x3e, 
  0xea, 0xb5, 0x56, 0x3d, 0xf8, 0x23, 0x4c, 0x3d, 0x96, 0xc2, 0x7c, 0x3d, 
  0x24, 0x43, 0xc6, 0xbc, 0xd1, 0xc9, 0xa8, 0xbd, 0x21, 0xee, 0x02, 0xbe, 
  0x54, 0x99, 0xf0, 0xbd, 0xa1, 0xa9, 0x3a, 0xbe, 0x21, 0x59, 0x01, 0x3e, 
  0xde, 0xc6, 0x96, 0x3d, 0x6f, 0x7e, 0x65, 0x3e, 0x54, 0xdf, 0x34, 0x3d, 
  0xc3, 0x5d, 0xa8, 0xbd, 0x0d, 0x5d, 0x8b, 0x3d, 0xb4, 0x1f, 0xb6, 0x3d, 
  0x4a, 0xbb, 0x21, 0x3e, 0x53, 0xf3, 0x8c, 0x3e, 0x8e, 0xa5, 0x21, 0xbd, 
  0x9d, 0xac, 0x2b, 0x3e, 0x85, 0xb8, 0xe6, 0x3d, 0x1b, 0x9a, 0xea, 0x3c, 
  0xf1, 0xff, 0xe7, 0x3d, 0xb6, 0x11, 0x21, 0xbe, 0xcd, 0x48, 0x25, 0x3e, 
  0x8e, 0xf6, 0xf0, 0x3d, 0x8a, 0x01, 0x0a, 0x3e, 0x03, 0x81, 0x04, 0x3e, 
  0x91, 0x05, 0x51, 0x3e, 0xaa, 0xbe, 0x4a, 0xbd, 0xfd, 0xe7, 0x18, 0xbe, 
  0xea, 0x80, 0x21, 0xbe, 0xa0, 0xa3, 0xe9, 0x3d, 0x04, 0x51, 0x85, 0xbd, 
  0x37, 0x34, 0x22, 0x3e, 0xc9, 0x19, 0xe4, 0xbd, 0x83, 0x3c, 0x41, 0x3e, 
  0xfd, 0x2e, 0x36, 0xbe, 0x43, 0x64, 0x89, 0x3e, 0x86, 0x4a, 0xd1, 0xbd, 
  0x0c, 0x0f, 0x58, 0x3e, 0x5d, 0xa4, 0x83, 0x3e, 0x7f, 0xcf, 0x4e, 0xbe, 
  0xf8, 0x6d, 0x32, 0xbe, 0xc3, 0xf5, 0x56, 0xbe, 0x13, 0x9b, 0x82, 0x3e, 
  0xbc, 0x8f, 0x22, 0x3e, 0x4e, 0x76, 0x30, 0xbe, 0x4f, 0x4e, 0x9f, 0x3c, 
  0x37, 0x88, 0x18, 0x3e, 0xf8, 0xbd, 0x13, 0xbe, 0x00, 0x6f, 0xca, 0xbd, 
  0x99, 0x45, 0x4f, 0x3e, 0x12, 0xbc, 0xeb, 0x3d, 0xab, 0x71, 0x78, 0x3e, 
  0x0c, 0xc0, 0x36, 0x3e, 0x75, 0x2a, 0xe1, 0xbd, 0x2a, 0x1e, 0x45, 0xbe, 
  0xb7, 0x65, 0x54, 0x3e, 0xac, 0xc2, 0xce, 0xbd, 0x4b, 0x07, 0x61, 0x3e, 
  0xb1, 0x62, 0x3c, 0xbe, 0x09, 0xaa, 0xc8, 0xbd, 0xdd, 0xc7, 0x77, 0x3d, 
  0x59, 0x25, 0x5c, 0xbe, 0x63, 0x1f, 0x87, 0xbd, 0x4d, 0xcd, 0x7e, 0xbe, 
  0xa1, 0x91, 0x81, 0x3e, 0x87, 0xfd, 0x00, 0xbd, 0x32, 0x41, 0x15, 0xbe, 
  0xa9, 0xf6, 0x4c, 0xbb, 0xae, 0x70, 0x13, 0xbe, 0xdf, 0x5a, 0x1f, 0x3d, 
  0x41, 0x1a, 0x87, 0x3d, 0x82, 0x70, 0x3d, 0xbe, 0x29, 0xf3, 0x56, 0xbd, 
  0xf0, 0x70, 0xeb, 0x3c, 0x45, 0x27, 0x5a, 0xbe, 0xfc, 0xa2, 0x5b, 0x3e, 
  0xf5, 0x8c, 0x76, 0x3e, 0x7f, 0xc8, 0x42, 0xbc, 0x85, 0xa6, 0x18, 0xbe, 
  0x70, 0x7d, 0x58, 0x3e, 0x74, 0x14, 0x1f, 0xbd, 0xbb, 0x12, 0xdf, 0xbd, 
  0x4c, 0x9a, 0x30, 0x3e, 0x09, 0x39, 0x05, 0xbe, 0x7c, 0x20, 0x69, 0x3e, 
  0xca, 0x38, 0xf9, 0x3d, 0x50, 0x01, 0x90, 0x3e, 0x1b, 0x9a, 0x2a, 0xbe, 
  0x97, 0x9f, 0x41, 0xbe, 0xc1, 0x63, 0x7b, 0x3e, 0x02, 0x97, 0x36, 0xbd, 
  0xf7, 0x1e, 0x2b, 0x3e, 0xbf, 0xb3, 0xec, 0xbd, 0x83, 0xa9, 0xda, 0x3d, 
  0x50, 0x04, 0x50, 0xbe, 0x54, 0xd1, 0x0a, 0xbd, 0xa7, 0x98, 0xda, 0xbd, 
  0x66, 0x61, 0x8f, 0xbb, 0x29, 0x03, 0x47, 0xbe, 0xfd, 0xb7, 0xb0, 0xbd, 
  0x25, 0x17, 0xd6, 0x3d, 0x94, 0xe7, 0x4a, 0xbc, 0x1c, 0x10, 0x36, 0x3d, 
  0x65, 0x3b, 0x80, 0x3e, 0x38, 0xa1, 0x21, 0x3e, 0xab, 0xa5, 0x37, 0x3e, 
  0x1b, 0x46, 0x36, 0x3d, 0x6f, 0x1f, 0x18, 0xbe, 0x12, 0x64, 0xaf, 0xbc, 
  0x1e, 0x32, 0x5e, 0x3e, 0x6d, 0x83, 0xb3, 0xbd, 0x62, 0x6e, 0x5f, 0x3e, 
  0x84, 0x73, 0xc9, 0x3d, 0x16, 0x55, 0x09, 0x3d, 0x52, 0xbf, 0x04, 0x3e, 
  0xf5, 0x4c, 0x9a, 0x3d, 0xe2, 0xd2, 0x1b, 0xbe, 0x81, 0xc9, 0xec, 0x3d, 
  0xfc, 0x75, 0x39, 0xbd, 0xa8, 0xa3, 0xbe, 0xbd, 0xe0, 0x7d, 0x24, 0xbe, 
  0x1d, 0xa6, 0xe6, 0x3c, 0x01, 0xc3, 0x6e, 0x3e, 0x62, 0xfb, 0x28, 0x3e, 
  0x42, 0x77, 0x4f, 0x3e, 0xe5, 0xf2, 0x56, 0x3e, 0x1c, 0x32, 0x2d, 0x39, 
  0x87, 0xea, 0x2d, 0xbe, 0x38, 0xc1, 0x19, 0x3e, 0xf8, 0xd7, 0x7e, 0xbd, 
  0x74, 0x70, 0x9d, 0xbd, 0x1a, 0x5f, 0x44, 0x3e, 0x97, 0xf5, 0x4d, 0x3e, 
  0xf1, 0xdb, 0x30, 0x3e, 0x3e, 0x45, 0x02, 0xbd, 0x22, 0x24, 0x58, 0xbc, 
  0x1d, 0xdb, 0x6f, 0x3e, 0x37, 0xf6, 0xc4, 0x3d, 0x84, 0x5f, 0xa2, 0xbd, 
  0xcc, 0xaf, 0x97, 0xbb, 0xb4, 0x50, 0x88, 0x3e, 0xb5, 0x71, 0xd1, 0xbd, 
  0x0e, 0xf1, 0xca, 0x3d, 0xc6, 0x1a, 0x03, 0x3d, 0x9d, 0x2f, 0x08, 0xbe, 
  0x67, 0xf0, 0x87, 0x3e, 0x38, 0x99, 0x57, 0xbe, 0x2f, 0x16, 0x38, 0xbe, 
  0x36, 0xf4, 0x06, 0x3c, 0xdc, 0x6b, 0x63, 0xbe, 0xef, 0x8b, 0x16, 0xbe, 
  0x5f, 0x4f, 0x43, 0xbe, 0xac, 0xf7, 0x15, 0x3d, 0x8b, 0x81, 0x2b, 0x3d, 
  0xc0, 0xbd, 0xca, 0x3d, 0xac, 0x6c, 0x27, 0x3e, 0xdb, 0xa4, 0x96, 0xbd, 
  0x25, 0xd2, 0x3e, 0xbe, 0x04, 0x71, 0x31, 0xbe, 0x0b, 0x32, 0x11, 0x3e, 
  0x2e, 0x61, 0x67, 0xbe, 0x52, 0xdf, 0x62, 0x3d, 0x27, 0xe9, 0x0c, 0x3d, 
  0x0a, 0x75, 0x2f, 0x3e, 0x0b, 0x08, 0x4d, 0xbd, 0x20, 0xf1, 0xc4, 0x3d, 
  0xce, 0x87, 0x8c, 0x3d, 0xa4, 0x8a, 0x13, 0xbe, 0x66, 0x1d, 0xc9, 0xbd, 
  0x36, 0xe2, 0x6b, 0x3e, 0xf8, 0xd7, 0x9b, 0x3d, 0x3d, 0xf8, 0x4f, 0x3e, 
  0xca, 0x21, 0xff, 0x39, 0x7f, 0x37, 0x7e, 0xbd, 0x73, 0x34, 0x20, 0xbc, 
  0xe5, 0xad, 0xbd, 0xbd, 0x45, 0x63, 0x10, 0x3e, 0x05, 0xf7, 0xfb, 0x3d, 
  0x80, 0x87, 0x5d, 0xbe, 0x35, 0xfb, 0x01, 0xbe, 0xd5, 0x5a, 0x63, 0xbe, 
  0xa8, 0xde, 0x48, 0xbd, 0x67, 0x53, 0xb5, 0xbd, 0x71, 0xe7, 0x8c, 0x3d, 
  0x12, 0x2e, 0x41, 0x3e, 0x9b, 0xa3, 0x29, 0x3d, 0x01, 0xfb, 0x4f, 0x3e, 
  0x2d, 0x5b, 0x3e, 0xbd, 0xfa, 0x49, 0x3b, 0x3e, 0x78, 0xe3, 0x55, 0xbe, 
  0xd3, 0xe0, 0x2e, 0x3e, 0x44, 0x4a, 0x4e, 0xbe, 0xbe, 0xc8, 0x45, 0x3d, 
  0xfd, 0xd8, 0x78, 0xbc, 0x3b, 0xa0, 0x05, 0x3e, 0x8b, 0x2d, 0x2c, 0xbe, 
  0x93, 0x54, 0x28, 0xbe, 0xf6, 0x7d, 0x69, 0xbe, 0xfa, 0xcb, 0x57, 0x3d, 
  0xc3, 0x8d, 0x52, 0x3e, 0x5e, 0x5f, 0x20, 0xbe, 0x57, 0xf6, 0x42, 0xbe, 
  0xc2, 0xad, 0x80, 0xbe, 0x29, 0xe2, 0x25, 0x3c, 0x7f, 0xf4, 0x13, 0x3e, 
  0x60, 0xc1, 0xd5, 0x3d, 0xbc, 0x86, 0xba, 0xbc, 0x1f, 0xa5, 0x27, 0xbd, 
  0xd6, 0xf9, 0xf9, 0x3d, 0x1c, 0xa7, 0x49, 0x3e, 0xe8, 0x21, 0xbe, 0xbd, 
  0xde, 0x80, 0xc4, 0xbd, 0x7f, 0x76, 0x1a, 0xbe, 0x2d, 0xdc, 0xec, 0x3d, 
  0x79, 0xe8, 0x96, 0x3b, 0xa2, 0xcc, 0x03, 0x3e, 0x1e, 0x64, 0xfa, 0x3d, 
  0xcf, 0x9c, 0x57, 0x3e, 0xa0, 0xc5, 0x75, 0x3c, 0x9c, 0x98, 0x86, 0x3c, 
  0x96, 0x31, 0xc6, 0xbd, 0xb9, 0xe5, 0x5e, 0xbd, 0xe6, 0x7d, 0x06, 0xbe, 
  0x41, 0xfa, 0x6d, 0x3d, 0x0b, 0x23, 0x43, 0x3e, 0x20, 0x87, 0xee, 0xbd, 
  0x30, 0x32, 0x76, 0xbe, 0x66, 0xc9, 0x40, 0x3e, 0xa0, 0x10, 0xd9, 0x3a, 
  0x3b, 0x5a, 0x3c, 0xbe, 0x48, 0x7f, 0x3a, 0x3d, 0x16, 0x32, 0xf1, 0xbd, 
  0xe5, 0x04, 0xf6, 0x3b, 0x31, 0xc0, 0x3e, 0xbd, 0x6c, 0x5d, 0x2b, 0x3c, 
  0x72, 0x18, 0xa9, 0x3d, 0x15, 0x7e, 0x24, 0xbd, 0x51, 0xc6, 0xee, 0xbc, 
  0x11, 0xa7, 0x72, 0x3e, 0x8a, 0x61, 0xd9, 0x3d, 0x05, 0x14, 0x70, 0x3e, 
  0x3e, 0x32, 0x63, 0xbe, 0xd7, 0x98, 0x2a, 0x3e, 0x03, 0xa8, 0x81, 0x3d, 
  0x77, 0x24, 0xd3, 0xbd, 0x98, 0x38, 0x44, 0xbe, 0xef, 0xad, 0x6b, 0x3e, 
  0xb0, 0xd0, 0xc1, 0xbd, 0x27, 0xe1, 0x02, 0x3e, 0xed, 0xd5, 0x91, 0x3e, 
  0xd0, 0xe3, 0xc4, 0x3d, 0xd5, 0x7e, 0x8b, 0x3e, 0x0f, 0x56, 0x1c, 0xbe, 
  0x7a, 0x8c, 0x94, 0xbd, 0x7a, 0x5b, 0xe8, 0xbd, 0x12, 0x51, 0xb4, 0x3d, 
  0xc0, 0x6d, 0x43, 0x3e, 0x66, 0xbc, 0x49, 0x3e, 0xbf, 0x21, 0x86, 0xbd, 
  0x37, 0x6b, 0xdc, 0x3b, 0x24, 0x02, 0x84, 0x3e, 0x73, 0x72, 0x6b, 0x3d, 
  0x31, 0x86, 0x24, 0x3e, 0x98, 0x86, 0x4d, 0xbd, 0x9d, 0x8a, 0x68, 0xbd, 
  0xc6, 0x37, 0x4f, 0x3e, 0x19, 0x1e, 0xd8, 0xbb, 0x9a, 0xbe, 0x7e, 0x3e, 
  0x24, 0xd2, 0xdf, 0xbd, 0x28, 0xf8, 0xd9, 0xbd, 0x26, 0x06, 0x85, 0x3d, 
  0xe7, 0x92, 0x51, 0x3e, 0x6f, 0x85, 0x08, 0x3e, 0xce, 0xcc, 0xf2, 0x3d, 
  0x4c, 0x05, 0xe0, 0x3c, 0x1b, 0x0c, 0x4e, 0xbd, 0x40, 0x03, 0x8f, 0xbe, 
  0x79, 0x1d, 0xa5, 0x3e, 0xc3, 0xb4, 0x14, 0xbe, 0x40, 0x4a, 0x78, 0x3d, 
  0xdb, 0x2b, 0xc1, 0xbd, 0xd4, 0xed, 0x1d, 0x3e, 0x3e, 0xc0, 0x2a, 0xbe, 
  0x6e, 0x50, 0xa6, 0xbd, 0x79, 0x59, 0x95, 0xbd, 0x55, 0x10, 0xe1, 0xbb, 
  0xb2, 0xa3, 0xd9, 0x3d, 0x12, 0x28, 0x0c, 0x3d, 0xd1, 0xf0, 0x10, 0x3d, 
  0xb4, 0xa3, 0xa1, 0xbd, 0x76, 0x81, 0x52, 0xbe, 0x4c, 0x99, 0xd7, 0xbd, 
  0xa1, 0x5f, 0x8c, 0xbe, 0x88, 0xf0, 0x13, 0x3e, 0xd0, 0x7a, 0x0f, 0xbd, 
  0x11, 0x6b, 0x6b, 0xbd, 0xee, 0x57, 0x03, 0x3e, 0xf4, 0x4d, 0xb9, 0x3d, 
  0x53, 0xbb, 0xc5, 0x3c, 0x1b, 0x0b, 0x30, 0xbd, 0x9c, 0x3e, 0x09, 0xbe, 
  0x35, 0x80, 0x5d, 0x3e, 0xc6, 0x24, 0xcc, 0xbc, 0x77, 0xd5, 0x78, 0xbe, 
  0x5e, 0xb3, 0x2b, 0xbe, 0xe0, 0xcc, 0x3e, 0x3e, 0x72, 0xc4, 0xa7, 0x3c, 
  0xb9, 0xfe, 0x24, 0xbe, 0x04, 0xd8, 0x25, 0x3e, 0x26, 0x79, 0x27, 0x3e, 
  0x45, 0x5c, 0x29, 0x3e, 0x6b, 0xe9, 0xce, 0x3c, 0x00, 0x70, 0xbb, 0x3d, 
  0x41, 0xe7, 0xdf, 0x3d, 0x76, 0x19, 0xfd, 0x3d, 0xf1, 0x78, 0x96, 0xbe, 
  0xe4, 0x1d, 0x63, 0x3e, 0xe5, 0xd9, 0x4b, 0xbd, 0xf0, 0x0d, 0x02, 0xbe, 
  0xe7, 0x6e, 0x11, 0xbc, 0xa5, 0xdb, 0x21, 0xbe, 0xa2, 0x23, 0x91, 0x3c, 
  0x3b, 0x9f, 0x42, 0xbe, 0x12, 0x7c, 0x16, 0xbe, 0xbf, 0x52, 0xdc, 0x3c, 
  0xe5, 0x32, 0x66, 0x3e, 0x1a, 0x0d, 0x83, 0xbe, 0x04, 0x87, 0x32, 0xbd, 
  0xde, 0xb9, 0xf9, 0xbd, 0xef, 0xad, 0x06, 0x3e, 0x4a, 0x92, 0xdd, 0x3c, 
  0xde, 0x14, 0xb2, 0x3d, 0x11, 0x23, 0xbc, 0x3d, 0x3d, 0x36, 0xa3, 0x3c, 
  0xa6, 0x56, 0x08, 0x3e, 0x77, 0xe6, 0x0d, 0x3e, 0x16, 0xf2, 0x6b, 0xbe, 
  0x4c, 0x8f, 0x0d, 0x3e, 0xa4, 0x04, 0x9e, 0xbd, 0x53, 0x80, 0x2d, 0xbd, 
  0x1e, 0xbf, 0x8c, 0xbd, 0xb8, 0x08, 0x13, 0xbe, 0xcb, 0xf6, 0x74, 0xbe, 
  0x70, 0x5c, 0x4a, 0x3c, 0xdf, 0x64, 0x5b, 0xbe, 0x0e, 0x59, 0x0d, 0x3e, 
  0x71, 0x1a, 0x81, 0xbe, 0x01, 0x5b, 0xaa, 0x3b, 0xfb, 0x51, 0x96, 0xbd, 
  0x96, 0xfc, 0xd5, 0xbd, 0x0f, 0xd0, 0x91, 0xbe, 0x0b, 0x2f, 0xd0, 0xbd, 
  0x63, 0x07, 0x04, 0xbd, 0x83, 0x52, 0x13, 0xbd, 0x6d, 0x53, 0x66, 0x3e, 
  0xaa, 0xdb, 0x2e, 0xbe, 0xd7, 0x16, 0xaf, 0x3d, 0xc4, 0xc0, 0x1f, 0xbe, 
  0x0b, 0x82, 0x2f, 0xbd, 0xe2, 0x5a, 0x16, 0xbe, 0xd1, 0xd8, 0x40, 0x3d, 
  0x61, 0x65, 0x80, 0xbe, 0x08, 0xbb, 0xa5, 0x3d, 0x77, 0xaa, 0x98, 0x3e, 
  0x2d, 0xbe, 0x41, 0xbd, 0x4c, 0x2c, 0x23, 0xbe, 0xd8, 0x3b, 0x8d, 0x3e, 
  0xd1, 0xac, 0xcb, 0x3d, 0x49, 0x28, 0x58, 0x3e, 0x33, 0xf1, 0xfb, 0x3d, 
  0x41, 0x52, 0xa1, 0xbd, 0x4f, 0xba, 0xa8, 0xbd, 0xdc, 0x72, 0x17, 0xbe, 
  0x3b, 0x41, 0x7d, 0x3e, 0xba, 0x69, 0xc7, 0x3b, 0xed, 0x95, 0x2f, 0xbd, 
  0x80, 0xcb, 0x16, 0x3d, 0x57, 0x63, 0x08, 0x3e, 0xf0, 0x2b, 0x7d, 0xbd, 
  0xd5, 0xa4, 0x05, 0x3d, 0xda, 0xdc, 0x35, 0x3e, 0xfa, 0xb6, 0xd7, 0xbd, 
  0x59, 0xad, 0x4a, 0x3e, 0xa3, 0x01, 0x13, 0xbd, 0x58, 0x9b, 0x71, 0x3e, 
  0x6b, 0xcb, 0x9d, 0x3e, 0x8c, 0x84, 0x90, 0x3e, 0x8d, 0x69, 0x25, 0x3e, 
  0xe5, 0xd4, 0x1b, 0xbc, 0xc1, 0xd5, 0x5f, 0x3e, 0x07, 0x3b, 0x37, 0x3e, 
  0x4e, 0x8e, 0x0d, 0xbd, 0x5e, 0xaa, 0x02, 0xbe, 0x16, 0x7f, 0xcc, 0x3e, 
  0x57, 0xd7, 0x46, 0x3e, 0xc2, 0x91, 0xe7, 0x3c, 0x57, 0x2b, 0x17, 0xbe, 
  0x99, 0x30, 0x2d, 0x3e, 0x5a, 0xd1, 0x06, 0x3e, 0x96, 0x70, 0x99, 0x3e, 
  0x85, 0xbc, 0xb3, 0x3e, 0xc4, 0xe1, 0xec, 0xbd, 0xbc, 0xb4, 0x33, 0xbe, 
  0xe8, 0x73, 0x98, 0x3d, 0x34, 0x31, 0x89, 0x3e, 0xce, 0x3e, 0x23, 0x3d, 
  0x66, 0x45, 0x89, 0x3e, 0x4d, 0x76, 0x68, 0x3e, 0x8a, 0xd3, 0x24, 0xbe, 
  0x1c, 0xcc, 0xaa, 0xbd, 0x84, 0x96, 0x0b, 0xbe, 0x76, 0x4f, 0x57, 0xbd, 
  0xd8, 0x26, 0x8d, 0x3e, 0x84, 0x59, 0x80, 0x3e, 0xc9, 0x18, 0x98, 0xbd, 
  0x5d, 0xb6, 0x20, 0x3e, 0xa7, 0xaa, 0xa3, 0x3e, 0xe1, 0x1d, 0x9c, 0x3e, 
  0x93, 0x74, 0xa6, 0x3d, 0xae, 0x9c, 0x9c, 0x3e, 0xae, 0x5b, 0x9f, 0xbd, 
  0x67, 0x51, 0x68, 0x3e, 0x9b, 0x12, 0x0e, 0xbc, 0x3c, 0x57, 0x56, 0x3e, 
  0x07, 0xbe, 0x21, 0xbe, 0x47, 0x7d, 0x6d, 0x3e, 0x5b, 0x4f, 0xdb, 0x3d, 
  0xf8, 0x09, 0x1d, 0x3e, 0xb1, 0xb6, 0x22, 0x3d, 0x27, 0x38, 0xce, 0xbd, 
  0x1f, 0xd2, 0xd9, 0xbd, 0x98, 0xbd, 0x04, 0x3c, 0x87, 0xd0, 0x6e, 0x3e, 
  0x3b, 0x6e, 0x79, 0x3d, 0x7a, 0x72, 0xaf, 0x3e, 0xba, 0x11, 0x82, 0x3e, 
  0x9d, 0x4e, 0xc8, 0x3d, 0x31, 0xa3, 0x4c, 0x3d, 0x5f, 0x91, 0x95, 0x3e, 
  0xb4, 0x0d, 0x0f, 0x3e, 0xc5, 0x6c, 0xb3, 0x3d, 0xc8, 0xa1, 0x5b, 0x3e, 
  0x23, 0x6b, 0xd4, 0x3d, 0xf7, 0x63, 0x8e, 0x3e, 0x3e, 0xbf, 0xea, 0xbd, 
  0xf5, 0x9b, 0xff, 0x3b, 0x36, 0x7a, 0x96, 0x3e, 0x8d, 0x3d, 0xd8, 0x3c, 
  0x98, 0x7f, 0x49, 0x3d, 0xfa, 0x9e, 0xa7, 0xbd, 0xe9, 0x92, 0x3f, 0xbc, 
  0xb4, 0xcd, 0x3f, 0x3d, 0x9c, 0x07, 0xe3, 0xbd, 0x4e, 0xa4, 0x76, 0x3e, 
  0x1c, 0xbb, 0x88, 0xbd, 0x52, 0xc5, 0xb1, 0x3e, 0x7f, 0x8c, 0xc2, 0x3d, 
  0xd9, 0xbf, 0x40, 0xbd, 0x49, 0xbb, 0x96, 0x3e, 0x1c, 0x40, 0x68, 0x3e, 
  0x6b, 0x8c, 0xa2, 0xbd, 0xe4, 0xf3, 0x22, 0x3e, 0x70, 0xa2, 0x87, 0x3e, 
  0x96, 0xd9, 0xcc, 0xbc, 0xdb, 0xee, 0x4f, 0x3e, 0x9e, 0x3c, 0x68, 0xbd, 
  0x31, 0x47, 0x26, 0xbe, 0xcc, 0x70, 0x73, 0x3e, 0xba, 0x43, 0x31, 0xbe, 
  0xf5, 0x57, 0x94, 0xbd, 0x4b, 0x9a, 0xc1, 0x3e, 0xfb, 0xd6, 0x48, 0x3e, 
  0xc6, 0x60, 0x2b, 0xbc, 0x81, 0x78, 0x14, 0xbd, 0xf9, 0xd8, 0x03, 0x3e, 
  0x35, 0x26, 0x1f, 0xbd, 0xb4, 0x51, 0x93, 0x3e, 0x89, 0x14, 0x5f, 0xbd, 
  0xdd, 0xf2, 0xe1, 0xbd, 0x3a, 0x69, 0xbc, 0xbc, 0xee, 0xb8, 0x83, 0x3e, 
  0x32, 0xc9, 0x96, 0x3e, 0xea, 0x7c, 0xb7, 0x3d, 0xef, 0x46, 0xfa, 0x3d, 
  0xcd, 0x0d, 0x74, 0xbd, 0xd4, 0xc2, 0x8a, 0x3e, 0x24, 0x34, 0xa7, 0x3d, 
  0x96, 0x3e, 0x91, 0x3e, 0x07, 0xd5, 0xe4, 0x3d, 0xe4, 0x0d, 0xd4, 0x3d, 
  0x3c, 0xa0, 0x50, 0x3e, 0x18, 0x8f, 0x7a, 0xbd, 0x22, 0x25, 0x82, 0xbe, 
  0xa8, 0x09, 0x6b, 0xbe, 0xf0, 0x22, 0x05, 0x3e, 0xd5, 0xc9, 0x4d, 0xbe, 
  0xd8, 0xab, 0xc6, 0xb7, 0x09, 0x13, 0x71, 0xbe, 0xf3, 0xeb, 0x14, 0xbe, 
  0xe6, 0x7d, 0x63, 0xbe, 0xf3, 0xd1, 0x5b, 0xbe, 0x51, 0x0a, 0xe8, 0xbd, 
  0xf5, 0xa0, 0x55, 0x3e, 0xc4, 0xbd, 0x67, 0x3c, 0xc0, 0x2f, 0x04, 0x3d, 
  0x7e, 0x22, 0xe5, 0xbd, 0x1a, 0x7e, 0xfd, 0xbd, 0x57, 0xd2, 0x59, 0x3d, 
  0xbe, 0x23, 0x52, 0x3e, 0x45, 0xb5, 0xf2, 0xbc, 0x74, 0x43, 0x35, 0xbb, 
  0x24, 0x1b, 0x14, 0xbe, 0xac, 0x82, 0x1a, 0xbe, 0x0c, 0xe4, 0x83, 0xbe, 
  0x32, 0x0d, 0xb0, 0x3d, 0x28, 0xe8, 0x34, 0x3d, 0x5e, 0x4d, 0x03, 0x38, 
  0xbb, 0x3f, 0xd7, 0xbc, 0xd3, 0xb3, 0xe8, 0xbb, 0x0f, 0xaa, 0x02, 0x3e, 
  0xd9, 0x2c, 0x02, 0x3e, 0x72, 0xcf, 0xc3, 0xbd, 0x6c, 0x4c, 0x6f, 0x3e, 
  0xef, 0x75, 0x2e, 0x3e, 0x54, 0x81, 0x0d, 0xbb, 0x36, 0xc3, 0x43, 0xbe, 
  0x8b, 0x13, 0x08, 0xbe, 0x18, 0x51, 0xb6, 0xbd, 0xdd, 0x62, 0xb8, 0xbd, 
  0x4e, 0xea, 0x5d, 0xbc, 0xf3, 0xbf, 0x45, 0xbe, 0x75, 0x68, 0xc3, 0xbc, 
  0xe3, 0x3b, 0x32, 0xbc, 0xab, 0x48, 0x8e, 0x3d, 0x7a, 0x55, 0x0c, 0x3e, 
  0x8c, 0xfb, 0x1c, 0xbe, 0x17, 0xf4, 0x3f, 0x3e, 0x62, 0xbf, 0x04, 0x3d, 
  0x3f, 0x13, 0x4b, 0x3c, 0x53, 0x57, 0xd2, 0x3c, 0xac, 0xa5, 0xf8, 0xbb, 
  0x84, 0x5e, 0xc6, 0xbd, 0x46, 0xdf, 0xfe, 0xba, 0x6f, 0xea, 0xa8, 0x3d, 
  0x74, 0xff, 0xd1, 0x3a, 0x01, 0x87, 0x46, 0x3e, 0xe9, 0x95, 0xcb, 0xbb, 
  0x91, 0xe9, 0x03, 0xbe, 0xd0, 0x60, 0x7f, 0x3e, 0xc6, 0x59, 0x29, 0xbe, 
  0x4d, 0x2e, 0xd8, 0x3d, 0xd3, 0xee, 0x77, 0xbe, 0xc7, 0xf4, 0x1b, 0xbd, 
  0x30, 0xea, 0xf8, 0x3d, 0x77, 0xba, 0xcd, 0xbb, 0xee, 0xb5, 0x40, 0x3e, 
  0x38, 0x3f, 0xee, 0xbd, 0x9f, 0x9a, 0xf6, 0xbc, 0xa9, 0xf4, 0xa2, 0x3c, 
  0x44, 0xcd, 0x0a, 0x3e, 0x94, 0x02, 0x1d, 0xbe, 0x9b, 0x61, 0xa2, 0xbd, 
  0x9a, 0xc0, 0xa1, 0xbd, 0x32, 0x69, 0xfb, 0x3d, 0xe5, 0x03, 0xa0, 0x3d, 
  0x2e, 0x76, 0xbb, 0xbd, 0xe3, 0xee, 0x98, 0x3c, 0x3e, 0x3a, 0xc4, 0x3c, 
  0x88, 0x56, 0xb8, 0xbc, 0x4d, 0x29, 0x65, 0x3e, 0xe7, 0xa0, 0xcb, 0xbd, 
  0x3d, 0xbe, 0xf3, 0xbd, 0x54, 0x30, 0x4f, 0x3e, 0x14, 0xb2, 0x8a, 0xbe, 
  0xda, 0x28, 0xc0, 0xbd, 0xc9, 0x65, 0x30, 0xbe, 0x9c, 0xfd, 0x35, 0xbe, 
  0x4b, 0xef, 0x0a, 0xbe, 0x7a, 0x51, 0x6d, 0xbc, 0x47, 0x98, 0x07, 0x3e, 
  0xf3, 0x27, 0x43, 0x3e, 0x43, 0x8b, 0x7a, 0xbe, 0x5c, 0xd5, 0x92, 0x3d, 
  0x74, 0x0a, 0x67, 0xbd, 0xe8, 0x2f, 0xc4, 0xbd, 0xb8, 0xc4, 0x3b, 0x3e, 
  0x1e, 0x18, 0x2a, 0x3e, 0xac, 0x7e, 0x97, 0xbd, 0x6b, 0x85, 0xb9, 0xbc, 
  0x6e, 0xc8, 0x0b, 0xbe, 0x75, 0x25, 0x0d, 0x3e, 0x7a, 0x51, 0x36, 0xbe, 
  0xf5, 0x88, 0xc6, 0x3d, 0x00, 0xd0, 0x2b, 0x3e, 0xcb, 0xaf, 0xf3, 0xbd, 
  0x10, 0x1f, 0x80, 0xbe, 0x33, 0xfc, 0xac, 0x3d, 0x39, 0x22, 0x34, 0x3e, 
  0xcc, 0xb1, 0x40, 0x3e, 0x2f, 0x3c, 0xf4, 0xbc, 0x22, 0x5b, 0x89, 0xbe, 
  0x33, 0x1a, 0x4f, 0x3e, 0x04, 0xc9, 0x02, 0x3e, 0x2c, 0xae, 0xf2, 0xbd, 
  0xa9, 0xfe, 0x93, 0xbd, 0xc2, 0x1c, 0xf2, 0x3d, 0x84, 0x22, 0x67, 0x3c, 
  0xd6, 0x03, 0x3b, 0x3e, 0x31, 0xb3, 0x5a, 0xbe, 0xc4, 0xf6, 0x55, 0xbe, 
  0x2a, 0xcf, 0x21, 0x3e, 0xfa, 0x59, 0x18, 0xbd, 0xc3, 0xc0, 0x2f, 0x3b, 
  0x4e, 0x7e, 0x67, 0xbe, 0xc5, 0x53, 0x9d, 0x3d, 0xe7, 0x33, 0xe9, 0xbc, 
  0x94, 0x01, 0xea, 0x3c, 0xed, 0x6f, 0x27, 0xbe, 0x66, 0xb2, 0x45, 0xbe, 
  0xed, 0xb7, 0xe6, 0xbd, 0x3e, 0x4c, 0x2d, 0xbe, 0x99, 0x1b, 0xde, 0xbd, 
  0xc3, 0x72, 0x3d, 0xbd, 0x04, 0xae, 0x33, 0xbe, 0xb4, 0x12, 0x10, 0x3e, 
  0xc8, 0x03, 0x9e, 0x3c, 0xad, 0x40, 0x65, 0xbe, 0x8c, 0x9b, 0x51, 0x3c, 
  0x44, 0x0f, 0xbf, 0xba, 0x34, 0x33, 0xd4, 0xbd, 0x24, 0xe4, 0x85, 0x3d, 
  0x71, 0x7c, 0x0a, 0xbe, 0x2a, 0xf9, 0x31, 0xbe, 0xf8, 0x21, 0xb5, 0xbd, 
  0x36, 0xe4, 0xc7, 0xbd, 0x5e, 0xe9, 0x40, 0xbe, 0x75, 0xb9, 0xba, 0x38, 
  0x86, 0x0f, 0x09, 0x3e, 0x3f, 0x43, 0xa6, 0xbd, 0x5a, 0x99, 0x3e, 0x3e, 
  0x75, 0x4f, 0x4c, 0xbd, 0xb8, 0x25, 0xf7, 0x3c, 0xfe, 0xdc, 0x10, 0x3e, 
  0x70, 0x44, 0xa1, 0xbd, 0x02, 0xe1, 0x80, 0xbd, 0xb9, 0x7d, 0x10, 0xbe, 
  0x43, 0x51, 0x4d, 0x3d, 0xb8, 0x79, 0xbe, 0x3d, 0x94, 0x18, 0xbe, 0x3d, 
  0xd7, 0x75, 0x32, 0xbe, 0xf8, 0xfa, 0x27, 0xbe, 0x8c, 0x2c, 0x80, 0xbe, 
  0x30, 0x0e, 0x81, 0x3c, 0x21, 0x65, 0x09, 0xbd, 0xd4, 0x50, 0x4c, 0x3e, 
  0xd5, 0x35, 0x44, 0x3e, 0xaf, 0xac, 0x6b, 0xbe, 0xdd, 0x82, 0xdf, 0x3d, 
  0xcb, 0x51, 0x75, 0xbe, 0xed, 0xc4, 0xe1, 0xbc, 0xe5, 0x40, 0xc7, 0x3d, 
  0x94, 0xba, 0x81, 0xbe, 0x02, 0x4a, 0x4d, 0x3e, 0x11, 0xcf, 0x11, 0xbe, 
  0xe9, 0xe6, 0x70, 0xbd, 0x0f, 0x19, 0x4d, 0xbe, 0x33, 0x46, 0x8f, 0x3b, 
  0xca, 0xf0, 0x1f, 0x3e, 0x8f, 0xf5, 0xe9, 0x3b, 0x39, 0xde, 0x14, 0xbd, 
  0x3a, 0x66, 0x0b, 0x3e, 0x6b, 0xe2, 0x3a, 0xbe, 0x15, 0xb3, 0x99, 0x3b, 
  0x0a, 0x1c, 0x2f, 0xbc, 0x1b, 0xe5, 0xf3, 0x3d, 0xfd, 0x5c, 0x1f, 0x3d, 
  0x45, 0x62, 0x19, 0xbe, 0xc7, 0x28, 0x01, 0x3e, 0x83, 0x02, 0xcc, 0x3d, 
  0x27, 0xaa, 0xe8, 0x3c, 0x60, 0x48, 0xc2, 0x3d, 0x12, 0x73, 0x25, 0xbe, 
  0xfc, 0xac, 0x23, 0x3d, 0x5e, 0xe4, 0x45, 0xbe, 0x36, 0x56, 0x4a, 0x3e, 
  0xf1, 0xd8, 0x65, 0xbe, 0x8f, 0xbb, 0x36, 0x3c, 0x98, 0x08, 0x9a, 0xbd, 
  0x68, 0xca, 0x94, 0xbd, 0x2b, 0x67, 0xe1, 0x3c, 0x21, 0xd9, 0x02, 0x3e, 
  0x04, 0xa2, 0x36, 0xbc, 0x3d, 0xb6, 0xbe, 0xbd, 0x67, 0x0c, 0x8e, 0xbe, 
  0x1e, 0xae, 0x38, 0x3e, 0xc6, 0xbc, 0x4a, 0xbe, 0xc1, 0x16, 0x86, 0xbd, 
  0x37, 0x14, 0x53, 0xbe, 0x4d, 0xe3, 0xe2, 0x3c, 0x28, 0xc4, 0x81, 0xbe, 
  0x24, 0x1e, 0x63, 0xbe, 0x4c, 0x37, 0xe0, 0xbd, 0x7d, 0x95, 0x34, 0x3e, 
  0x1f, 0x08, 0x04, 0xbe, 0x0b, 0x86, 0x30, 0x3e, 0x95, 0xb4, 0xf0, 0x3d, 
  0x9e, 0x8e, 0xe2, 0x3d, 0x88, 0x10, 0x91, 0xbd, 0x0e, 0xe6, 0xd7, 0xbb, 
  0xe0, 0xed, 0x35, 0x3e, 0x9e, 0x28, 0x7e, 0xbc, 0x6b, 0xc0, 0x1b, 0xbe, 
  0xfb, 0x13, 0x54, 0xbe, 0x10, 0x31, 0x8b, 0xbe, 0xe5, 0x60, 0x47, 0xbd, 
  0xab, 0xfb, 0x42, 0xbe, 0xd4, 0x88, 0xfd, 0xbd, 0x06, 0x6a, 0x11, 0xbe, 
  0x1e, 0x7b, 0x4e, 0x3e, 0x35, 0x2a, 0x23, 0x3e, 0xe1, 0x15, 0xbc, 0x3d, 
  0xd6, 0x19, 0x29, 0xbe, 0xc2, 0x29, 0x99, 0x3d, 0xf0, 0xfe, 0x1e, 0xbe, 
  0x58, 0x28, 0x3c, 0x3e, 0xfc, 0x6a, 0x28, 0xbd, 0xe7, 0xc3, 0x6e, 0xbe, 
  0x32, 0xd3, 0x11, 0xbd, 0xae, 0x33, 0x14, 0xbe, 0xdf, 0x18, 0x25, 0x3e, 
  0xf9, 0x46, 0xcd, 0x3c, 0x09, 0x1d, 0xd8, 0xbc, 0x4c, 0x1a, 0x0d, 0x3e, 
  0xfd, 0x89, 0x5f, 0xbd, 0x02, 0x2c, 0x66, 0xbd, 0x1a, 0xe9, 0x8b, 0xbd, 
  0x21, 0x42, 0x03, 0xbe, 0x00, 0x04, 0x82, 0xbd, 0x57, 0xbf, 0x53, 0x3e, 
  0x98, 0xa7, 0x1b, 0xbe, 0xec, 0xee, 0x58, 0x3d, 0x97, 0x90, 0x14, 0x3e, 
  0x64, 0x1a, 0x64, 0xbd, 0x58, 0x56, 0x81, 0xbe, 0x7f, 0x0a, 0x8d, 0xbc, 
  0xc0, 0x90, 0x35, 0xbe, 0x66, 0xad, 0x87, 0x3e, 0xe9, 0x6d, 0x85, 0x3e, 
  0xcb, 0x80, 0x57, 0x3e, 0x4a, 0xb6, 0x40, 0xbc, 0xb5, 0x94, 0x38, 0x3e, 
  0x56, 0xc9, 0xae, 0x3b, 0x46, 0x1b, 0x93, 0x3e, 0xea, 0xed, 0x9a, 0x3d, 
  0xd4, 0x81, 0xb7, 0x3e, 0x96, 0x6c, 0xb3, 0xbd, 0x68, 0x0d, 0x87, 0x3e, 
  0x2e, 0x2c, 0xca, 0xbc, 0xd2, 0x72, 0xf7, 0xbb, 0x64, 0x16, 0x37, 0x3e, 
  0x09, 0xbb, 0xa2, 0x3e, 0xb0, 0x92, 0xd5, 0xbb, 0x0f, 0x51, 0x64, 0x3e, 
  0x43, 0x40, 0x8e, 0x3e, 0x63, 0x94, 0x96, 0x3e, 0x04, 0x22, 0x7b, 0x3d, 
  0x79, 0x52, 0x60, 0x3e, 0x6d, 0x05, 0x13, 0x3e, 0x86, 0x77, 0xc1, 0xbd, 
  0x38, 0xda, 0x88, 0x3e, 0x3f, 0x8e, 0xac, 0xbd, 0xc1, 0x20, 0x8d, 0xbd, 
  0xff, 0x72, 0xe3, 0xbd, 0x39, 0xda, 0x72, 0xbd, 0x09, 0x9e, 0x53, 0x3e, 
  0x9e, 0xfd, 0x28, 0x3d, 0x5e, 0x58, 0xb8, 0x3c, 0xad, 0x51, 0x8e, 0xbc, 
  0x06, 0xad, 0xa7, 0x3d, 0x66, 0xfb, 0xda, 0x3d, 0xd3, 0x3d, 0xf3, 0xbc, 
  0xd4, 0xb0, 0x10, 0xbe, 0x18, 0x9c, 0x9c, 0x3e, 0x37, 0x44, 0x8f, 0x3d, 
  0x95, 0xca, 0x87, 0x3e, 0x01, 0x87, 0x15, 0x3c, 0x0d, 0x1a, 0x44, 0x3e, 
  0xac, 0x6a, 0x98, 0x3e, 0xad, 0xaf, 0x4c, 0xbe, 0x76, 0xaf, 0xb0, 0x3c, 
  0x49, 0xc1, 0x76, 0x3c, 0xec, 0x3d, 0xf6, 0x3d, 0x0e, 0x58, 0x8b, 0x3e, 
  0x75, 0x14, 0xf1, 0x3d, 0x4c, 0x8b, 0xc5, 0x3d, 0xbe, 0x1f, 0x81, 0x3e, 
  0xad, 0x78, 0x7a, 0x3e, 0xba, 0x21, 0x61, 0x3e, 0x4d, 0xfa, 0x20, 0xbe, 
  0xca, 0x09, 0x06, 0xbe, 0x95, 0xe0, 0x72, 0x3e, 0x91, 0x22, 0x65, 0x3e, 
  0x3e, 0xa2, 0xa5, 0x3e, 0x10, 0x02, 0x30, 0x3e, 0xd0, 0x2f, 0xb7, 0xbc, 
  0x76, 0xc9, 0xc1, 0xbd, 0xa3, 0x3a, 0x28, 0x3e, 0x8f, 0x40, 0x26, 0x3e, 
  0x57, 0x26, 0x92, 0x3e, 0xd2, 0xa7, 0xe5, 0x3d, 0xee, 0x64, 0x95, 0x3d, 
  0x72, 0xd5, 0x13, 0x3e, 0xd7, 0x33, 0x9d, 0x3d, 0x5d, 0xef, 0x40, 0x3d, 
  0x55, 0x3b, 0xa3, 0x3d, 0x40, 0x8c, 0x23, 0x3e, 0x68, 0xcf, 0x0e, 0xbe, 
  0x64, 0xc1, 0x3f, 0xbe, 0x64, 0x37, 0xa3, 0x3d, 0x09, 0x60, 0x16, 0xbe, 
  0xd7, 0xbe, 0x58, 0xbe, 0x96, 0x19, 0xdb, 0xbd, 0x6c, 0x4b, 0x18, 0x3e, 
  0xf2, 0x3f, 0x50, 0x3d, 0xa3, 0x78, 0xa8, 0xbd, 0x1f, 0xc0, 0xdd, 0xbd, 
  0xca, 0xa5, 0x64, 0xbe, 0x96, 0xcf, 0xe2, 0xbd, 0x86, 0x42, 0x24, 0xbe, 
  0xb6, 0x15, 0xb3, 0x3d, 0x29, 0x65, 0x95, 0xbd, 0x0c, 0x68, 0x65, 0xbe, 
  0x82, 0xa8, 0xd2, 0xbd, 0xfa, 0x3c, 0x97, 0x3d, 0xd1, 0x69, 0x21, 0xbe, 
  0x8f, 0x29, 0xd6, 0xbc, 0x10, 0x91, 0x5c, 0x3e, 0x73, 0x43, 0xce, 0xbd, 
  0x01, 0xa9, 0xac, 0xbd, 0x20, 0xb8, 0xa8, 0x3d, 0x71, 0x82, 0xd8, 0xbd, 
  0x5b, 0x7a, 0xeb, 0xbd, 0x28, 0xab, 0x5d, 0xbe, 0xac, 0x89, 0x5a, 0x3e, 
  0x79, 0x1e, 0xdd, 0xbd, 0x0b, 0xa6, 0x46, 0x3e, 0xc2, 0x04, 0xce, 0x3d, 
  0x33, 0xf4, 0x22, 0xbc, 0x10, 0xc6, 0x79, 0xbc, 0xc8, 0x73, 0x69, 0x3e, 
  0xb9, 0x60, 0x91, 0x3c, 0xaf, 0x27, 0x9a, 0xbd, 0xe7, 0x79, 0xfd, 0xbd, 
  0x93, 0x7e, 0x8d, 0x3d, 0x36, 0x15, 0x23, 0xbc, 0xfc, 0x77, 0x40, 0xbe, 
  0xbd, 0x1f, 0x70, 0xbd, 0x0c, 0xf0, 0xe6, 0xbd, 0x09, 0x11, 0xfa, 0xbd, 
  0x4e, 0xff, 0x86, 0xbd, 0x62, 0x13, 0x0b, 0xbe, 0x73, 0xbd, 0x3a, 0xbd, 
  0x82, 0x14, 0x87, 0x3d, 0x3b, 0xed, 0x30, 0xbe, 0x2b, 0x45, 0x7f, 0xbe, 
  0x01, 0x44, 0x11, 0x3e, 0xd9, 0x46, 0x9d, 0x3d, 0x74, 0x97, 0x33, 0xbd, 
  0x84, 0xc4, 0x4d, 0x3e, 0xb5, 0x63, 0x33, 0xbe, 0x14, 0x56, 0x16, 0x3e, 
  0x3d, 0x9c, 0x1b, 0x3e, 0x36, 0x45, 0x73, 0xbe, 0x50, 0xf5, 0x3a, 0xbd, 
  0x5e, 0xfd, 0xff, 0xff, 0x04, 0x00, 0x00, 0x00, 0x00, 0x02, 0x00, 0x00, 
  0xf5, 0x4e, 0x90, 0xbe, 0x72, 0x6c, 0xc4, 0xbe, 0x5f, 0xb5, 0x8a, 0x3e, 
  0xa1, 0x28, 0x72, 0xbe, 0x97, 0xdc, 0x94, 0xbe, 0xed, 0x82, 0xf6, 0xbd, 
  0xc3, 0x41, 0x9f, 0xbd, 0x5c, 0x51, 0x92, 0x3e, 0xac, 0xd0, 0x42, 0xbe, 
  0x11, 0x4a, 0xbf, 0xbe, 0x93, 0xc0, 0x90, 0x3e, 0xbc, 0x55, 0xcb, 0xbd, 
  0xbd, 0x92, 0x9e, 0xbe, 0xab, 0x7b, 0x62, 0xbd, 0x7c, 0x1a, 0x9e, 0x3e, 
  0x61, 0x36, 0x58, 0xbe, 0x67, 0xf9, 0x1c, 0xbe, 0x50, 0x26, 0x89, 0x3e, 
  0x45, 0x7d, 0xa1, 0xbc, 0xa5, 0x40, 0x50, 0x3e, 0x49, 0xcb, 0xa4, 0x3e, 
  0xdb, 0xf9, 0x4d, 0xbd, 0x2f, 0x32, 0x44, 0xbe, 0xe1, 0x2d, 0xb2, 0x3e, 
  0x56, 0xf8, 0x7e, 0x3e, 0x5c, 0xe0, 0xb1, 0x3e, 0x63, 0x6d, 0x41, 0x3e, 
  0xbb, 0x61, 0x9a, 0xbe, 0xc0, 0xbf, 0xd3, 0xbd, 0x33, 0xb8, 0xe4, 0xbd, 
  0xa3, 0xc3, 0x2f, 0x3c, 0xc4, 0xac, 0x14, 0x3e, 0xcf, 0xd1, 0x89, 0x3e, 
  0x9c, 0x4d, 0xe8, 0x3d, 0x69, 0xd5, 0x14, 0xbe, 0x45, 0xce, 0x78, 0x3e, 
  0xdd, 0xa5, 0xaf, 0xbe, 0x05, 0xd6, 0xa7, 0xbe, 0xc5, 0x8a, 0xa9, 0xbc, 
  0xc5, 0xee, 0x90, 0xbd, 0x08, 0x48, 0xd6, 0x3e, 0xe7, 0x43, 0x8d, 0x3d, 
  0x53, 0x4e, 0x45, 0x3e, 0xb5, 0xc7, 0x17, 0x3e, 0x0d, 0x87, 0x6d, 0x3c, 
  0x3e, 0xd5, 0xbf, 0x3e, 0x7f, 0xa1, 0x6d, 0x3e, 0xab, 0x01, 0x52, 0x3e, 
  0x74, 0x73, 0xd8, 0xbb, 0x69, 0x57, 0x85, 0xbe, 0x87, 0xd7, 0xd6, 0x3e, 
  0xed, 0x04, 0xba, 0x3d, 0x2b, 0x47, 0xb8, 0x3d, 0x6b, 0xf4, 0x67, 0x3e, 
  0xa2, 0xb0, 0x57, 0x3e, 0xa3, 0x11, 0xb5, 0xbe, 0xdb, 0x9e, 0xba, 0x3e, 
  0xf7, 0x4c, 0xc3, 0x3e, 0xd9, 0x50, 0xf7, 0xbd, 0xe7, 0x4b, 0x01, 0xbe, 
  0x4b, 0x32, 0xb9, 0xbe, 0x32, 0x1c, 0x78, 0xbe, 0x03, 0x02, 0x03, 0xbc, 
  0xaf, 0x78, 0x78, 0xbe, 0xce, 0x45, 0x33, 0x3e, 0x79, 0xa5, 0x43, 0x3c, 
  0x6e, 0x29, 0x8e, 0xbe, 0xdd, 0xf0, 0x8d, 0x3d, 0xec, 0xc1, 0x7c, 0x3e, 
  0xad, 0xda, 0xae, 0x3e, 0x2f, 0x9c, 0x33, 0xbe, 0xa4, 0x3e, 0xba, 0xbe, 
  0x1c, 0xed, 0xb6, 0xbd, 0x1a, 0xff, 0x3e, 0x3c, 0x22, 0x19, 0xea, 0xbe, 
  0xf9, 0x14, 0x55, 0x3e, 0xda, 0xec, 0x83, 0x3e, 0x8b, 0xba, 0x0f, 0x3e, 
  0x70, 0x46, 0xf7, 0xbd, 0x2d, 0xef, 0xe3, 0xbe, 0x56, 0xc8, 0xe6, 0xbd, 
  0x48, 0xcd, 0xef, 0xbe, 0x29, 0x4f, 0x29, 0x3e, 0x7d, 0xd7, 0x9a, 0xbe, 
  0xbe, 0x67, 0xab, 0xbe, 0x05, 0x3b, 0x88, 0xbb, 0xc2, 0x6f, 0x43, 0xbe, 
  0x45, 0xe0, 0xaa, 0xbd, 0x7b, 0xdc, 0x0c, 0xbe, 0x28, 0xbf, 0xee, 0xbe, 
  0x40, 0x74, 0xc3, 0xbe, 0xe7, 0xfe, 0xf0, 0x3c, 0x58, 0x22, 0xd8, 0xbc, 
  0x3e, 0xb4, 0x5b, 0xbe, 0xfc, 0x0a, 0x06, 0xbf, 0xf3, 0x26, 0xa8, 0x3e, 
  0x8e, 0xe0, 0x8a, 0x3e, 0x75, 0xbe, 0x95, 0xbe, 0xd8, 0x5e, 0x4f, 0xbd, 
  0x19, 0x90, 0x8d, 0x3e, 0x05, 0xd0, 0x55, 0xbe, 0xfc, 0xbd, 0x3e, 0xbe, 
  0x93, 0x9a, 0x12, 0x3e, 0x93, 0xe5, 0xa0, 0x3e, 0x70, 0x32, 0x88, 0xbd, 
  0x1c, 0x5a, 0xba, 0xbe, 0x96, 0xa4, 0xc7, 0xbd, 0x2b, 0x14, 0x95, 0x3e, 
  0xb0, 0xf1, 0xe7, 0x3d, 0x64, 0x95, 0xa7, 0x3e, 0x22, 0x4f, 0x3e, 0x3d, 
  0x00, 0xcc, 0x5e, 0x3d, 0x81, 0xe2, 0x0d, 0xbf, 0x90, 0xf2, 0x14, 0xbe, 
  0x85, 0x33, 0x1b, 0xbf, 0xdb, 0x32, 0xce, 0xbd, 0xc1, 0x59, 0x30, 0xbd, 
  0x9e, 0x1e, 0x37, 0x3e, 0xd6, 0xa2, 0xcb, 0x3d, 0x93, 0xdd, 0x9d, 0x3e, 
  0x0e, 0x0a, 0xc1, 0xbe, 0x73, 0x19, 0x03, 0xbe, 0x0a, 0xb0, 0x7c, 0x3e, 
  0xbc, 0xa1, 0xd3, 0xbd, 0xb3, 0xcb, 0xaa, 0x3d, 0x61, 0xc9, 0x07, 0x3e, 
  0x82, 0x4c, 0x9b, 0xbe, 0xe1, 0x51, 0x9f, 0x3e, 0x78, 0xfa, 0xff, 0xff, 
  0x7c, 0xfa, 0xff, 0xff, 0x0f, 0x00, 0x00, 0x00, 0x4d, 0x4c, 0x49, 0x52, 
  0x20, 0x43, 0x6f, 0x6e, 0x76, 0x65, 0x72, 0x74, 0x65, 0x64, 0x2e, 0x00, 
  0x01, 0x00, 0x00, 0x00, 0x14, 0x00, 0x00, 0x00, 0x00, 0x00, 0x0e, 0x00, 
  0x18, 0x00, 0x14, 0x00, 0x10, 0x00, 0x0c, 0x00, 0x08, 0x00, 0x04, 0x00, 
  0x0e, 0x00, 0x00, 0x00, 0x14, 0x00, 0x00, 0x00, 0x1c, 0x00, 0x00, 0x00, 
  0x24, 0x01, 0x00, 0x00, 0x28, 0x01, 0x00, 0x00, 0x2c, 0x01, 0x00, 0x00, 
  0x04, 0x00, 0x00, 0x00, 0x6d, 0x61, 0x69, 0x6e, 0x00, 0x00, 0x00, 0x00, 
  0x04, 0x00, 0x00, 0x00, 0xcc, 0x00, 0x00, 0x00, 0x84, 0x00, 0x00, 0x00, 
  0x50, 0x00, 0x00, 0x00, 0x14, 0x00, 0x00, 0x00, 0x00, 0x00, 0x0e, 0x00, 
  0x1a, 0x00, 0x14, 0x00, 0x10, 0x00, 0x0c, 0x00, 0x0b, 0x00, 0x04, 0x00, 
  0x0e, 0x00, 0x00, 0x00, 0x1c, 0x00, 0x00, 0x00, 0x00, 0x00, 0x00, 0x09, 
  0x1c, 0x00, 0x00, 0x00, 0x20, 0x00, 0x00, 0x00, 0x01, 0x00, 0x00, 0x00, 
  0x00, 0x00, 0x06, 0x00, 0x08, 0x00, 0x04, 0x00, 0x06, 0x00, 0x00, 0x00, 
  0x00, 0x00, 0x80, 0x3f, 0x01, 0x00, 0x00, 0x00, 0x0a, 0x00, 0x00, 0x00, 
  0x01, 0x00, 0x00, 0x00, 0x09, 0x00, 0x00, 0x00, 0x9a, 0xff, 0xff, 0xff, 
  0x10, 0x00, 0x00, 0x00, 0x00, 0x00, 0x00, 0x08, 0x0c, 0x00, 0x00, 0x00, 
  0x10, 0x00, 0x00, 0x00, 0x40, 0xfb, 0xff, 0xff, 0x01, 0x00, 0x00, 0x00, 
  0x09, 0x00, 0x00, 0x00, 0x03, 0x00, 0x00, 0x00, 0x08, 0x00, 0x00, 0x00, 
  0x01, 0x00, 0x00, 0x00, 0x03, 0x00, 0x00, 0x00, 0xca, 0xff, 0xff, 0xff, 
  0x10, 0x00, 0x00, 0x00, 0x00, 0x00, 0x00, 0x08, 0x10, 0x00, 0x00, 0x00, 
  0x14, 0x00, 0x00, 0x00, 0xba, 0xff, 0xff, 0xff, 0x00, 0x00, 0x00, 0x01, 
  0x01, 0x00, 0x00, 0x00, 0x08, 0x00, 0x00, 0x00, 0x03, 0x00, 0x00, 0x00, 
  0x07, 0x00, 0x00, 0x00, 0x02, 0x00, 0x00, 0x00, 0x04, 0x00, 0x00, 0x00, 
  0x00, 0x00, 0x0e, 0x00, 0x16, 0x00, 0x00, 0x00, 0x10, 0x00, 0x0c, 0x00, 
  0x0b, 0x00, 0x04, 0x00, 0x0e, 0x00, 0x00, 0x00, 0x18, 0x00, 0x00, 0x00, 
  0x00, 0x00, 0x00, 0x08, 0x18, 0x00, 0x00, 0x00, 0x1c, 0x00, 0x00, 0x00, 
  0x00, 0x00, 0x06, 0x00, 0x08, 0x00, 0x07, 0x00, 0x06, 0x00, 0x00, 0x00, 
  0x00, 0x00, 0x00, 0x01, 0x01, 0x00, 0x00, 0x00, 0x07, 0x00, 0x00, 0x00, 
  0x03, 0x00, 0x00, 0x00, 0x00, 0x00, 0x00, 0x00, 0x06, 0x00, 0x00, 0x00, 
  0x05, 0x00, 0x00, 0x00, 0x01, 0x00, 0x00, 0x00, 0x0a, 0x00, 0x00, 0x00, 
  0x01, 0x00, 0x00, 0x00, 0x00, 0x00, 0x00, 0x00, 0x0b, 0x00, 0x00, 0x00, 
  0xe8, 0x03, 0x00, 0x00, 0x90, 0x03, 0x00, 0x00, 0x38, 0x03, 0x00, 0x00, 
  0xfc, 0x02, 0x00, 0x00, 0xa4, 0x02, 0x00, 0x00, 0x50, 0x02, 0x00, 0x00, 
  0x04, 0x02, 0x00, 0x00, 0x74, 0x01, 0x00, 0x00, 0xdc, 0x00, 0x00, 0x00, 
  0x60, 0x00, 0x00, 0x00, 0x04, 0x00, 0x00, 0x00, 0x5a, 0xfc, 0xff, 0xff, 
  0x00, 0x00, 0x00, 0x01, 0x14, 0x00, 0x00, 0x00, 0x1c, 0x00, 0x00, 0x00, 
  0x1c, 0x00, 0x00, 0x00, 0x0b, 0x00, 0x00, 0x00, 0x34, 0x00, 0x00, 0x00, 
  0x02, 0x00, 0x00, 0x00, 0xff, 0xff, 0xff, 0xff, 0x04, 0x00, 0x00, 0x00, 
  0x44, 0xfc, 0xff, 0xff, 0x1b, 0x00, 0x00, 0x00, 0x53, 0x74, 0x61, 0x74, 
  0x65, 0x66, 0x75, 0x6c, 0x50, 0x61, 0x72, 0x74, 0x69, 0x74, 0x69, 0x6f, 
  0x6e, 0x65, 0x64, 0x43, 0x61, 0x6c, 0x6c, 0x5f, 0x31, 0x3a, 0x30, 0x00, 
  0x02, 0x00, 0x00, 0x00, 0x01, 0x00, 0x00, 0x00, 0x04, 0x00, 0x00, 0x00, 
  0xb2, 0xfc, 0xff, 0xff, 0x00, 0x00, 0x00, 0x01, 0x14, 0x00, 0x00, 0x00, 
  0x1c, 0x00, 0x00, 0x00, 0x1c, 0x00, 0x00, 0x00, 0x0a, 0x00, 0x00, 0x00, 
  0x54, 0x00, 0x00, 0x00, 0x02, 0x00, 0x00, 0x00, 0xff, 0xff, 0xff, 0xff, 
  0x04, 0x00, 0x00, 0x00, 0x9c, 0xfc, 0xff, 0xff, 0x38, 0x00, 0x00, 0x00, 
  0x73, 0x65, 0x71, 0x75, 0x65, 0x6e, 0x74, 0x69, 0x61, 0x6c, 0x5f, 0x31, 
  0x2f, 0x64, 0x65, 0x6e, 0x73, 0x65, 0x5f, 0x32, 0x5f, 0x31, 0x2f, 0x4d, 
  0x61, 0x74, 0x4d, 0x75, 0x6c, 0x3b, 0x73, 0x65, 0x71, 0x75, 0x65, 0x6e, 
  0x74, 0x69, 0x61, 0x6c, 0x5f, 0x31, 0x2f, 0x64, 0x65, 0x6e, 0x73, 0x65, 
  0x5f, 0x32, 0x5f, 0x31, 0x2f, 0x41, 0x64, 0x64, 0x00, 0x00, 0x00, 0x00, 
  0x02, 0x00, 0x00, 0x00, 0x01, 0x00, 0x00, 0x00, 0x04, 0x00, 0x00, 0x00, 
  0x2a, 0xfd, 0xff, 0xff, 0x00, 0x00, 0x00, 0x01, 0x14, 0x00, 0x00, 0x00, 
  0x1c, 0x00, 0x00, 0x00, 0x1c, 0x00, 0x00, 0x00, 0x09, 0x00, 0x00, 0x00, 
  0x70, 0x00, 0x00, 0x00, 0x02, 0x00, 0x00, 0x00, 0xff, 0xff, 0xff, 0xff, 
  0x20, 0x00, 0x00, 0x00, 0x14, 0xfd, 0xff, 0xff, 0x54, 0x00, 0x00, 0x00, 
  0x73, 0x65, 0x71, 0x75, 0x65, 0x6e, 0x74, 0x69, 0x61, 0x6c, 0x5f, 0x31, 
  0x2f, 0x64, 0x65, 0x6e, 0x73, 0x65, 0x5f, 0x31, 0x5f, 0x32, 0x2f, 0x4d, 
  0x61, 0x74, 0x4d, 0x75, 0x6c, 0x3b, 0x73, 0x65, 0x71, 0x75, 0x65, 0x6e, 
  0x74, 0x69, 0x61, 0x6c, 0x5f, 0x31, 0x2f, 0x64, 0x65, 0x6e, 0x73, 0x65, 
  0x5f, 0x31, 0x5f, 0x32, 0x2f, 0x52, 0x65, 0x6c, 0x75, 0x3b, 0x73, 0x65, 
  0x71, 0x75, 0x65, 0x6e, 0x74, 0x69, 0x61, 0x6c, 0x5f, 0x31, 0x2f, 0x64, 
  0x65, 0x6e, 0x73, 0x65, 0x5f, 0x31, 0x5f, 0x32, 0x2f, 0x41, 0x64, 0x64, 
  0x00, 0x00, 0x00, 0x00, 0x02, 0x00, 0x00, 0x00, 0x01, 0x00, 0x00, 0x00, 
  0x20, 0x00, 0x00, 0x00, 0xbe, 0xfd, 0xff, 0xff, 0x00, 0x00, 0x00, 0x01, 
  0x14, 0x00, 0x00, 0x00, 0x1c, 0x00, 0x00, 0x00, 0x1c, 0x00, 0x00, 0x00, 
  0x08, 0x00, 0x00, 0x00, 0x68, 0x00, 0x00, 0x00, 0x02, 0x00, 0x00, 0x00, 
  0xff, 0xff, 0xff, 0xff, 0x40, 0x00, 0x00, 0x00, 0xa8, 0xfd, 0xff, 0xff, 
  0x4e, 0x00, 0x00, 0x00, 0x73, 0x65, 0x71, 0x75, 0x65, 0x6e, 0x74, 0x69, 
  0x61, 0x6c, 0x5f, 0x31, 0x2f, 0x64, 0x65, 0x6e, 0x73, 0x65, 0x5f, 0x31, 
  0x2f, 0x4d, 0x61, 0x74, 0x4d, 0x75, 0x6c, 0x3b, 0x73, 0x65, 0x71, 0x75, 
  0x65, 0x6e, 0x74, 0x69, 0x61, 0x6c, 0x5f, 0x31, 0x2f, 0x64, 0x65, 0x6e, 
  0x73, 0x65, 0x5f, 0x31, 0x2f, 0x52, 0x65, 0x6c, 0x75, 0x3b, 0x73, 0x65, 
  0x71, 0x75, 0x65, 0x6e, 0x74, 0x69, 0x61, 0x6c, 0x5f, 0x31, 0x2f, 0x64, 
  0x65, 0x6e, 0x73, 0x65, 0x5f, 0x31, 0x2f, 0x41, 0x64, 0x64, 0x00, 0x00, 
  0x02, 0x00, 0x00, 0x00, 0x01, 0x00, 0x00, 0x00, 0x40, 0x00, 0x00, 0x00, 
  0x9e, 0xfe, 0xff, 0xff, 0x00, 0x00, 0x00, 0x01, 0x10, 0x00, 0x00, 0x00, 
  0x10, 0x00, 0x00, 0x00, 0x07, 0x00, 0x00, 0x00, 0x28, 0x00, 0x00, 0x00, 
  0x24, 0xfe, 0xff, 0xff, 0x1b, 0x00, 0x00, 0x00, 0x73, 0x65, 0x71, 0x75, 
  0x65, 0x6e, 0x74, 0x69, 0x61, 0x6c, 0x5f, 0x31, 0x2f, 0x64, 0x65, 0x6e, 
  0x73, 0x65, 0x5f, 0x31, 0x2f, 0x4d, 0x61, 0x74, 0x4d, 0x75, 0x6c, 0x00, 
  0x02, 0x00, 0x00, 0x00, 0x40, 0x00, 0x00, 0x00, 0x06, 0x00, 0x00, 0x00, 
  0xe6, 0xfe, 0xff, 0xff, 0x00, 0x00, 0x00, 0x01, 0x10, 0x00, 0x00, 0x00, 
  0x10, 0x00, 0x00, 0x00, 0x06, 0x00, 0x00, 0x00, 0x34, 0x00, 0x00, 0x00, 
  0x6c, 0xfe, 0xff, 0xff, 0x27, 0x00, 0x00, 0x00, 0x73, 0x65, 0x71, 0x75, 
  0x65, 0x6e, 0x74, 0x69, 0x61, 0x6c, 0x5f, 0x31, 0x2f, 0x64, 0x65, 0x6e, 
  0x73, 0x65, 0x5f, 0x31, 0x2f, 0x41, 0x64, 0x64, 0x2f, 0x52, 0x65, 0x61, 
  0x64, 0x56, 0x61, 0x72, 0x69, 0x61, 0x62, 0x6c, 0x65, 0x4f, 0x70, 0x00, 
  0x01, 0x00, 0x00, 0x00, 0x40, 0x00, 0x00, 0x00, 0x36, 0xff, 0xff, 0xff, 
  0x00, 0x00, 0x00, 0x01, 0x10, 0x00, 0x00, 0x00, 0x10, 0x00, 0x00, 0x00, 
  0x05, 0x00, 0x00, 0x00, 0x38, 0x00, 0x00, 0x00, 0xbc, 0xfe, 0xff, 0xff, 
  0x29, 0x00, 0x00, 0x00, 0x73, 0x65, 0x71, 0x75, 0x65, 0x6e, 0x74, 0x69, 
  0x61, 0x6c, 0x5f, 0x31, 0x2f, 0x64, 0x65, 0x6e, 0x73, 0x65, 0x5f, 0x31, 
  0x5f, 0x32, 0x2f, 0x41, 0x64, 0x64, 0x2f, 0x52, 0x65, 0x61, 0x64, 0x56, 
  0x61, 0x72, 0x69, 0x61, 0x62, 0x6c, 0x65, 0x4f, 0x70, 0x00, 0x00, 0x00, 
  0x01, 0x00, 0x00, 0x00, 0x20, 0x00, 0x00, 0x00, 0x8a, 0xff, 0xff, 0xff, 
  0x00, 0x00, 0x00, 0x01, 0x10, 0x00, 0x00, 0x00, 0x10, 0x00, 0x00, 0x00, 
  0x04, 0x00, 0x00, 0x00, 0x1c, 0x00, 0x00, 0x00, 0x10, 0xff, 0xff, 0xff, 
  0x0f, 0x00, 0x00, 0x00, 0x61, 0x72, 0x69, 0x74, 0x68, 0x2e, 0x63, 0x6f, 
  0x6e, 0x73, 0x74, 0x61, 0x6e, 0x74, 0x32, 0x00, 0x01, 0x00, 0x00, 0x00, 
  0x04, 0x00, 0x00, 0x00, 0xc2, 0xff, 0xff, 0xff, 0x00, 0x00, 0x00, 0x01, 
  0x10, 0x00, 0x00, 0x00, 0x10, 0x00, 0x00, 0x00, 0x03, 0x00, 0x00, 0x00, 
  0x1c, 0x00, 0x00, 0x00, 0x48, 0xff, 0xff, 0xff, 0x0f, 0x00, 0x00, 0x00, 
  0x61, 0x72, 0x69, 0x74, 0x68, 0x2e, 0x63, 0x6f, 0x6e, 0x73, 0x74, 0x61, 
  0x6e, 0x74, 0x31, 0x00, 0x02, 0x00, 0x00, 0x00, 0x20, 0x00, 0x00, 0x00, 
  0x40, 0x00, 0x00, 0x00, 0x00, 0x00, 0x16, 0x00, 0x18, 0x00, 0x14, 0x00, 
  0x00, 0x00, 0x10, 0x00, 0x0c, 0x00, 0x08, 0x00, 0x00, 0x00, 0x00, 0x00, 
  0x00, 0x00, 0x07, 0x00, 0x16, 0x00, 0x00, 0x00, 0x00, 0x00, 0x00, 0x01, 
  0x10, 0x00, 0x00, 0x00, 0x10, 0x00, 0x00, 0x00, 0x02, 0x00, 0x00, 0x00, 
  0x1c, 0x00, 0x00, 0x00, 0x9c, 0xff, 0xff, 0xff, 0x0e, 0x00, 0x00, 0x00, 
  0x61, 0x72, 0x69, 0x74, 0x68, 0x2e, 0x63, 0x6f, 0x6e, 0x73, 0x74, 0x61, 
  0x6e, 0x74, 0x00, 0x00, 0x02, 0x00, 0x00, 0x00, 0x04, 0x00, 0x00, 0x00, 
  0x20, 0x00, 0x00, 0x00, 0x00, 0x00, 0x16, 0x00, 0x1c, 0x00, 0x18, 0x00, 
  0x00, 0x00, 0x14, 0x00, 0x10, 0x00, 0x0c, 0x00, 0x00, 0x00, 0x00, 0x00, 
  0x08, 0x00, 0x07, 0x00, 0x16, 0x00, 0x00, 0x00, 0x00, 0x00, 0x00, 0x01, 
  0x14, 0x00, 0x00, 0x00, 0x20, 0x00, 0x00, 0x00, 0x20, 0x00, 0x00, 0x00, 
  0x01, 0x00, 0x00, 0x00, 0x3c, 0x00, 0x00, 0x00, 0x02, 0x00, 0x00, 0x00, 
  0xff, 0xff, 0xff, 0xff, 0x06, 0x00, 0x00, 0x00, 0x04, 0x00, 0x04, 0x00, 
  0x04, 0x00, 0x00, 0x00, 0x1e, 0x00, 0x00, 0x00, 0x73, 0x65, 0x72, 0x76, 
  0x69, 0x6e, 0x67, 0x5f, 0x64, 0x65, 0x66, 0x61, 0x75, 0x6c, 0x74, 0x5f, 
  0x6b, 0x65, 0x72, 0x61, 0x73, 0x5f, 0x74, 0x65, 0x6e, 0x73, 0x6f, 0x72, 
  0x3a, 0x30, 0x00, 0x00, 0x02, 0x00, 0x00, 0x00, 0x01, 0x00, 0x00, 0x00, 
  0x06, 0x00, 0x00, 0x00, 0x02, 0x00, 0x00, 0x00, 0x20, 0x00, 0x00, 0x00, 
  0x04, 0x00, 0x00, 0x00, 0xf4, 0xff, 0xff, 0xff, 0x19, 0x00, 0x00, 0x00, 
  0x00, 0x00, 0x00, 0x19, 0x0c, 0x00, 0x0c, 0x00, 0x0b, 0x00, 0x00, 0x00, 
  0x00, 0x00, 0x04, 0x00, 0x0c, 0x00, 0x00, 0x00, 0x09, 0x00, 0x00, 0x00, 
  0x00, 0x00, 0x00, 0x09, 
};

const unsigned int model_len = 12724;